<pad>	0
<unk>	0
▁	-3.10206
.	-3.57542
이	-4.29881
..	-4.43548
▁영화	-4.61081
의	-4.66254
...	-4.68436
도	-4.72541
가	-4.74232
는	-4.81048
을	-4.95061
,	-4.95869
에	-4.99866
다	-5.11292
고	-5.12584
은	-5.15118
지	-5.19162
▁"	-5.29396
한	-5.32619
?	-5.37921
를	-5.50422
만	-5.5225
로	-5.57759
▁너무	-5.58747
!	-5.67919
▁이	-5.72067
게	-5.72189
영화	-5.73787
▁정말	-5.7381
나	-5.76478
어	-5.8772
▁진짜	-5.93882
과	-5.94117
기	-5.94582
리	-5.95115
~	-5.9678
"	-6.01424
인	-6.03786
아	-6.04677
라	-6.07692
하고	-6.08236
점	-6.1779
네	-6.19379
으로	-6.19821
▁안	-6.24799
에서	-6.26197
▁잘	-6.26783
▁그	-6.30284
와	-6.30733
해	-6.3274
들	-6.33422
자	-6.34951
서	-6.35884
요	-6.36114
하는	-6.39604
▁1	-6.41404
스	-6.41423
."	-6.41713
▁다	-6.436
수	-6.43951
▁왜	-6.44395
....	-6.44472
▁수	-6.44757
거	-6.4516
▁더	-6.4525
▁아	-6.46396
네요	-6.46531
!!	-6.47555
▁이런	-6.4859
음	-6.49401
대	-6.58673
▁본	-6.60618
하	-6.61
▁그냥	-6.6188
니	-6.61999
시	-6.62489
면	-6.63846
함	-6.67057
▁드라마	-6.67107
사	-6.6794
하게	-6.68973
야	-6.70018
하다	-6.72516
지만	-6.75083
▁10	-6.75996
일	-6.76283
주	-6.76835
▁보고	-6.7697
우	-6.77548
▁연기	-6.77696
▁내	-6.78843
여	-6.80491
구	-6.83522
▁평점	-6.83731
▁한	-6.84464
정	-6.85235
▁영화를	-6.85798
진	-6.86339
이다	-6.86724
▁좀	-6.87386
데	-6.88281
보	-6.89443
임	-6.90129
미	-6.90164
할	-6.90403
드	-6.9104
상	-6.91062
신	-6.91127
▁못	-6.93109
▁최고	-6.93771
까지	-6.94356
▁쓰레기	-6.94603
보다	-6.9623
들이	-6.97171
는데	-6.98673
성	-6.98709
▁봤는데	-6.9932
던	-6.99702
중	-6.99993
▁없는	-7.01214
듯	-7.01309
안	-7.01397
해서	-7.01637
냐	-7.02114
치	-7.02184
장	-7.02466
▁이거	-7.03076
▁ᄏᄏ	-7.03148
▁참	-7.03353
▁없다	-7.0365
▁스토리	-7.04034
부	-7.0424
▁최고의	-7.04344
▁나	-7.04885
▁있는	-7.05551
▁영화는	-7.05938
▁영화가	-7.06565
▁완전	-7.07361
적	-7.07415
전	-7.08611
▁이건	-7.08951
!!!	-7.10254
▁내가	-7.10855
▁보는	-7.10892
ᄏᄏ	-7.10958
▁개	-7.11814
▁다시	-7.12215
마	-7.1279
▁2	-7.13786
히	-7.13853
▁것	-7.14117
려	-7.14319
러	-7.14481
▁좋은	-7.14704
트	-7.15184
화	-7.17261
그	-7.1811
건	-7.18681
때	-7.19662
▁말	-7.19667
▁이렇게	-7.19829
보고	-7.20341
질	-7.20534
오	-7.21413
▁이게	-7.2225
▁뭐	-7.22364
▁3	-7.22682
원	-7.2353
랑	-7.23642
▁난	-7.23879
내	-7.24209
분	-7.24381
^^	-7.24497
▁보	-7.25276
▁넘	-7.2579
세	-7.27096
1	-7.27498
비	-7.27714
물	-7.27999
▁오	-7.28194
인데	-7.28216
;;	-7.29233
ᄏ	-7.29445
소	-7.29734
라고	-7.3126
▁하	-7.31432
적인	-7.31473
~~	-7.31839
개	-7.32022
▁지	-7.33471
▁작품	-7.33754
▁많이	-7.34099
▁평점이	-7.34104
▁감동	-7.34365
제	-7.3475
▁생각	-7.36899
습니다	-7.37039
2	-7.3739
▁재밌게	-7.37513
식	-7.37944
▁저	-7.38374
년	-7.38505
진짜	-7.38592
▁전	-7.38721
선	-7.39076
것	-7.39881
▁볼	-7.40184
감	-7.40325
▁별로	-7.40645
같은	-7.41161
▁역시	-7.41768
▁재미	-7.4191
▁그리고	-7.42138
입니다	-7.42878
부터	-7.43498
▁무	-7.43502
유	-7.43677
어요	-7.44047
운	-7.44131
▁또	-7.44502
▁주	-7.45671
용	-7.45845
걸	-7.45865
▁마지막	-7.46854
했다	-7.4714
영	-7.47169
'	-7.47311
하지	-7.47552
급	-7.4839
작	-7.48578
▁감독	-7.48638
??	-7.48783
동	-7.48869
▁하나	-7.48892
씨	-7.48984
▁시간	-7.48998
무	-7.4911
말	-7.49449
▁정	-7.5049
▁꼭	-7.50928
편	-7.51173
▁하는	-7.51399
이나	-7.51926
디	-7.53629
간	-7.53708
▁사	-7.54243
된	-7.54353
▁마	-7.54497
군	-7.5472
▁액션	-7.55187
더	-7.552
▁아깝다	-7.55276
▁김	-7.55412
너무	-7.55466
본	-7.56164
▁없고	-7.56252
▁이야기	-7.56907
▁ᄏᄏᄏ	-7.57269
▁가장	-7.57434
▁별	-7.57534
▁무슨	-7.57824
▁사랑	-7.5789
▁아니	-7.5795
▁기대	-7.58057
줄	-7.58823
ᄏᄏᄏ	-7.59077
없는	-7.59131
드라마	-7.59479
당	-7.59754
좀	-7.60028
조	-7.60297
▁중	-7.60302
크	-7.60516
에게	-7.60568
▁자	-7.60688
▁대	-7.60992
남	-7.6124
정말	-7.61291
▁다른	-7.61573
호	-7.61662
▁비	-7.61909
▁명작	-7.61913
▁지금	-7.62084
라는	-7.62302
루	-7.62362
연	-7.62402
▁미	-7.62696
란	-7.62814
있는	-7.63526
▁만든	-7.637
▁보면	-7.63961
ᅲᅲ	-7.64684
▁유	-7.65126
▁일	-7.65642
;	-7.65794
3	-7.65871
▁어	-7.66173
긴	-7.66206
)	-7.66321
▁느낌	-7.66402
울	-7.66435
위	-7.67382
▁할	-7.6764
린	-7.67715
▁남	-7.68009
심	-7.68016
▁한국	-7.68587
으면	-7.68975
모	-7.69089
저	-7.69285
살	-7.69341
▁처음	-7.69431
▁돈	-7.69545
▁가	-7.70137
르	-7.71702
▁배우	-7.71818
워	-7.72186
▁일본	-7.73237
한다	-7.73454
래	-7.74042
준	-7.74893
난	-7.75155
판	-7.75591
바	-7.75982
처럼	-7.76038
명	-7.76176
류	-7.76349
▁신	-7.76382
레	-7.76728
들의	-7.77123
프	-7.77316
▁내용	-7.77445
단	-7.77587
▁연출	-7.782
파	-7.78235
▁조	-7.783
▁짱	-7.78307
경	-7.78568
▁ᄏ	-7.78658
▁ᅲᅲ	-7.78902
민	-7.79008
타	-7.79304
희	-7.79342
▁거	-7.79804
▁말이	-7.79842
차	-7.80446
▁알	-7.80481
▁두	-7.80581
었다	-7.80882
▁구	-7.80911
ᅲ	-7.81567
▁기	-7.81621
연기	-7.81848
노	-7.81854
▁고	-7.81909
합니다	-7.82786
두	-7.83004
인지	-7.8319
든	-7.83367
생	-7.83513
▁사람	-7.83585
▁영화다	-7.83803
▁끝까지	-7.84016
▁같은	-7.84079
▁부	-7.84186
▁때	-7.84348
▁있다	-7.84864
(	-7.8512
지는	-7.85128
후	-7.85174
▁좋다	-7.85572
인가	-7.85645
엔	-7.8603
했던	-7.86036
며	-7.86442
죠	-7.87014
▁여자	-7.87223
▁해	-7.87654
면서	-7.87923
되는	-7.87997
▁ᅳᅳ	-7.88584
번	-7.88653
▁제	-7.89035
▁'	-7.89081
▁전혀	-7.89196
재	-7.89219
못	-7.89249
까	-7.893
박	-7.89321
방	-7.89517
길	-7.89995
시간	-7.9016
▁하지만	-7.90566
▁봤다	-7.91002
▁같다	-7.91096
▁시	-7.91147
▁후	-7.91452
▁뭔가	-7.91464
▁대한	-7.91756
하지만	-7.91921
▁소	-7.92435
잘	-7.92469
ᅳᅳ	-7.9315
▁솔직히	-7.9321
스토리	-7.9359
피	-7.93648
▁와	-7.9482
▁재밌다	-7.9484
이랑	-7.95149
▁아주	-7.95171
발	-7.9528
▁많은	-7.95328
▁아니라	-7.95783
하면	-7.958
▁좋아	-7.9586
▁되	-7.96181
들은	-7.9635
▁우	-7.96524
때문에	-7.96945
되	-7.96956
▁굿	-7.97243
▁한번	-7.97526
이라	-7.9755
▁봐도	-7.97874
▁인생	-7.9806
구나	-7.98112
실	-7.98254
▁이상	-7.98429
▁강	-7.98446
▁ᄒᄒ	-7.98517
없이	-7.98544
석	-7.98762
▁최악	-7.98785
▁배우들	-7.98999
국	-7.99089
하나	-7.9934
▁그런	-7.99522
적으로	-7.99557
애	-7.99658
터	-7.9972
▁대박	-7.99804
▁줄	-7.99856
하네요	-7.9991
o	-8.00038
달	-8.00077
반	-8.00147
날	-8.00273
보는	-8.0044
-	-8.00464
생각	-8.00625
관	-8.00774
▁이해	-8.01158
림	-8.01313
▁우리	-8.0139
재미	-8.01427
겨	-8.01434
다가	-8.01545
▁애	-8.01709
▁이영화	-8.01827
형	-8.02161
▁모두	-8.022
▁아닌	-8.02436
▁최악의	-8.02848
체	-8.0311
▁어떻게	-8.03317
▁내내	-8.03366
▁재미있게	-8.03517
▁장면	-8.03594
▁이걸	-8.03609
▁않고	-8.03672
▁나오는	-8.04114
봤는데	-8.04116
매	-8.04457
▁계속	-8.04486
▁만들어	-8.04703
볼	-8.04729
겠다	-8.05434
케	-8.05492
님	-8.06049
어서	-8.06582
▁내용이	-8.06652
▁재미없다	-8.06743
없다	-8.06975
▁남자	-8.06993
버	-8.07056
▁실망	-8.07189
▁공	-8.07222
▁박	-8.07434
현	-8.07437
▁장	-8.07609
▁반	-8.0766
으	-8.07927
없	-8.0797
▁코미디	-8.0807
려고	-8.08333
보면	-8.09126
▁바	-8.09194
망	-8.09199
티	-8.09212
니까	-8.09221
▁모든	-8.09353
▁보기	-8.09442
10	-8.09586
다니	-8.09607
문	-8.09782
▁불	-8.09826
이라는	-8.10156
▁4	-8.10193
회	-8.10351
하네	-8.10442
격	-8.10804
점도	-8.10896
▁반전	-8.11123
▁그래도	-8.11194
한테	-8.11208
▁심	-8.11596
▁추천	-8.11872
4	-8.11911
태	-8.11993
▁모	-8.12024
▁딱	-8.1245
극	-8.12629
▁기억	-8.13008
▁끝	-8.13182
▁7	-8.13583
져	-8.14135
▁건	-8.14229
배우	-8.14497
▁공포	-8.14753
▁파	-8.14807
따	-8.14809
지도	-8.14908
▁연기가	-8.15244
▁조금	-8.15382
e	-8.15399
▁아니다	-8.15437
산	-8.15455
예	-8.15736
공	-8.15848
녀	-8.16501
속	-8.16617
역	-8.17198
▁주인공	-8.17351
d	-8.17416
▁정도	-8.17455
배	-8.17635
▁제대로	-8.17737
▁눈	-8.17866
카	-8.179
즈	-8.1803
▁5	-8.18278
참	-8.1865
▁아름다운	-8.18735
▁않은	-8.18833
▁만드는	-8.1917
▁속	-8.1924
▁제일	-8.19268
▁욕	-8.19454
▁근데	-8.19604
▁듯	-8.19769
키	-8.19794
!!!!	-8.20145
왜	-8.20243
▁9	-8.20455
평점	-8.2049
▁예	-8.20654
▁나오	-8.20698
▁싶다	-8.20983
▁하고	-8.21062
▁재	-8.21114
ᄒᄒ	-8.21366
▁않는	-8.2139
▁성	-8.2181
▁요즘	-8.21818
▁전개	-8.21858
▁이제	-8.22058
릴	-8.22294
이란	-8.22309
▁스릴러	-8.22355
▁없	-8.22489
토	-8.22519
▁애니	-8.22686
▁결말	-8.22867
♥	-8.22991
이고	-8.23082
▁절대	-8.23133
▁수준	-8.23162
점이	-8.23745
▁연기도	-8.2379
것도	-8.23905
년대	-8.2409
▁노	-8.24392
▁여	-8.24618
▁보다가	-8.24623
정도	-8.24693
▁동	-8.24866
언	-8.24886
는거	-8.24935
▁감독이	-8.24962
▁스토리가	-8.24982
최고	-8.24989
▁배	-8.2502
▁원	-8.25042
▁음악	-8.25064
▁울	-8.25307
▁보다	-8.25806
▁아니고	-8.25948
▁재밋	-8.26142
들을	-8.26198
죽	-8.26364
▁원작	-8.26434
사람	-8.26467
▁나는	-8.26581
▁내용도	-8.26816
▁공감	-8.26834
▁8	-8.26895
▁피	-8.27001
코	-8.27372
하기	-8.27396
해요	-8.27589
▁걸	-8.27596
~~~	-8.27741
▁재밌	-8.27776
투	-8.28387
장면	-8.28444
짱	-8.28453
ᄒ	-8.28579
▁막장	-8.28847
했는데	-8.29171
▁OO	-8.29363
a	-8.29405
t	-8.29579
ᅳ	-8.29911
▁남는	-8.29917
ᄏᄏᄏᄏ	-8.29948
▁서	-8.30289
건지	-8.3039
▁스	-8.30756
▁0	-8.30774
▁쓰	-8.31247
▁날	-8.3127
▁대사	-8.31303
쳐	-8.31305
금	-8.31557
8	-8.31709
▁맞	-8.31923
능	-8.31937
이런	-8.31993
▁제목	-8.32081
학	-8.32262
▁영상	-8.32262
▁만들	-8.32275
▁시리즈	-8.32371
포	-8.32446
▁때문에	-8.32466
▁영화라고	-8.32627
종	-8.3264
인듯	-8.32835
▁아까운	-8.32938
알	-8.33062
5	-8.33071
력	-8.33085
▁개봉	-8.33131
/	-8.33146
,,	-8.33331
▁미국	-8.33447
▁캐릭터	-8.33451
이라고	-8.33555
7	-8.3381
▁가족	-8.33846
▁표현	-8.33875
▁시간이	-8.33943
스트	-8.34192
▁여운이	-8.34573
양	-8.34634
않	-8.34707
▁될	-8.3475
움	-8.34847
▁인간	-8.3514
였다	-8.35223
▁아직도	-8.35398
는게	-8.35792
▁필요	-8.35814
▁발	-8.36015
집	-8.36083
▁주는	-8.36164
▁재밌어요	-8.36415
▁되는	-8.36648
▁좋았다	-8.36703
▁나온	-8.36749
▁인	-8.36757
▁재미도	-8.36768
업	-8.36786
▁엄청	-8.36972
▁나름	-8.36976
환	-8.36984
▁진	-8.37012
▁걍	-8.37178
씬	-8.37204
해도	-8.37271
▁웃	-8.37368
가는	-8.37406
▁나도	-8.37548
▁특히	-8.37611
▁도대체	-8.37716
넘	-8.3787
등	-8.38068
▁뻔한	-8.38089
승	-8.38192
▁눈물	-8.38279
▁영	-8.38285
입	-8.38302
▁보면서	-8.38497
▁소재	-8.38675
▁사실	-8.38887
계	-8.38917
▁영화입니다	-8.39035
▁차라리	-8.39175
▁영화의	-8.39345
라도	-8.39427
▁진심	-8.39617
▁스토리도	-8.39762
""""	-8.39813
▁매	-8.40541
설	-8.40557
감독	-8.40598
그냥	-8.40857
▁우리나라	-8.40897
점은	-8.4098
▁연	-8.41069
색	-8.41114
▁마지막에	-8.41137
뿐	-8.41289
밖에	-8.4154
중에	-8.41685
▁세	-8.41778
테	-8.419
재밌	-8.42101
던데	-8.42278
는지	-8.42594
▁몇	-8.42622
▁좋고	-8.42633
병	-8.42854
▁상	-8.43006
▁졸	-8.43102
리는	-8.43392
;;;	-8.43613
.."	-8.43939
▁볼만	-8.43979
사랑	-8.43979
▁ᄏᄏᄏᄏ	-8.43988
름	-8.44072
..."	-8.44165
▁봤습니다	-8.44186
▁이해가	-8.44407
주는	-8.4444
▁공포영화	-8.44676
???	-8.44693
▁차	-8.44739
▁막	-8.44806
뭐	-8.44808
었는데	-8.44813
▁멋진	-8.44851
통	-8.44928
근	-8.44965
대로	-8.45259
▁최	-8.45323
탄	-8.45351
▁없음	-8.45433
▁머	-8.4552
▁기분	-8.45543
▁오랜만에	-8.45641
▁감독의	-8.45641
▁허	-8.45669
있다	-8.45732
만큼	-8.4614
▁봤던	-8.46172
절	-8.4638
▁시작	-8.46416
행	-8.46434
더라	-8.46487
▁지루하고	-8.46669
었던	-8.46866
▁생각이	-8.47028
▁좋아하는	-8.47141
악	-8.47204
였	-8.4727
강	-8.4736
▁재미가	-8.47412
▁OOO	-8.47581
했	-8.47612
▁망	-8.47853
▁초	-8.47876
▁연기력	-8.47921
▁수작	-8.47938
▁잠	-8.48087
▁시나리오	-8.48302
▁지루함	-8.4832
▁재밌는	-8.48421
하며	-8.48653
머	-8.48657
▁싶은	-8.48894
락	-8.48938
6	-8.48983
ᅮᅮ	-8.49285
너	-8.49295
기는	-8.49331
른	-8.49403
잼	-8.4952
하면서	-8.49545
▁죽	-8.49663
▁않	-8.4971
불	-8.49779
▁있	-8.49791
▁B	-8.49835
론	-8.49928
▁ᅲ	-8.49962
을까	-8.50157
담	-8.50352
▁가슴	-8.50692
꺼	-8.5086
▁지루한	-8.50928
▁영화에	-8.50965
▁어떤	-8.51499
▁최고다	-8.51503
▁뭔	-8.51618
▁뭘	-8.5177
았	-8.51815
▁된	-8.51838
액션	-8.52211
짐	-8.52236
▁타	-8.5225
봐도	-8.52555
▁함께	-8.52597
먹	-8.52617
▁못한	-8.52645
▁20	-8.52954
슬	-8.53086
교	-8.53188
난다	-8.53278
▁졸작	-8.53446
▁알바	-8.53453
▁만화	-8.53584
났	-8.53633
▁토	-8.53668
▁사람들	-8.53747
▁사람이	-8.53825
▁설정	-8.54101
▁없이	-8.54122
▁살	-8.54168
▁어디	-8.54309
모르	-8.54504
▁괜찮은	-8.54682
▁한국영화	-8.54773
순	-8.54782
표	-8.55077
갈	-8.5518
▁긴장감	-8.55232
▁안되는	-8.55343
감동	-8.55354
글	-8.55574
▁그저	-8.55796
▁재미있	-8.55873
천	-8.55937
▁얼마나	-8.55945
별	-8.5599
▁화	-8.55998
▁애니메이션	-8.56141
이네	-8.56159
▁개인적으로	-8.56207
했음	-8.56278
브	-8.56377
▁들	-8.56407
증	-8.56481
!"	-8.56495
▁큰	-8.56532
▁오늘	-8.5661
▁후회	-8.56709
었	-8.56753
▁노래	-8.56917
봄	-8.57014
작품	-8.57057
▁배우들의	-8.57086
▁엔딩	-8.57113
권	-8.57246
왕	-8.57248
김	-8.57309
▁보세요	-8.57494
▁6	-8.57556
▁예술	-8.57561
~!	-8.57588
기에	-8.57631
돈	-8.57662
▁영화로	-8.57702
▁코믹	-8.57873
온	-8.57899
▁정신	-8.57907
▁보는내내	-8.58058
▁^^	-8.58078
s	-8.58218
직	-8.58254
▁현실	-8.58371
l	-8.58443
기도	-8.58487
▁지루하다	-8.58698
구만	-8.58976
▁기억에	-8.59049
있	-8.59167
▁억지	-8.59278
아니	-8.59354
▁캐스팅	-8.59558
▁매우	-8.59601
블	-8.59679
외	-8.5982
▁몰입도	-8.59928
싶	-8.5993
침	-8.59975
영화는	-8.60097
▁행복	-8.60235
다고	-8.60879
i	-8.60921
평	-8.6103
▁느낌이	-8.61168
▁물	-8.6135
쓰레기	-8.61481
▁매력	-8.61504
▁제발	-8.61596
▁아무리	-8.61599
▁찍	-8.6167
▁아무	-8.61885
이지만	-8.62121
잡	-8.62185
됨	-8.62192
▁"""	-8.62219
▁손	-8.62415
▁잼	-8.62837
겠	-8.62841
초	-8.6297
▁선	-8.62982
▁연기는	-8.63022
▁재미없	-8.63128
버린	-8.63287
에도	-8.63302
창	-8.63305
리고	-8.63312
▁스릴	-8.63396
▁있었	-8.63508
▁더빙	-8.63562
니다	-8.63805
결	-8.63837
거야	-8.64103
각	-8.64123
잇	-8.64172
▁평	-8.64189
▁베	-8.6428
▁총	-8.64294
▁마음	-8.64303
▁결국	-8.64641
하는데	-8.6492
▁단	-8.65009
보단	-8.65026
▁열	-8.65155
친	-8.65514
이네요	-8.65594
술	-8.65646
출	-8.65682
션	-8.66067
나는	-8.66223
▁그렇게	-8.66293
맨	-8.66564
▁않는다	-8.66579
척	-8.66758
▁봤어요	-8.6682
▁하나도	-8.66933
▁아이	-8.67056
▁실	-8.67093
▁보게	-8.67217
▁입	-8.67475
▁보지	-8.67489
ᅮ	-8.67561
▁같이	-8.67592
▁좋아요	-8.67655
▁엄마	-8.6773
▁강추	-8.67745
놈	-8.679
▁모르겠다	-8.68351
이야	-8.68581
▁위해	-8.68583
된다	-8.6862
▁이딴	-8.68653
▁들어	-8.68668
께	-8.68671
▁마음이	-8.687
▁경	-8.68797
칠	-8.68813
점을	-8.6895
좋	-8.69222
만한	-8.69258
▁것이	-8.69339
쉬	-8.69557
봐	-8.69807
셨	-8.69824
▁따라	-8.69873
해라	-8.69885
영화를	-8.6994
▁한다	-8.70064
▁분위기	-8.70088
▁찾아	-8.70195
이었다	-8.70198
내용	-8.70262
될	-8.70309
점대	-8.70464
▁전쟁	-8.70466
군요	-8.70753
약	-8.70755
▁웃기	-8.70863
▁위한	-8.71003
▁문제	-8.71113
▁위	-8.71192
그리고	-8.71306
▁애들	-8.71572
범	-8.71577
▁봐야	-8.7171
▁중국	-8.71746
이건	-8.71799
▁당	-8.71876
▁먹	-8.7197
레이	-8.71985
새	-8.72101
▁별점	-8.72126
찬	-8.7213
느낌	-8.72132
▁재밌음	-8.72322
올	-8.72334
▁길	-8.72385
해야	-8.72395
▁너무나	-8.72463
▁호	-8.72551
▁담	-8.72593
▁존나	-8.72596
베	-8.72709
▁극장에서	-8.72808
▁없어	-8.72887
▁있고	-8.73103
▁약	-8.73397
법	-8.73429
▁알고	-8.73441
▁""""	-8.73446
적이	-8.73454
▁있을	-8.73643
라니	-8.73845
▁준	-8.73888
백	-8.74068
끼	-8.74093
▁간	-8.74215
듯한	-8.74319
ᄋ	-8.74474
보니	-8.74564
▁멋있	-8.74571
이상	-8.74596
▁극	-8.74665
어야	-8.74747
짜	-8.74794
나요	-8.74905
짓	-8.751
>	-8.75138
▁모습	-8.75232
느	-8.75383
련	-8.75409
슨	-8.75417
광	-8.75443
완전	-8.75649
▁머리	-8.7566
▁존	-8.75907
▁이름	-8.76113
▁많	-8.76124
▁ᄒ	-8.76162
완	-8.76178
r	-8.76227
▁괜찮	-8.7626
영화가	-8.76311
기만	-8.76338
인줄	-8.76374
▁눈물이	-8.76449
독	-8.76473
좋아	-8.76564
▁포스터	-8.76619
▁출연	-8.76663
▁미친	-8.76749
▁지루	-8.76776
거지	-8.76872
▁외	-8.77088
였음	-8.77135
소리	-8.77184
D	-8.77199
▁대체	-8.77323
▁주연	-8.77352
▁그만	-8.77434
플	-8.7746
p	-8.7748
았다	-8.7759
▁작가	-8.77654
기를	-8.77671
▁훨씬	-8.77841
▁로맨스	-8.779
▁여주인공	-8.77907
수준	-8.77997
▁추	-8.78072
라면	-8.78114
쓰	-8.78343
왔	-8.78346
▁내용은	-8.78379
▁적	-8.78446
여자	-8.78472
놓고	-8.7848
퍼	-8.78589
▁치	-8.78599
h	-8.78615
▁자기	-8.78698
m	-8.78728
▁힘	-8.78733
▁영화네요	-8.7887
▁느	-8.7893
▁잡	-8.79187
이거	-8.79257
▁똥	-8.79287
맞	-8.79311
▁누가	-8.7946
▁편	-8.79465
수가	-8.79765
▁얼굴	-8.79797
▁재미없음	-8.79803
건가	-8.79831
▁없었다	-8.79845
▁높	-8.7986
▁가슴이	-8.79872
▁걸작	-8.79875
라서	-8.799
록	-8.80004
막	-8.80047
▁감동이	-8.8019
있고	-8.8022
▁갈수록	-8.80226
▁시대	-8.80316
재밋	-8.80342
▁악	-8.80591
나오는	-8.80597
▁그나마	-8.80697
▁배경	-8.80756
할수	-8.80834
+	-8.80946
졌	-8.81057
이라도	-8.81084
없고	-8.81349
튼	-8.81378
럽	-8.81418
▁잼있	-8.81479
▁감	-8.81589
▁결말이	-8.81645
덕	-8.81676
▁너	-8.81727
다는	-8.81749
▁글	-8.81936
합	-8.82289
▁비교	-8.82326
▁기억이	-8.82333
g	-8.82338
좋은	-8.82442
열	-8.82491
▁실화	-8.82642
존	-8.82926
▁영상미	-8.8306
▁자체	-8.83272
메	-8.8329
또	-8.83311
▁않다	-8.83437
▁유치	-8.83483
▁의미	-8.83532
엇	-8.83538
9	-8.83763
▁안되	-8.83816
▁재밌고	-8.83905
▁뿐	-8.83921
▁ᅮᅮ	-8.84012
▁당시	-8.84143
▁집중	-8.84272
치고	-8.84345
▁몰입	-8.84376
이지	-8.84603
▁구성	-8.84675
뻔	-8.8478
줘	-8.84853
겁	-8.849
▁어느	-8.84919
▁밖에	-8.84936
나오	-8.84969
▁같	-8.85079
▁다큐	-8.85126
채	-8.85197
▁꽤	-8.85224
▁허접	-8.85527
▁연기를	-8.85533
찍	-8.85665
▁-	-8.85697
▁주제	-8.85702
▁얘기	-8.85804
▁명	-8.85882
치는	-8.86098
▁첨	-8.86118
배우들	-8.8612
먼	-8.86133
▁노잼	-8.86148
▁변	-8.86274
년이	-8.86437
빠	-8.86595
▁보여주는	-8.86607
했지만	-8.86757
기가	-8.86824
▁주고	-8.86887
씩	-8.8697
향	-8.87
▁발연기	-8.87022
▁아쉽다	-8.87103
을때	-8.87181
▁그래서	-8.87196
충	-8.87208
할때	-8.87209
으나	-8.87452
습	-8.87554
"""	-8.87616
▁장난	-8.87789
▁그러	-8.88012
▁좋은데	-8.8816
었음	-8.88215
▁쓰레기영화	-8.88269
▁생	-8.88406
▁네이버	-8.88566
▁백	-8.88678
돌	-8.88718
▁재미있다	-8.88771
▁웃음	-8.88921
,,,	-8.88926
▁평가	-8.88944
커	-8.88976
?"	-8.89015
▁올	-8.89028
땜에	-8.89128
▁어설픈	-8.89247
목	-8.89289
빈	-8.89293
기대	-8.89351
▁다들	-8.89429
없음	-8.89484
▁뒤	-8.89561
▁CG	-8.89643
는건	-8.89682
▁상황	-8.89929
▁맘에	-8.90011
▁영화중	-8.90196
눈	-8.90208
스러운	-8.90265
▁카	-8.90396
▁딸	-8.90411
것이	-8.90534
웃	-8.90543
정도로	-8.90562
▁바로	-8.90624
츠	-8.90657
▁천	-8.90731
▁메	-8.90871
겠지	-8.90901
복	-8.90959
▁사람들이	-8.91191
추	-8.91369
▁봐	-8.91437
▁영화였다	-8.9144
▁좋	-8.91509
었어요	-8.91572
남자	-8.91693
부분	-8.91792
▁같아요	-8.91844
▁않았	-8.91884
▁감동도	-8.9189
▁상당히	-8.91917
린다	-8.91959
▁감동적인	-8.91974
이야기	-8.92078
▁포	-8.92275
▁30	-8.92519
▁시즌	-8.92524
▁영화관에서	-8.92589
▁생각을	-8.92808
▁찾	-8.92827
▁성룡	-8.92861
혀	-8.93037
지루	-8.93136
아서	-8.9317
▁준다	-8.9318
▁것을	-8.93244
▁간만에	-8.9326
▁전부	-8.93455
시대	-8.93554
▁짜증	-8.93759
거리	-8.93946
▁관객	-8.93987
▁볼만한	-8.94089
▁같은데	-8.94167
▁대해	-8.94215
청	-8.94217
처	-8.94318
▁다음	-8.94394
▁아님	-8.94406
▁생각보다	-8.94463
▁존재	-8.94532
에는	-8.94595
▁맛	-8.94931
▁역사	-8.95367
료	-8.95383
▁그대로	-8.95452
내가	-8.95532
▁버	-8.95534
▁진정한	-8.95641
▁싶	-8.95654
▁갈	-8.95765
▁재미있어요	-8.95798
▁이런영화	-8.95896
▁있을까	-8.96004
b	-8.96016
▁제작	-8.96059
편이	-8.96096
_	-8.96124
같이	-8.96267
▁만들었	-8.96434
훈	-8.96436
▁재미있는	-8.96642
▁코	-8.96671
했어요	-8.96711
곳	-8.96894
▁것도	-8.97022
주의	-8.97161
낸	-8.97364
f	-8.97444
마지막	-8.97779
쪽	-8.97791
▁잔잔한	-8.97812
아닌	-8.97839
처음	-8.97883
▁약간	-8.97921
▁무섭	-8.98014
▁숨	-8.98129
▁판타지	-8.98322
징	-8.98438
0	-8.9854
▁관	-8.98551
▁높은	-8.98583
들어	-8.98666
▁나올	-8.98695
적이고	-8.98713
▁나왔	-8.98796
▁점수	-8.98802
▁봤지만	-8.98804
u	-8.98862
▁오래	-8.98971
▁배우들이	-8.99036
▁충격	-8.99221
▁예상	-8.99448
숙	-8.99474
▁살아	-8.99564
규	-8.99828
땐	-8.99829
y	-8.99974
▁거의	-9.00109
들도	-9.00128
▁종	-9.00231
한거	-9.00268
▁깨	-9.00354
다면	-9.0043
으니	-9.00449
욕	-9.00545
▁옛날	-9.00562
▁나와서	-9.00577
▁재밌네요	-9.00588
▁감성	-9.00695
지금	-9.00712
겠지만	-9.00837
놈들	-9.00965
시키	-9.01006
▁중간에	-9.01062
▁나이	-9.01069
분들	-9.01164
탈	-9.01284
▁뭐야	-9.01298
보다는	-9.01357
▁세상	-9.01467
▁여기	-9.01535
▁정도로	-9.01751
▁혼자	-9.01818
했습니다	-9.01858
구요	-9.01951
▁있지만	-9.01966
더니	-9.02101
에선	-9.02175
▁등	-9.02242
익	-9.02247
햇	-9.02298
▁마음에	-9.02337
▁재미없는	-9.02395
▁역	-9.02405
특	-9.02429
▁삶	-9.02452
▁뭐지	-9.02488
조차	-9.02521
ᄉ	-9.02607
▁스토리는	-9.02661
괴	-9.02668
▁태	-9.02926
▁꿈	-9.03028
견	-9.03234
▁팬	-9.0326
▁재미는	-9.03284
▁했는데	-9.03438
▁감동을	-9.03674
▁갑자기	-9.03682
▁된다	-9.03694
옥	-9.0394
들에게	-9.04022
▁소리	-9.04155
월	-9.04181
곡	-9.04229
▁달	-9.04359
▁말도	-9.04444
▁친구	-9.04456
허	-9.04479
학교	-9.04481
이라면	-9.04612
최악	-9.04656
▁부족	-9.04769
▁더욱	-9.0484
▁멜로	-9.04882
▁영화인데	-9.04892
▁떠	-9.04929
▁감정	-9.04962
▁확	-9.05049
보기	-9.05125
해지는	-9.05127
~!!	-9.05192
편은	-9.05252
팬	-9.05381
▁이영화를	-9.05411
아깝다	-9.05435
▁패	-9.05471
되어	-9.05737
혹	-9.058
도록	-9.0583
▁장르	-9.06057
▁황	-9.06084
▁따	-9.061
k	-9.06162
▁읽	-9.06176
근데	-9.06346
▁봐서	-9.06355
주인공	-9.07106
귀	-9.07154
▁힘들	-9.07169
▁삼	-9.072
▁어디서	-9.07231
쯤	-9.0727
▁데	-9.07294
재미없	-9.07355
▁레	-9.07447
다시	-9.07637
▁극장판	-9.07711
▁몸	-9.07764
예요	-9.0777
되고	-9.07806
▁절	-9.07864
▁감동적이	-9.07869
▁초딩	-9.0792
봐서	-9.0798
▁장면이	-9.08036
웠	-9.08102
▁아버지	-9.08154
슴	-9.08177
▁분	-9.08209
▁ᅳ	-9.08266
▁각본	-9.08279
연출	-9.08308
▁언제	-9.0839
건데	-9.08453
▁훌륭한	-9.0847
▁영화임	-9.08478
▁누구	-9.08489
별로	-9.08514
▁그리	-9.08644
▁저런	-9.08648
졌다	-9.08721
것을	-9.0873
▁추억	-9.0879
시리즈	-9.0883
▁보니	-9.08839
▁끝나	-9.08894
▁싸	-9.09102
하여	-9.09105
♡	-9.09144
▁있어서	-9.09161
철	-9.09239
▁크	-9.09375
▁줄거리	-9.09398
버리	-9.09443
▁순	-9.09515
▁목소리	-9.09543
몽	-9.09548
윤	-9.0966
▁초반	-9.09818
혜	-9.09977
▁아직	-9.09978
▁나의	-9.10094
▁비해	-9.10119
잖아	-9.10168
거다	-9.10176
짝	-9.10216
▁음	-9.10466
▁돌아	-9.10659
▁굉장히	-9.10796
앗	-9.1085
▁좋은영화	-9.10902
리가	-9.10954
▁화면	-9.11019
▁계	-9.1103
응	-9.11036
▁질	-9.11062
▁항상	-9.11075
▁어색	-9.11105
▁새로운	-9.11195
▁원작을	-9.11201
것같다	-9.11383
▁생각하게	-9.11425
▁부분	-9.11435
▁봤음	-9.11457
리스	-9.11634
▁터	-9.11658
▁연출력	-9.11863
▁방송	-9.11905
▁보여주	-9.11981
애들	-9.12014
▁여배우	-9.12067
거나	-9.12186
▁암	-9.12202
듬	-9.12216
엘	-9.12229
▁흥행	-9.12246
전개	-9.12333
▁윤	-9.12504
같	-9.1284
▁뭐냐	-9.12845
간다	-9.12859
▁낮은	-9.12873
끝	-9.12877
쿠	-9.1301
▁평점을	-9.13101
▁문	-9.13152
써	-9.13187
▁어이없	-9.13251
길래	-9.13289
▁성우	-9.1334
링	-9.13402
말이	-9.13526
▁주인공이	-9.13546
c	-9.13559
▁야	-9.13601
▁양	-9.13638
속에	-9.13673
하시	-9.13721
▁19	-9.13764
^	-9.13774
하냐	-9.13815
마다	-9.13879
▁없어서	-9.13898
▁제가	-9.1392
▁꿀잼	-9.14217
웃음	-9.14304
음악	-9.1439
▁낚	-9.144
나라	-9.14449
답	-9.14541
령	-9.14588
하니	-9.14626
족	-9.14749
▁90	-9.14834
▁처음부터	-9.14844
▁순간	-9.14884
얼	-9.14927
벌	-9.14945
같다	-9.14987
엿	-9.14987
에요	-9.15058
진다	-9.15156
▁번	-9.15186
▁아이들	-9.15268
▁의도	-9.15293
▁그러나	-9.15309
년전	-9.15393
▁뭐가	-9.15464
성이	-9.15543
▁아까움	-9.15568
▁사회	-9.15576
▁대단	-9.15589
▁있어	-9.15641
▁믿	-9.15664
▁감독님	-9.15681
▁비디오	-9.15698
변	-9.15699
▁못하는	-9.15798
했으면	-9.15806
▁복수	-9.15889
▁왕	-9.16084
▁충분히	-9.16214
나서	-9.16262
▁자체가	-9.1627
효	-9.16298
▁대단한	-9.16453
▁개연성	-9.16463
사람들	-9.16556
▁가지고	-9.16894
OO	-9.17057
▁낮	-9.1713
-_-	-9.17131
▁잘못	-9.17224
봐야	-9.17233
▁알게	-9.17266
▁만점	-9.1735
▁하지	-9.17367
삼	-9.17427
이게	-9.17457
▁그런지	-9.17504
▁삼류	-9.17535
본다	-9.17756
▁짜	-9.17784
▁되어	-9.17902
했고	-9.18001
▁떨	-9.18117
▁휴	-9.18157
듣	-9.18209
립	-9.18239
품	-9.18275
▁진행	-9.1829
▁통	-9.18357
▁교훈	-9.18357
▁뻔	-9.1843
끔	-9.1856
▁현	-9.18619
▁재밌는데	-9.18679
받	-9.18693
돼	-9.19055
거냐	-9.19162
▁tv	-9.19204
딱	-9.1921
함을	-9.19234
▁나온다	-9.19416
영환	-9.19434
일까	-9.1945
▁말고	-9.19507
싸	-9.19637
틀	-9.19644
▁점점	-9.19666
▁일단	-9.19694
▁선택	-9.19712
▁있는데	-9.19884
▁이유	-9.20019
▁써	-9.20021
책	-9.20064
십	-9.20067
▁생각해	-9.20273
▁TV	-9.20277
끈	-9.20315
됬	-9.20316
@	-9.2032
▁사람은	-9.20377
▁바라	-9.20412
▁안된다	-9.20458
▁좋네요	-9.2046
▁누	-9.20496
▁훌륭	-9.20517
▁빨리	-9.2052
▁나와	-9.20587
만들	-9.2069
▁먹먹	-9.20772
▁돌	-9.20835
▁저는	-9.20876
▁그닥	-9.20883
:	-9.20902
겟	-9.20904
▁답답	-9.20905
대박	-9.21157
역시	-9.21169
▁궁금	-9.21229
결말	-9.21428
▁첫	-9.21438
▁쳐	-9.21587
어도	-9.21669
잔	-9.21683
▁헐	-9.21693
굿	-9.21721
였는데	-9.21782
▁댓글	-9.21794
00	-9.21911
▁good	-9.21934
▁요	-9.21949
축	-9.22002
▁시절	-9.2207
▁봐라	-9.22097
명작	-9.22136
끄	-9.22227
▁프랑스	-9.22241
▁노력	-9.22251
▁권	-9.22332
▁없을	-9.22374
하는게	-9.22502
▁100	-9.22594
▁두번	-9.226
을듯	-9.22642
도없고	-9.22745
▁흥미진진	-9.22794
함이	-9.22871
▁아쉬운	-9.22875
추천	-9.23004
▁좋겠다	-9.23185
▁어린	-9.23198
뜨	-9.23209
주세요	-9.23216
압	-9.23306
▁흐	-9.23352
▁목	-9.23387
줘야	-9.23524
▁망작	-9.23584
▁더럽게	-9.23651
▁지루해	-9.23663
가서	-9.23673
릭	-9.23704
▁세계	-9.23832
만든	-9.23858
,"	-9.23964
ᄀ	-9.24121
▁것은	-9.24157
▁너무너무	-9.24185
인간	-9.2434
▁참고	-9.24382
▁도저히	-9.24618
쩔	-9.24628
▁회	-9.24689
이라니	-9.24693
보다가	-9.24703
▁이영화는	-9.24733
▁있었다	-9.24866
▁편집	-9.24928
▁흥미	-9.24933
패	-9.24986
자들	-9.25034
▁(	-9.25246
드는	-9.25297
많	-9.25359
는것	-9.25366
놓	-9.2538
▁봄	-9.25403
한데	-9.25456
껏	-9.255
=	-9.25501
▁무조건	-9.25501
▁한마디로	-9.25602
세요	-9.25605
▁완벽	-9.25613
▁했다	-9.25694
▁영화도	-9.25716
▁낫다	-9.25743
하는거	-9.25781
▁지나	-9.2586
북	-9.25874
▁드	-9.26077
▁유치한	-9.2614
소재	-9.26234
▁놀	-9.26257
최	-9.26292
▁재미없어	-9.26344
었습니다	-9.26365
▁책	-9.26464
하던	-9.2652
▁집	-9.26573
▁새	-9.26573
▁불륜	-9.26732
▁평점은	-9.26811
스럽다	-9.26912
오빠	-9.26945
▁과거	-9.27055
휴	-9.27282
▁벌	-9.27326
▁당신	-9.27357
▁모르고	-9.27364
최고의	-9.27645
▁방	-9.27647
▁b	-9.27668
ᄂ	-9.27742
▁그때	-9.27752
전에	-9.2785
▁재밌었다	-9.27967
▁설	-9.28044
▁느끼	-9.28055
▁힘든	-9.28103
▁돈주고	-9.2811
황	-9.28122
▁있음	-9.28253
▁다시봐도	-9.28275
▁영화라	-9.28275
▁슬픈	-9.28324
▁흠	-9.28343
▁이미	-9.28471
▁인물	-9.28498
▁전개가	-9.28499
▁모르는	-9.2859
▁극장	-9.28592
봣	-9.28637
렌	-9.28654
낮	-9.28691
n	-9.2879
홍	-9.288
▁없네	-9.28911
▁온	-9.2896
▁놓	-9.29066
여서	-9.29165
▁어릴때	-9.29364
려서	-9.29381
▁여주	-9.29455
찰	-9.29514
▁알려	-9.29543
염	-9.29573
▁보는데	-9.29617
................	-9.29622
빵	-9.29661
▁s	-9.29681
▁결혼	-9.29702
▁원래	-9.29713
▁엄청난	-9.29718
반전	-9.29793
▁돋	-9.29825
그래도	-9.29854
▁없었	-9.29856
활	-9.29915
▁살인	-9.2995
▁분명	-9.30105
▁작품이	-9.30139
▁산	-9.30233
S	-9.30254
야지	-9.30265
▁만족	-9.30271
▁이어	-9.30292
인이	-9.30312
▁작	-9.3035
▁볼수	-9.30386
걸까	-9.30474
▁괜히	-9.30503
▁지금까지	-9.30565
년도	-9.30566
▁이번	-9.30604
▁설명	-9.30639
▁자꾸	-9.30642
들과	-9.30691
▁쓴	-9.30788
▁있다는	-9.30849
▁해도	-9.30852
▁빠져	-9.30956
▁끝내	-9.31026
▁예전에	-9.31066
▁안보	-9.31118
봐라	-9.31269
▁물론	-9.31303
▁광	-9.31333
▁넘어	-9.31349
보는데	-9.31455
▁감사	-9.31646
그런	-9.31672
▁알았다	-9.317
는걸	-9.3171
풍	-9.31716
▁사랑을	-9.31747
▁ᄍᄍ	-9.31841
▁소설	-9.31912
▁만나	-9.31929
주고	-9.32026
영화다	-9.32148
▁교	-9.32203
팔	-9.32219
많이	-9.32256
흔	-9.3231
▁이것	-9.32339
▁M	-9.32411
▁투	-9.32454
--	-9.32483
▁오히려	-9.32516
이냐	-9.3254
▁사람들은	-9.32624
~~~~	-9.32681
클	-9.32714
▁아쉽	-9.32727
▁따뜻한	-9.32812
폐	-9.32826
▁그래픽	-9.32852
▁봤네요	-9.3286
▁전형적인	-9.3286
▁이정도	-9.33041
▁재밌어	-9.3305
한영화	-9.33151
아이	-9.33155
갑	-9.33172
쾌	-9.33245
무슨	-9.33319
틴	-9.33337
버렸다	-9.33338
▁아빠	-9.33345
▁귀신	-9.33385
였습니다	-9.33432
줬	-9.33507
좋다	-9.33544
▁웃긴	-9.33627
▁하다	-9.33642
년에	-9.33719
▁개그	-9.33784
▁했	-9.3379
x	-9.33819
실망	-9.33841
▁바보	-9.3387
▁저질	-9.33879
준다	-9.33932
▁80	-9.33971
▁그게	-9.33985
▁이것도	-9.33997
시켜	-9.34007
필	-9.34029
▁귀	-9.34051
▁별루	-9.3411
▁느끼게	-9.34171
▁감독은	-9.34211
▁뭔지	-9.34247
▁느낄	-9.34396
▁부족한	-9.34645
O	-9.34776
▁나라	-9.34909
▁분들	-9.34934
▁합니다	-9.34961
▁해서	-9.35032
▁나쁜	-9.35048
▁없네요	-9.35069
..........	-9.35078
로서	-9.35137
▁둘	-9.35233
▁영화보다	-9.35254
▁후반부	-9.35259
지고	-9.35461
곤	-9.35498
이렇게	-9.35588
▁됐	-9.35594
그러	-9.35617
▁기대하고	-9.35667
자가	-9.35671
맛	-9.35682
▁무서운	-9.35686
▁좋음	-9.35736
▁미화	-9.35749
한번	-9.35761
▁인정	-9.35796
하세요	-9.35805
▁만들지	-9.35931
▁인간의	-9.35949
▁감상	-9.35993
가지	-9.36109
가족	-9.36213
▁병맛	-9.36277
▁상영	-9.36331
됐	-9.36387
▁홍	-9.36445
▁요소	-9.36493
이에요	-9.3653
인거	-9.36622
▁상상	-9.3677
B	-9.3679
롭	-9.36854
,,"	-9.36877
▁비슷한	-9.36904
시절	-9.36945
▁완성도	-9.36947
▁신기	-9.36952
나게	-9.371
▁죽음	-9.37128
▁연출이	-9.37162
▁아들	-9.37171
▁믿고	-9.37177
▁허무	-9.37199
▁이상한	-9.37207
킹	-9.37251
▁이야기를	-9.37266
▁꺼	-9.3733
▁멋	-9.37352
더군요	-9.37432
▁여성	-9.37441
보면서	-9.37449
런	-9.37449
▁예고편	-9.37536
▁일본영화	-9.37566
▁스타일	-9.37588
만으로도	-9.37697
▁독	-9.37738
육	-9.37741
E	-9.37751
▁SF	-9.37755
이면	-9.37859
으면서	-9.37996
▁아닌가	-9.3802
▁수준이	-9.3804
▁늘	-9.38065
▁자연	-9.38069
▁억지로	-9.38089
▁완벽한	-9.38114
▁바람	-9.38137
스타	-9.38157
▁않을	-9.38184
감이	-9.38289
▁아무것도	-9.38297
▁가는	-9.38365
강추	-9.38399
▁대작	-9.3848
▁작품성	-9.38494
지않는	-9.38543
▁반전이	-9.38564
▁티	-9.3858
▁까	-9.38666
뒤	-9.3888
사람이	-9.39032
▁질질	-9.39149
▁이리	-9.39191
놓은	-9.39262
▁아쉬움	-9.39266
▁지루하지	-9.39302
▁좋았어요	-9.39319
안되	-9.39514
▁괴	-9.39535
▁앞으로	-9.39603
▁특유의	-9.39645
▁-_-	-9.39678
▁가치	-9.39713
앙	-9.39747
▁평점에	-9.39757
났다	-9.39794
▁메세지	-9.39802
▁현재	-9.39829
▁알았는데	-9.3989
▁돈이	-9.40024
없어	-9.40111
▁킬링타임용	-9.40123
▁않아	-9.40216
널	-9.40283
점짜리	-9.40315
▁슬프	-9.40339
▁여운	-9.4037
▁티비	-9.40414
▁코메디	-9.40467
▁앞	-9.40478
확	-9.40526
▁빠	-9.40628
▁만드	-9.4063
억	-9.4069
▁인상	-9.40759
잉	-9.40805
▁받	-9.40851
▁진실	-9.40922
▁대한민국	-9.40925
한다는	-9.41027
애니	-9.41104
▁안나오	-9.41132
▁마무리	-9.4124
▁이후	-9.41247
▁싶어	-9.41305
▁화이팅	-9.41393
▁관심	-9.41403
▁유머	-9.4145
▁것이다	-9.4161
▁성장	-9.41619
성을	-9.41732
려는	-9.41819
▁중간	-9.41965
▁시청률	-9.41973
▁지금도	-9.42055
다운	-9.42066
▁중반	-9.42068
꼭	-9.42125
되지	-9.42204
였던	-9.42255
▁유치하고	-9.42267
니깐	-9.42328
▁졸라	-9.4235
춘	-9.42353
▁청춘	-9.42373
▁풀어	-9.42413
친구	-9.42466
▁대단하다	-9.42484
▁듯한	-9.42518
으며	-9.42644
C	-9.42665
▁수가	-9.42698
▁해준	-9.42715
한국	-9.42747
▁끌	-9.42805
힌	-9.42893
▁우연히	-9.42946
%	-9.43061
봉	-9.43094
▁알았	-9.43095
▁비추	-9.43104
시고	-9.43172
코미디	-9.43215
랬	-9.43225
작가	-9.43233
▁끼	-9.43248
동안	-9.43317
▁처	-9.43338
▁그렇고	-9.43423
▁프로	-9.43429
누	-9.43439
고싶다	-9.43473
▁노출	-9.43501
갔	-9.43544
▁아이들이	-9.43584
마저	-9.43588
이제	-9.43644
▁ost	-9.4365
▁속편	-9.43718
▁불편	-9.43742
마음	-9.43744
꼬	-9.43778
수록	-9.43898
▁리메이크	-9.43954
▁액션영화	-9.43995
있어	-9.44028
▁등장	-9.44098
일이	-9.44197
밀	-9.44261
▁이런거	-9.44267
오는	-9.4438
흐	-9.44395
던가	-9.44416
▁전작	-9.44421
렉	-9.44489
X	-9.44489
알바	-9.44516
▁이런걸	-9.44534
▁어렸을때	-9.44625
▁실제	-9.44653
하긴	-9.44746
▁ᄒᄒᄒ	-9.44782
▁지루하	-9.44801
졸	-9.44844
▁금	-9.44983
▁액션도	-9.45025
땅	-9.45027
빨	-9.45044
갔다	-9.45136
▁표정	-9.45182
▁관계	-9.452
겠네	-9.45459
▁좋았고	-9.45517
&	-9.45568
;;;;	-9.45621
▁좋았습니다	-9.45629
▁키	-9.45669
한건	-9.45707
▁받아	-9.45708
▁지난	-9.45708
해주는	-9.45717
세계	-9.45753
스터	-9.45778
▁형	-9.45789
▁아니지만	-9.45823
▁배우가	-9.45886
▁모습이	-9.45887
을텐데	-9.45972
▁생각한다	-9.45972
르는	-9.46018
방송	-9.46039
닥	-9.46053
▁돌려	-9.46126
▁환상	-9.46133
▁귀여운	-9.46146
▁서로	-9.4616
▁처음으로	-9.46231
지않은	-9.46272
▁맞는	-9.46316
▁우울	-9.4635
기억	-9.46386
▁캐	-9.46426
▁장면은	-9.46437
▁맥	-9.46475
▁재미없고	-9.46505
▁탈	-9.46505
엄	-9.46509
아깝	-9.46547
암	-9.4659
▁디	-9.46597
쏘	-9.46657
▁리얼	-9.46673
▁만들었다	-9.46683
▁왜이리	-9.4673
▁명작이다	-9.46835
▁밀	-9.46913
▁으	-9.47117
▁재미있고	-9.47118
▁사랑이	-9.47129
노잼	-9.47147
▁좀비	-9.47155
탕	-9.47177
▁그래	-9.47199
▁짜증나	-9.47205
벨	-9.47207
었으면	-9.47253
▁또한	-9.47293
▁아닐까	-9.47307
에겐	-9.47347
▁않았다	-9.47389
원작	-9.47493
▁병	-9.47623
언니	-9.47663
▁갑	-9.4768
▁않음	-9.47683
묘	-9.47697
▁똑같	-9.47731
숨	-9.47748
좌	-9.47759
높	-9.47793
*	-9.47887
▁미치	-9.47936
▁정치	-9.47965
텐데	-9.47978
▁굳	-9.47988
점준다	-9.48025
시간이	-9.48097
혼	-9.48103
픈	-9.48141
감독이	-9.48207
촌	-9.48284
▁촬영	-9.48379
▁재밌었어요	-9.4841
눈물	-9.48464
내는	-9.48518
던지	-9.48613
▁빠지	-9.4872
다른	-9.4873
네여	-9.48751
▁모르겠	-9.4884
▁깊이	-9.48873
▁떠나	-9.48887
▁보이는	-9.48888
쇼	-9.48921
것이다	-9.48922
모습	-9.49007
유치	-9.49027
▁자극	-9.49031
▁게임	-9.49066
와서	-9.4932
엉	-9.49339
량	-9.49407
봅니다	-9.49436
▁천재	-9.49463
▁꼬	-9.49514
▁경찰	-9.49652
20	-9.49728
▁미래	-9.49745
▁왠지	-9.49856
▁주인공들	-9.49877
재밌게	-9.49879
▁몰	-9.49889
▁성인	-9.49971
송	-9.50043
▁겁나	-9.50051
손	-9.50057
생겼	-9.50099
w	-9.50101
▁대충	-9.50105
▁보여준	-9.50138
셔	-9.50159
▁싶었	-9.50185
랄	-9.50283
▁알아	-9.50368
▁관람	-9.50532
▁무엇보다	-9.50572
▁와닿	-9.5059
▁그런데	-9.50608
▁행동	-9.50611
많은	-9.50662
▁멀	-9.50687
▁세상에	-9.50824
든다	-9.50937
▁그것	-9.50973
▁보고나서	-9.50991
있었	-9.5107
좋았	-9.5108
ᄌ	-9.51139
????	-9.51168
▁시간낭비	-9.51178
▁영화였습니다	-9.51204
ᅲᅲᅲᅲ	-9.51284
▁그랬	-9.51343
쩌	-9.51411
▁골	-9.5152
하자	-9.51561
감동적	-9.5158
▁자유	-9.51603
▁아오	-9.51624
▁빨	-9.51653
보게	-9.51666
한듯	-9.51741
것은	-9.51748
▁좋아하	-9.51793
▁같습니다	-9.51842
취	-9.51885
스런	-9.51911
▁C	-9.5195
했을	-9.51963
했는지	-9.52129
▁사건	-9.52197
랫	-9.52293
▁내인생	-9.52393
▁느껴	-9.52397
분이	-9.52432
총	-9.52507
▁저도	-9.52559
▁나만	-9.52596
▁어색한	-9.52615
▁그녀	-9.52647
었지만	-9.52661
▁한편	-9.527
▁잘봤습니다	-9.52833
G	-9.52858
홀	-9.52874
▁싫어	-9.52875
▁전체적으로	-9.52897
있네	-9.52909
▁황당	-9.53055
딩	-9.53065
해보	-9.53141
▁싫	-9.53344
ᅲᅲᅲ	-9.5341
▁최악이다	-9.53412
▁얼	-9.53428
▁근	-9.53461
▁삶을	-9.53471
▁그런가	-9.53475
▁보여	-9.5367
둘	-9.53725
깨	-9.53729
놀	-9.53848
몰	-9.5391
버리고	-9.53968
▁보고싶	-9.53992
한다면	-9.54007
ᄆ	-9.54047
▁마음을	-9.54064
▁군대	-9.54154
▁상상력	-9.54184
▁좋았음	-9.54195
념	-9.54267
람	-9.54282
▁이젠	-9.54336
풀	-9.54343
▁취	-9.54435
▁각	-9.54453
ᄏᄏᄏᄏᄏ	-9.54478
▁남주	-9.54478
싸움	-9.54498
했어	-9.5454
들고	-9.54622
떡	-9.54639
▁명작이	-9.54729
▁마치	-9.54749
▁화려한	-9.54778
▁빼	-9.54857
▁전달	-9.54947
▁한계	-9.55052
였어요	-9.55092
특히	-9.55104
▁ᄏᄏᄏᄏᄏ	-9.55133
택	-9.55147
잔잔	-9.5521
퇴	-9.55212
▁깊은	-9.55234
뿌	-9.55234
▁범인	-9.55272
▁먼저	-9.55273
코드	-9.55297
거같다	-9.55377
▁잘만든	-9.55506
▁갖	-9.55522
▁진부한	-9.55579
필요	-9.55776
▁출	-9.55819
▁춤	-9.55915
해준	-9.56054
▁드라마를	-9.56082
제목	-9.56099
T	-9.56213
▁있었던	-9.56235
때마다	-9.5629
▁눈을	-9.56316
왔다	-9.56318
▁급	-9.56427
▁확실히	-9.56435
▁어찌	-9.56494
▁좋았는데	-9.56531
▁성공	-9.56562
만화	-9.56562
▁사이	-9.56568
무엇	-9.56573
▁눈이	-9.56587
거임	-9.56605
▁심심	-9.56646
기엔	-9.56672
영화중	-9.5668
▁범죄	-9.56705
▁못하고	-9.56734
▁몰랐	-9.56828
▁보이	-9.56828
▁매력이	-9.56842
▁이야기가	-9.56893
▁민	-9.56936
▁스토리에	-9.5696
F	-9.57036
▁영화중에	-9.57093
▁하면	-9.5713
▁중에	-9.57166
▁아까워	-9.57189
들아	-9.57215
페	-9.57216
▁프로그램	-9.57224
평점이	-9.57239
▁왜이렇게	-9.5724
▁하는데	-9.57264
있게	-9.57289
내요	-9.57307
▁답	-9.57536
짧	-9.57624
궁	-9.57643
에서는	-9.57671
▁캐릭터들	-9.57673
일본	-9.57683
▁밑에	-9.57709
걸로	-9.57751
▁나에게	-9.578
▁심리	-9.57863
▁있나	-9.58005
것같	-9.58033
▁엉성	-9.58048
나고	-9.58087
▁부분이	-9.5809
▁이러	-9.58114
딸	-9.58133
시는	-9.58136
하면서도	-9.58159
드리	-9.5819
면서도	-9.58207
▁느낀	-9.58275
▁다소	-9.58276
▁친	-9.583
보세요	-9.58463
▁복	-9.58522
▁같네요	-9.58605
킬	-9.58647
▁고민	-9.58673
▁훨	-9.58686
인생	-9.58694
▁미소	-9.5871
찌	-9.5871
드라	-9.58743
▁허접한	-9.58765
율	-9.58815
협	-9.5882
항	-9.58877
▁낭비	-9.58898
▁느껴지는	-9.58898
▁본다	-9.58969
▁연애	-9.59003
▁어이없는	-9.5909
재미없다	-9.5912
▁가능	-9.59138
▁자신의	-9.59214
▁너무나도	-9.59291
▁일상	-9.59326
▁자신	-9.59339
▁순수한	-9.59357
▁액션이	-9.59402
▁스토리와	-9.59405
득	-9.59406
▁여자가	-9.59485
▁로맨틱	-9.59495
▁평론가	-9.59521
▁짱짱	-9.59544
▁기분이	-9.59551
▁지금봐도	-9.59649
하라	-9.5968
▁매력적인	-9.59695
▁팔	-9.59717
▁창	-9.59759
▁모습을	-9.59944
▁찍어	-9.60011
밑	-9.60069
▁연기력이	-9.60095
▁통해	-9.60122
껄	-9.60128
틱	-9.60128
▁조폭	-9.60171
▁신선	-9.60234
▁이쁘	-9.60399
인것	-9.60407
▁역시나	-9.60408
▁감사합니다	-9.60444
▁소름	-9.6045
▁죽는	-9.60526
▁화가	-9.60531
▁영화에서	-9.60555
받은	-9.60639
섭	-9.60642
하려는	-9.60709
▁스케일	-9.60757
진심	-9.60799
~^^	-9.60941
▁아니면	-9.60949
일뿐	-9.60992
▁어린이	-9.61011
▁동화	-9.61022
▁여자들	-9.61064
▁찍은	-9.61093
되서	-9.61109
어쩌	-9.61168
돌아	-9.61197
▁그럼	-9.61316
흘	-9.61339
무섭	-9.61344
몬	-9.61389
▁카메라	-9.61434
▁붙	-9.61461
▁브	-9.61469
것들	-9.61479
▁보지마세요	-9.61503
▁마라	-9.61541
▁역대	-9.61611
전쟁	-9.61702
▁이영화가	-9.61705
영상	-9.61728
▁짓	-9.61769
버려	-9.61813
사가	-9.61822
~"	-9.6185
이며	-9.61966
폭	-9.61976
둥	-9.62027
컨	-9.62027
(?)	-9.62029
▁떨어지는	-9.62045
▁든다	-9.62066
▁잼없	-9.62113
▁가끔	-9.62157
▁제작비	-9.62164
▁처음이다	-9.62174
▁소재를	-9.62178
나온	-9.6219
멋	-9.62226
킨	-9.62242
먹는	-9.62272
따라	-9.62282
▁예전	-9.62296
생활	-9.62321
▁재미있음	-9.62366
▁독립영화	-9.6237
식으로	-9.62409
좋아요	-9.62479
욱	-9.62507
하다가	-9.62527
▁이런게	-9.62543
져서	-9.6257
푸	-9.62572
따위	-9.62591
▁시도	-9.62653
ᄅ	-9.62667
▁저렇게	-9.62668
▁중간중간	-9.62668
먹고	-9.62803
▁식상	-9.62862
▁필요한	-9.6305
▁시선	-9.63068
▁딴	-9.63077
▁해주는	-9.631
딴	-9.63165
프로	-9.63166
▁ᄉᄇ	-9.63177
▁보고싶다	-9.63275
휘	-9.63313
▁슬픔	-9.63315
▁섹시	-9.63317
▁메시지	-9.63317
▁역할	-9.63366
▁봤었는데	-9.63383
첨	-9.63385
타임	-9.63426
▁아놔	-9.63466
▁클	-9.63488
▁잔인하	-9.63505
▁좋을	-9.63576
테러	-9.6358
▁현실성	-9.63611
▁유쾌	-9.6364
▁드라마가	-9.63655
▁젤	-9.637
아주	-9.63751
▁귀엽고	-9.63778
▁후반	-9.63784
▁식	-9.63852
▁별로다	-9.63918
▁진정	-9.63933
P	-9.63946
▁했지만	-9.63965
▁희생	-9.63973
▁아름답다	-9.63985
▁몇번	-9.64014
▁이유가	-9.64048
▁단순	-9.64078
받고	-9.64137
ᄏᄏᄏᄏᄏᄏᄏᄏᄏᄏᄏᄏᄏᄏᄏᄏ	-9.64154
▁놀라	-9.64184
▁임	-9.64203
▁페	-9.64242
시킨	-9.64396
▁A	-9.64425
▁저예산	-9.64478
▁사람을	-9.64498
▁흘러	-9.6454
하는지	-9.64552
▁영웅	-9.64561
▁미안	-9.64579
폰	-9.64616
L	-9.64616
만으로	-9.6462
▁표절	-9.6464
▁유쾌한	-9.6465
ᄍᄍ	-9.64677
으론	-9.64714
더만	-9.64769
▁나오고	-9.64787
▁그림	-9.64887
에서도	-9.64894
ᄒᄒᄒ	-9.65033
▁기본	-9.65039
▁평범한	-9.65154
▁아깝	-9.65247
벽	-9.65248
▁예쁜	-9.65284
▁싫다	-9.65304
▁볼때마다	-9.6533
▁받았	-9.65442
슈	-9.65464
A	-9.65466
▁제작진	-9.65487
▁호러	-9.65501
▁국	-9.65547
▁<	-9.65888
▁애들이	-9.65922
힐	-9.65935
낼	-9.65936
▁여전히	-9.65973
▁감탄	-9.65996
▁내용을	-9.66056
잼있	-9.66057
▁죄	-9.6607
골	-9.66111
▁OST	-9.66152
었고	-9.66157
▁의심	-9.66241
만들어	-9.66252
▁안되고	-9.6635
▁15	-9.6638
▁안하고	-9.66406
▁철	-9.66413
▁표	-9.66442
▁게이	-9.66533
▁취향	-9.66542
▁맨	-9.66547
끝나	-9.6656
▁희망	-9.66567
맞추	-9.66579
▁그렇다	-9.66679
//	-9.66711
현실	-9.66731
▁트	-9.66801
▁반성	-9.66815
뜻	-9.66844
▁풀	-9.66861
쓴	-9.66862
▁올라	-9.66877
표현	-9.66962
▁잊지	-9.66977
▁나를	-9.67068
함과	-9.67119
▁아닌데	-9.67144
짜리	-9.67152
▁이하	-9.67152
탁	-9.6723
▁그들의	-9.67234
값	-9.67274
갓	-9.67274
▁글쎄	-9.67279
▁굳이	-9.67317
▁재밌었는데	-9.67457
새끼	-9.67512
할듯	-9.67566
내용이	-9.67588
줌	-9.67605
▁다행	-9.67702
▁아프	-9.67729
빙	-9.67738
나올	-9.6789
막장	-9.67916
▁입니다	-9.67943
덤	-9.67949
틈	-9.67949
▁아름답고	-9.67967
까진	-9.67991
▁"1	-9.68016
▁괴물	-9.68047
ᄃ	-9.68048
▁해야	-9.68052
▁재밌었	-9.68142
▁포장	-9.68155
▁능력	-9.68166
▁생각나	-9.68187
▁용서	-9.68187
▁사극	-9.68227
▁결과	-9.68238
▁소재는	-9.68269
싱	-9.68269
▁사랑하는	-9.68293
▁아저씨	-9.68297
엄마	-9.68324
▁안됨	-9.68334
▁신선한	-9.68382
센	-9.68385
▁몰입감	-9.68446
급영화	-9.68469
▁웃겨	-9.68477
▁나중에	-9.6854
▁뜬금없	-9.68696
▁과연	-9.68722
늘	-9.68726
▁평생	-9.68726
▁전에	-9.68834
ᅲᅲᅲᅲᅲ	-9.68839
▁나가	-9.68847
쁘	-9.68849
▁뒷	-9.68996
아님	-9.69013
▁+	-9.69028
지마라	-9.69047
▁독특한	-9.69111
험	-9.69182
▁송	-9.69195
리를	-9.69205
▁기대를	-9.69302
벤	-9.69315
것만	-9.69333
▁가진	-9.69389
짜증	-9.69421
▁보는게	-9.69484
▁좋았	-9.69496
쳤	-9.695
▁고전	-9.69549
하다니	-9.69573
▁보기엔	-9.69596
캐릭터	-9.69715
▁드는	-9.69738
▁cg	-9.69807
▁말할	-9.69841
멘	-9.69896
▁필	-9.6992
온다	-9.69921
▁짜증나는	-9.69972
는건지	-9.70012
▁불쾌	-9.7005
▁분노	-9.70102
▁넣	-9.70279
▁틀	-9.70341
▁끝난	-9.70367
감을	-9.70485
재밌다	-9.70512
▁벗	-9.70526
▁감동적이고	-9.70556
룡	-9.70578
같고	-9.7063
▁결	-9.7065
▁흐름	-9.70735
▁잊혀지지	-9.70846
있는데	-9.70857
▁드러	-9.70879
▁현대	-9.7088
▁추천합니다	-9.70897
괜찮	-9.71021
▁에로	-9.71042
대사	-9.71091
▁팬이	-9.71139
아까운	-9.71167
an	-9.71194
랜	-9.71224
▁폭	-9.71259
굴	-9.7138
▁연기와	-9.71385
▁그럭저럭	-9.71398
▁열심히	-9.71398
말고	-9.71411
▁상처	-9.71455
▁어릴적	-9.71459
▁꼴	-9.71477
▁있다면	-9.71614
▁재밌습니다	-9.71675
▁티비에서	-9.71676
씨가	-9.71747
200	-9.71791
속에서	-9.71793
우리	-9.71803
▁적당	-9.71868
웅	-9.72017
▁전편	-9.72038
▁긴장	-9.72061
▁우정	-9.72076
스러움	-9.72103
▁압권	-9.72104
공포	-9.72105
▁묘사	-9.72117
머리	-9.72119
▁만들어진	-9.7221
▁현실을	-9.72233
▁다만	-9.72252
▁아는	-9.72263
▁끊	-9.72267
스가	-9.72408
으로서	-9.72408
▁동물	-9.7243
나와	-9.72513
▁느끼는	-9.7262
놔	-9.72644
▁있지	-9.72665
팅	-9.72803
▁리뷰	-9.72817
▁전기세가	-9.72819
▁많다	-9.72826
▁살짝	-9.72852
▁초반에	-9.72857
▁악역	-9.72887
번째	-9.72892
▁볼거리	-9.72941
▁잼있게	-9.72943
▁몰입이	-9.72973
▁지루할	-9.73051
▁합	-9.73199
▁생각합니다	-9.73245
▁달리	-9.73286
▁하나하나	-9.73351
되네요	-9.73375
▁썩	-9.73409
▁다르	-9.73498
▁참신	-9.73508
▁봤으면	-9.73526
▁나서	-9.7357
▁아닌듯	-9.73646
관계	-9.73676
▁폭력	-9.73696
재밌어요	-9.73705
▁남는다	-9.73706
▁사는	-9.73887
턴	-9.7391
거라	-9.73924
하려고	-9.73942
▁과정	-9.73975
▁볼만함	-9.74002
▁끝나고	-9.74016
▁같음	-9.74031
▁재미없네	-9.74037
▁음악이	-9.74047
더라구요	-9.74095
죄	-9.74117
▁풍	-9.74145
하는것	-9.74157
▁포기	-9.74195
▁연기에	-9.74229
없네	-9.74292
▁몸매	-9.74309
▁짠	-9.74313
▁진심으로	-9.7432
▁되었다	-9.74322
▁되었	-9.74387
▁영화관	-9.7458
99	-9.74664
점주는	-9.74667
▁스토리를	-9.74675
▁용	-9.74817
착	-9.74878
▁허술	-9.74886
▁법	-9.74895
▁시원	-9.74895
▁난다	-9.74909
▁여러	-9.74928
▁봣	-9.74936
년전에	-9.74956
▁채널	-9.74979
▁이건뭐	-9.75013
▁무지	-9.75019
▁무협	-9.75043
같음	-9.75075
개봉	-9.75081
한것	-9.75106
▁같아	-9.75131
▁사랑과	-9.75132
그래	-9.75148
▁이정도면	-9.75174
▁나왔으면	-9.75187
자는	-9.75288
▁슬프다	-9.75291
▁채	-9.75323
방식	-9.75369
하구	-9.75501
사회	-9.75501
▁덜	-9.75545
▁스타	-9.75587
얘기	-9.75634
M	-9.75658
스릴러	-9.75662
N	-9.75698
팍	-9.757
안에	-9.75708
▁북한	-9.75736
▁퀄리티	-9.75768
▁죽을	-9.75801
▁긴	-9.75848
▁보시길	-9.75879
▁중요한	-9.75926
▁액션은	-9.75928
▁비극	-9.75967
오글	-9.76008
▁잘만들었	-9.76056
▁영화지만	-9.76083
!!!!!	-9.76113
▁헛	-9.76127
▁알바들	-9.76136
▁고생	-9.76165
겼	-9.76254
▁되게	-9.763
▁영화이다	-9.76379
▁I	-9.76397
▁빠져들	-9.76416
누나	-9.76417
▁이유는	-9.76429
▁이연걸	-9.76437
▁크게	-9.76468
▁공감이	-9.76478
▁종교	-9.76481
리지	-9.76636
시키는	-9.76636
노래	-9.76735
▁빛	-9.76741
▁더이상	-9.76921
▁낫	-9.76939
▁영화보고	-9.76953
▁어렸을	-9.76988
▁하루	-9.77057
▁재밌네	-9.77099
지않고	-9.77106
깜	-9.77175
▁올리	-9.77276
▁높다	-9.77282
▁설레	-9.7739
력이	-9.77426
▁직	-9.77467
▁열정	-9.77516
▁접	-9.7767
▁지루해서	-9.77732
▁아깝지	-9.77812
▁봤다가	-9.77815
▁오버	-9.77838
▁말로	-9.77854
▁젊은	-9.77854
▁재미를	-9.77882
믿	-9.77905
ᄃᄃ	-9.77907
▁비주얼	-9.77922
▁싸구려	-9.77922
▁마세요	-9.78019
▁죽어	-9.78154
▁만든다	-9.78293
시간에	-9.78329
였지만	-9.78364
내용도	-9.78404
▁다큐멘터리	-9.78424
▁홍콩	-9.78524
▁맡	-9.78553
콘	-9.78589
끌	-9.78632
R	-9.78674
▁쓰래기	-9.78675
▁나머지	-9.78683
▁감동과	-9.78745
▁언제나	-9.78771
떠	-9.78772
차라리	-9.78778
▁자막	-9.7883
▁좋습니다	-9.78834
명이	-9.78842
지마	-9.78856
하지도	-9.78956
▁전투	-9.78971
▁유치함	-9.78992
용으로	-9.79023
웨	-9.79052
▁그려	-9.79101
!!"	-9.79128
in	-9.79179
▁왠	-9.79179
▁몰라도	-9.79231
▁재미있네요	-9.79232
▁동생	-9.79329
▁소녀	-9.79353
er	-9.79361
▁보고싶은	-9.79383
씹	-9.79432
떨	-9.79551
솔직히	-9.79568
기분	-9.79593
▁뮤지컬	-9.79644
▁남을	-9.79753
▁처음엔	-9.79753
연기가	-9.79754
."""	-9.79764
▁그의	-9.79881
▁맘	-9.79905
▁생각나는	-9.79963
느라	-9.79992
▁믿을	-9.80037
▁개판	-9.80083
▁무시	-9.80142
혁	-9.80155
흑	-9.80161
▁가볍게	-9.80195
▁해피엔딩	-9.80195
뢰	-9.80195
팀	-9.80195
▁쉽게	-9.80208
re	-9.80241
▁봐야할	-9.80249
▁없지만	-9.80294
구성	-9.80334
▁국민	-9.80361
▁12	-9.80392
보는내내	-9.80395
▁칼	-9.80444
님의	-9.80448
▁어쩔	-9.80554
▁끝나는	-9.80606
▁아련	-9.80674
가슴	-9.80706
▁무섭다	-9.80745
가지고	-9.80798
학생	-9.80848
롱	-9.80924
▁밥	-9.80925
j	-9.80964
숭	-9.80964
봣는데	-9.81015
내고	-9.81055
▁킬링타임	-9.81064
▁돌아가	-9.81082
▁좋았던	-9.81087
▁필요없다	-9.81101
넣	-9.81159
▁했던	-9.81211
깔	-9.81254
갑니다	-9.81289
▁먼	-9.81313
▁40	-9.81343
았던	-9.81388
▁추억의	-9.81399
보이	-9.81405
찾	-9.81408
▁만큼	-9.81544
▁보았	-9.81568
▁인기	-9.81698
▁연예인	-9.8174
▁따뜻	-9.81752
▁통쾌	-9.81758
시다	-9.81895
했나	-9.81918
접	-9.81939
놨	-9.81945
흥	-9.81959
,,,"	-9.81981
르고	-9.82005
▁울었	-9.82033
왔는데	-9.82097
........	-9.82113
▁만들고	-9.82119
▁좋아서	-9.82143
겟다	-9.82149
볼만	-9.82152
웠다	-9.82196
되면	-9.82233
세상	-9.82245
▁의문	-9.82245
▁그린	-9.82358
▁드라마는	-9.82362
엔딩	-9.82384
았음	-9.82497
오브	-9.82507
솔	-9.82518
포인트	-9.82527
▁사랑에	-9.82572
면에서	-9.8261
헤	-9.82632
▁그다지	-9.82635
bb	-9.82713
▁청	-9.82735
▁홍보	-9.82746
▁남아	-9.82746
빡	-9.82758
줄이야	-9.82775
맥	-9.82782
▁웬	-9.8282
초반	-9.8291
었어	-9.83051
▁삶의	-9.83065
째	-9.83089
▁지구	-9.83113
▁못했다	-9.83122
▁달라	-9.83253
▁소재로	-9.83257
▁엉성한	-9.83266
컷	-9.83308
ᅡ	-9.83308
멸	-9.83308
▁필요없는	-9.83535
즘	-9.8357
▁순수	-9.83581
젤	-9.83628
캐	-9.83628
▁주인공의	-9.83644
▁정서	-9.83664
▁재밋게	-9.83739
편보다	-9.83761
로써	-9.83834
사람은	-9.8391
▁늘어	-9.83996
▁라는	-9.84012
▁어제	-9.84035
닝	-9.84102
▁씁쓸	-9.84102
▁힐링	-9.84102
▁불구하고	-9.84103
나와서	-9.8415
▁우리가	-9.84163
▁몇번을	-9.84179
.........	-9.84221
▁빈	-9.84344
맘	-9.8446
들만	-9.84463
몰입	-9.84464
답답	-9.84483
젠	-9.84505
▁유치하다	-9.84553
▁많아	-9.84645
▁보아	-9.847
▁죽여	-9.84728
웃기	-9.84747
▁해주	-9.84816
안타깝	-9.84867
▁최근	-9.8487
▁재미있었다	-9.84886
텔	-9.84902
▁그걸	-9.84953
요즘	-9.85008
▁다시한번	-9.85039
않는	-9.85114
▁광고	-9.85205
뭔	-9.85274
ᄒᄒᄒᄒ	-9.85304
▁가서	-9.85308
▁딱히	-9.85357
순간	-9.85423
▁현실적이	-9.85459
▁이제야	-9.85547
릿	-9.85697
콜	-9.857
티비	-9.85707
[	-9.85708
▁어려운	-9.85709
▁뛰어난	-9.85742
▁생애	-9.85809
▁낮아서	-9.85846
▁찡	-9.85847
▁슬프고	-9.85855
▁조잡	-9.8586
점수	-9.85914
▁둘다	-9.85931
세기	-9.85936
▁느껴지	-9.85961
▁많았	-9.85972
▁빌	-9.86045
▁소재가	-9.8606
▁70	-9.86141
아까움	-9.86152
으려	-9.86232
형제	-9.86309
대는	-9.86369
▁볼만하다	-9.86374
빼고	-9.86449
픽	-9.86472
▁제목이	-9.86512
▁아름다움	-9.86521
▁헐리우드	-9.86521
삭	-9.86521
▁무언가	-9.86524
▁발전	-9.86571
워서	-9.8661
▁ᅮ	-9.86672
제작	-9.86676
올리	-9.86677
▁이쁜	-9.86697
▁배우의	-9.8672
▁재밋다	-9.86722
쓰고	-9.86726
▁남녀	-9.86786
▁고통	-9.86802
▁웃기고	-9.86809
점준	-9.86811
is	-9.8682
상을	-9.86823
▁남겨	-9.86829
하던데	-9.86961
버림	-9.87007
▁연속	-9.87041
▁불쌍	-9.87066
몸	-9.87073
부족	-9.87187
까요	-9.87188
하는건	-9.87226
하하하	-9.87241
or	-9.87244
나옴	-9.87288
▁죄다	-9.87292
스타일	-9.87336
붕	-9.87341
털	-9.87341
수없는	-9.87342
▁섹스	-9.87347
▁바뀌	-9.87347
스러워	-9.87362
v	-9.8738
▁아픔	-9.87415
집니다	-9.87457
▁볼수록	-9.87465
▁잔인한	-9.8747
배우들의	-9.87496
있을	-9.87517
▁검	-9.87581
▁없나	-9.87586
▁현실적인	-9.87629
닌	-9.8776
▁ᄃᄃ	-9.87764
▁연출도	-9.8789
♥♥	-9.87962
▁멋지다	-9.8797
▁가지	-9.87984
▁느낄수	-9.88007
억지	-9.88025
▁푹	-9.88052
▁눈물을	-9.88082
있음	-9.88089
▁꽃	-9.88108
소설	-9.88163
K	-9.88167
혈	-9.88167
▁형편없	-9.88172
▁사랑스러운	-9.88306
씬은	-9.88353
▁대표	-9.8838
▁올해	-9.88397
▁드럽게	-9.884
에대한	-9.88454
▁보았다	-9.88485
▁니들	-9.88516
했다는	-9.88536
▁산으로	-9.88586
▁질리지	-9.88647
▁시청	-9.88732
검	-9.88733
인가요	-9.88743
.......	-9.88825
오늘	-9.88874
▁매력있	-9.88876
▁끌어	-9.88911
▁우주	-9.88917
씀	-9.88922
▁있게	-9.88948
샘	-9.89001
줍니다	-9.89006
연기도	-9.89018
▁방금	-9.89054
▁예쁘	-9.89183
님들	-9.89187
시작	-9.8933
▁가득	-9.89345
▁좋았을	-9.89407
▁즐	-9.89508
려면	-9.89552
▁시간을	-9.89553
메이	-9.89608
낫	-9.89611
▁있습니다	-9.89617
▁꾸	-9.89618
▁봣는데	-9.89746
▁되고	-9.89746
▁말을	-9.8976
▁밋밋	-9.89841
배경	-9.8985
영화라고	-9.89859
영화임	-9.89885
▁어머니	-9.89895
▁찌	-9.89913
▁아마	-9.89981
▁전설	-9.90029
▁점수를	-9.90034
▁과장	-9.90048
▁힘들다	-9.90066
▁귀엽	-9.90084
▁좀더	-9.90106
정신	-9.90165
▁출연진	-9.90173
▁c	-9.90223
▁느와르	-9.90235
▁엉망	-9.90305
있어서	-9.90311
▁반전도	-9.9032
무비	-9.90344
▁뜻	-9.90365
▁않게	-9.904
▁꼽	-9.90413
할까	-9.90422
▁살아있	-9.90428
▁실패	-9.90447
낭	-9.90618
▁보지마	-9.90632
▁ᄋᄋ	-9.90645
▁청소년	-9.90694
▁대화	-9.90701
▁악당	-9.90849
버리는	-9.90912
▁뻔하고	-9.90933
▁킬링타임용으로	-9.91034
▁슬	-9.91039
▁들었	-9.9106
▁생각없이	-9.91138
했으나	-9.91184
중에서	-9.91193
▁뻔하	-9.91301
했네	-9.91342
▁쫌	-9.91364
▁w	-9.91391
라지만	-9.91421
▁나왔다	-9.91422
▁봤었	-9.9145
▁미드	-9.91483
▁이해할	-9.91492
떄	-9.91543
▁디즈니	-9.91543
▁로그인	-9.91544
▁오글거리	-9.91553
▁헤	-9.91568
▁눈빛	-9.91568
▁웃겼	-9.91571
장난	-9.91635
▁평범	-9.9176
친다	-9.91784
한다고	-9.91824
▁떠나서	-9.91838
설정	-9.91913
^^"	-9.91914
▁핵	-9.91916
하시는	-9.91923
▁여기서	-9.91977
자체가	-9.91999
▁한심	-9.92115
11	-9.92116
쉽	-9.92366
▁되지	-9.92373
낭비	-9.92398
]	-9.92405
략	-9.92405
▁쵝오	-9.92406
▁문화	-9.92415
▁정말로	-9.92446
▁시사회	-9.92456
▁빌려	-9.92467
해주세요	-9.92479
▁사람의	-9.92489
▁베스트	-9.92495
▁죽이	-9.92588
▁평이	-9.92592
▁영화냐	-9.92597
▁한국인	-9.92599
▁찍었	-9.9263
편의	-9.92648
▁커	-9.92759
계속	-9.9284
▁차이	-9.92878
으로써	-9.92892
▁깔	-9.92947
▁뭐라	-9.92972
▁가져	-9.92977
럼	-9.92981
했네요	-9.93
▁결말도	-9.93021
장면이	-9.93032
▁월	-9.93057
▁유명	-9.93067
▁인생을	-9.93091
잠	-9.93167
연기력	-9.93174
▁중요	-9.93203
옹	-9.93259
▁쓸	-9.93266
므	-9.93274
톰	-9.93275
▁시트콤	-9.93275
렁	-9.93275
▁즐겁게	-9.93275
▁음악도	-9.93304
▁안돼	-9.93398
나온다	-9.9342
▁보니까	-9.935
극장	-9.93511
셔서	-9.93544
▁ᅲᅲᅲ	-9.9358
▁전체	-9.93617
기위해	-9.93675
사는	-9.93687
좋고	-9.93729
▁S	-9.93732
뻐	-9.93756
▁재미없어요	-9.93835
▁높아	-9.93856
▁결말은	-9.93909
긴한데	-9.94
자리	-9.94015
▁어른	-9.94024
소년	-9.94029
고싶은	-9.94045
꿀	-9.94131
탐	-9.94151
땡	-9.94152
톱	-9.94152
▁레전드	-9.94152
▁슬퍼	-9.94171
▁알수	-9.9421
▁연결	-9.94243
▁사기	-9.9427
▁뽑	-9.94276
▁생생	-9.94281
▁존경	-9.94294
▁단연	-9.94349
냈	-9.94377
▁아직까지	-9.94379
▁몰입해서	-9.94427
▁이런영화가	-9.94431
▁시시	-9.94477
스럽고	-9.94486
"""""""	-9.94495
▁생각하는	-9.94567
▁안보고	-9.94573
▁어이가	-9.94591
았습니다	-9.94628
▁있으면	-9.94707
▁살리	-9.94713
수있는	-9.94716
▁인간들	-9.94755
평가	-9.94773
▁무서워	-9.9487
하더라	-9.94888
▁멍청한	-9.94954
쓸	-9.95035
`	-9.95037
쥬	-9.95037
거면	-9.95106
▁매력적이	-9.95115
▁지켜	-9.95122
당시	-9.95175
▁주변	-9.95177
▁스포	-9.95202
▁갔	-9.95204
▁내려	-9.95265
▁인물들	-9.95285
지도않고	-9.95311
▁재밌었음	-9.95313
▁T	-9.9535
▁나옴	-9.9547
▁시걸	-9.95554
▁심장	-9.95633
뻔한	-9.95635
▁공부	-9.95638
할수있	-9.95703
ar	-9.95714
on	-9.95732
▁이거보고	-9.95736
▁외국	-9.95759
더라면	-9.95794
▁못해	-9.95853
▁퍼	-9.95871
뛰	-9.95915
떼	-9.9593
▁헐리웃	-9.9593
▁무서웠	-9.95935
▁안타깝다	-9.95962
밥	-9.95975
I	-9.95976
▁표현한	-9.95981
▁흔한	-9.95985
이라서	-9.96102
겠어요	-9.96137
그리	-9.96214
▁않나	-9.96247
▁유쾌하고	-9.96248
센스	-9.96252
▁조연	-9.96258
▁모든게	-9.96266
자체	-9.96318
는것도	-9.96341
▁개인	-9.96374
▁시대를	-9.96391
▁남자가	-9.9641
60	-9.96418
▁투자	-9.96426
▁않지만	-9.96477
제발	-9.96504
해진다	-9.96546
▁시청자	-9.96549
▁괜찮았	-9.96566
▁못한다	-9.9667
▁귀여	-9.96747
례	-9.9683
▁견자단	-9.96831
▁러닝타임	-9.96831
▁에피소드	-9.96831
마리	-9.9688
겁니다	-9.96888
▁탄탄한	-9.96891
▁갈등	-9.96898
시즌	-9.96972
▁:	-9.96979
▁알겠	-9.96988
▁장면에서	-9.9699
나가는	-9.97038
▁있어요	-9.97093
▁허세	-9.97155
▁보시	-9.97177
▁빼고	-9.97286
받는	-9.97297
하길래	-9.97311
지말고	-9.97312
모든	-9.97316
▁보인다	-9.97334
ᄍᄍᄍ	-9.97368
겹	-9.97426
▁집에서	-9.97454
▁이후로	-9.97508
▁부르	-9.9757
▁나오지	-9.97635
▁있네요	-9.97722
낀	-9.97724
▁기독교	-9.9774
▁느낌을	-9.9774
▁로봇	-9.97746
▁따뜻해지는	-9.97776
▁명품	-9.97776
▁맨날	-9.97791
▁모르겠고	-9.97794
▁건지	-9.97815
▁멋있다	-9.97848
▁못할	-9.97864
갈수록	-9.97911
▁뜨	-9.97939
▁뒤로	-9.9798
▁작가가	-9.97996
편을	-9.98002
ᅲᅮ	-9.98071
▁말하는	-9.98148
▁줌	-9.98261
▁이따위	-9.98301
▁나오면	-9.98334
▁영화에요	-9.98335
▁산만	-9.98393
하신	-9.98407
간의	-9.98414
V	-9.98445
▁볼게	-9.98488
초등학교	-9.98657
▁슬펐	-9.98658
▁스스로	-9.98662
▁보고나면	-9.98668
▁벌써	-9.9868
줘서	-9.98699
▁무엇을	-9.98707
▁발견	-9.98722
적이다	-9.98742
기로	-9.9876
▁재미있었어요	-9.98765
만드는	-9.98777
샤	-9.98828
▁할말이	-9.98842
뭔가	-9.98877
좋아하는	-9.98884
았는데	-9.98898
유발	-9.99052
▁국내	-9.99105
▁전문가	-9.99128
더라도	-9.99147
님이	-9.99181
고싶어	-9.99187
어린	-9.99289
▁행	-9.99292
▁슈	-9.99299
▁재밌을	-9.99315
▁명성	-9.99325
문화	-9.9934
▁노답	-9.99387
▁없는데	-9.99438
▁하면서	-9.9949
▁야한	-9.99532
녹	-9.99555
재밌음	-9.99566
▁잔잔하고	-9.99599
▁멍청	-9.99681
공감	-9.99714
▁코난	-9.99716
▁좋았지만	-9.99764
했을까	-9.99785
형님	-9.99813
줬다	-9.99828
냥	-9.99893
▁싶네요	-10.0006
▁단지	-10.0009
▁50	-10.0012
짜증나	-10.0015
▁오바	-10.0028
▁있어야	-10.0031
하려	-10.0037
잇는	-10.0038
꾸	-10.004
하기엔	-10.0043
계의	-10.0045
균	-10.005
ᅵ	-10.0052
뮤	-10.0052
▁뭉클	-10.0052
▁the	-10.0052
▁더불어	-10.0052
주연	-10.0055
▁싶지	-10.0055
▁편견	-10.0056
▁독특	-10.0059
▁틀어	-10.0062
▁특이	-10.0068
▁시각	-10.0069
부작	-10.007
▁옛날에	-10.0071
▁왜케	-10.0071
내내	-10.0073
겠네요	-10.0074
몇	-10.0074
머니	-10.0082
▁진리	-10.0083
해야지	-10.0084
▁망한	-10.0089
▁같아서	-10.0102
끝까지	-10.0103
▁미모	-10.0106
쳤다	-10.0114
▁아이돌	-10.012
ᄃᄃᄃ	-10.0124
▁단순한	-10.0126
▁유명한	-10.0131
출연	-10.0133
▁남편	-10.0137
매력	-10.0137
▁솔직	-10.0138
▁작품을	-10.0144
▁슈퍼	-10.0146
닉	-10.0146
▁기대안하고	-10.0146
▁치밀	-10.015
다는게	-10.0152
▁에휴	-10.0152
▁좋게	-10.0155
▁외모	-10.0163
▁영국	-10.0166
▁대사가	-10.0167
▁무척	-10.017
겨울	-10.0181
▁거지	-10.0181
▁해석	-10.0182
▁배우들도	-10.0185
▁비슷	-10.0186
▁발로	-10.0188
슬프	-10.0196
문제	-10.0203
▁자살	-10.0206
남는	-10.0221
▁지금은	-10.0222
▁한참	-10.0227
▁앤	-10.023
▁평론가들	-10.0234
▁굿굿	-10.0235
▁개연성이	-10.0236
▁더러운	-10.0242
앞	-10.0242
it	-10.0244
▁인상적이	-10.0246
OOO	-10.0248
▁지루하게	-10.025
▁낳	-10.0255
감독의	-10.0256
▁떨어지	-10.0258
만큼은	-10.0258
빼곤	-10.0258
▁속에	-10.0261
마지막에	-10.0264
▁아쉽네요	-10.0274
▁없었던	-10.0274
▁이쁘고	-10.0281
▁누구나	-10.0283
켜	-10.0291
▁이쁘다	-10.0296
적은	-10.0297
상황	-10.0299
▁웃음이	-10.03
▁제로	-10.0301
▁보길	-10.0304
▁나쁘지	-10.0306
▁때문	-10.032
▁펑펑	-10.0327
동생	-10.0328
였고	-10.0329
▁쇼	-10.0329
,,,,	-10.0331
▁빼고는	-10.0333
▁암튼	-10.0335
같지	-10.0335
▁즐거운	-10.0337
퀴	-10.0337
탓	-10.0337
▁짝퉁	-10.0338
아쉬웠	-10.034
있나	-10.0346
▁반복	-10.0348
▁그럴	-10.0349
▁한데	-10.035
▁당시에	-10.0351
▁자식	-10.0353
▁와우	-10.0356
▁무비	-10.0361
▁지루했다	-10.0365
▁철학	-10.0367
▁아나	-10.0371
▁극치	-10.0373
▁"""""""	-10.0374
▁흥	-10.0378
▁끝이	-10.0379
▁신파	-10.0382
안되는	-10.0384
▁안맞	-10.0385
였어	-10.0387
▁대부분	-10.0404
아쉽	-10.0405
▁혼	-10.0408
▁좋아할	-10.0411
▁부모	-10.0421
잤	-10.0431
▁카리스마	-10.0435
▁마이클	-10.0435
힘	-10.0435
봐야지	-10.0436
▁진지	-10.0437
때부터	-10.0437
▁어렵	-10.0439
감독님	-10.044
▁기다리	-10.0444
▁달달	-10.0445
▁받을	-10.0449
사람들이	-10.0449
12	-10.045
개도	-10.045
▁덕분에	-10.0451
아무	-10.0451
어진	-10.0459
▁착한	-10.0466
▁부족하다	-10.0468
똥	-10.0472
▁무리	-10.0472
▁쓰레기같은	-10.0473
럴	-10.0474
했었는데	-10.0479
씨의	-10.0482
▁생각하고	-10.0484
▁아줌마	-10.0485
드립니다	-10.0486
▁쩐다	-10.0492
▁작은	-10.0494
▁영화였어요	-10.0504
▁친구들	-10.0505
▁여행	-10.0507
보인다	-10.0521
하기만	-10.0522
셈	-10.0527
ᄇ	-10.0531
뉴	-10.0531
엠	-10.0532
컬	-10.0532
▁봤더니	-10.0533
▁초등학생	-10.0533
캬	-10.0533
▁의외로	-10.0533
▁감정을	-10.0533
냄새	-10.0533
▁누군가	-10.0538
▁좋겠어요	-10.0539
▁하는지	-10.0544
▁조합	-10.0548
▁박수를	-10.0558
▁십	-10.056
공포영화	-10.0571
굳	-10.0583
빌	-10.0583
▁살고	-10.0588
▁옛	-10.0591
▁장면들	-10.0592
▁완전히	-10.0593
▁본인	-10.0596
▁헤어	-10.0601
우스	-10.0607
▁눈에	-10.0609
▁신선하고	-10.0613
▁영화인듯	-10.0616
버릴	-10.0617
▁인간이	-10.0617
▁울고	-10.0618
인건	-10.062
쌍	-10.0626
섹	-10.063
윌	-10.0632
뽕	-10.0632
W	-10.0632
둔	-10.0632
▁작품이다	-10.0637
▁민망	-10.0638
▁역대급	-10.064
▁찌질	-10.0641
▁다룬	-10.0641
ᄋᄋ	-10.0643
▁살려	-10.0644
▁일품	-10.0644
▁썼	-10.0646
▁최대	-10.0648
▁관객들	-10.065
하지마라	-10.065
기법	-10.0654
기까지	-10.0654
해진	-10.066
잡고	-10.066
al	-10.0662
▁울었다	-10.0666
▁넘치는	-10.0667
▁피해자	-10.0669
▁연기력도	-10.0673
▁13	-10.0674
삶	-10.0677
빛	-10.0685
▁의리	-10.0692
▁좋지만	-10.0696
▁본다면	-10.0697
보지	-10.0699
겠음	-10.0702
▁실제로	-10.0702
▁올려	-10.0705
그래서	-10.0712
얘	-10.072
▁그렇다고	-10.072
보자	-10.0722
▁괜찮다	-10.0725
▁잼나	-10.0726
춰	-10.0729
▁말하고	-10.0731
칙	-10.0732
▁포르노	-10.0732
칸	-10.0732
▁김기덕	-10.0732
사람들은	-10.0733
▁볼수있	-10.0734
▁경험	-10.0734
▁힘이	-10.0739
▁양심	-10.0745
▁게다가	-10.0745
▁아역	-10.0746
▁웃김	-10.0747
▁삶에	-10.076
▁용기	-10.076
▁기대했는데	-10.0763
▁가면	-10.0763
있습니다	-10.0765
▁보러	-10.077
아니다	-10.0772
이였다	-10.0772
▁비판	-10.0785
스키	-10.0787
점정도	-10.0792
이런영화	-10.0801
▁영어	-10.0807
▁좋아해서	-10.0809
엇다	-10.081
상태	-10.0812
대단	-10.0822
헌	-10.0829
흡	-10.083
냉	-10.0832
▁007	-10.0833
▁젠장	-10.0833
▁방법	-10.0837
▁즐기	-10.0838
▁있던	-10.084
절대	-10.0841
▁기술	-10.0855
▁18	-10.0859
살아	-10.0864
나왔	-10.0866
▁논	-10.0875
:)	-10.0877
없어서	-10.0878
쥐	-10.0899
▁음악과	-10.09
얼굴	-10.0901
▁우와	-10.0904
나오고	-10.0905
▁인생의	-10.0906
더빙	-10.0908
냈다	-10.0908
것보다	-10.0912
▁그거	-10.092
텐	-10.0924
▁밝	-10.0929
▁들어가	-10.0934
켓	-10.0935
▁어처구니	-10.0935
긋	-10.0935
▁크리스마스	-10.0935
▁흥미로운	-10.0935
▁지나치게	-10.0935
▁고양이	-10.0935
▁직접	-10.0936
히어로	-10.0936
▁교육	-10.0937
▁뛰어넘	-10.0937
▁복잡	-10.0938
▁꿈을	-10.0938
▁국가	-10.0941
▁재밌다고	-10.0946
▁어휴	-10.0948
▁당연	-10.0949
▁많고	-10.0961
▁이해하기	-10.0974
▁최고입니다	-10.0974
▁연기자들	-10.0981
▁훈훈한	-10.0988
시길	-10.099
▁이미지	-10.0991
쟁이	-10.1003
밤	-10.1006
어떻게	-10.1008
▁착	-10.1015
편도	-10.1018
▁무섭지도	-10.1025
▁잊	-10.103
▁중에서	-10.103
아름답	-10.103
쭉	-10.1038
넹	-10.1038
룩	-10.1038
▁위대한	-10.1038
했었	-10.1038
▁좋았으나	-10.104
▁학교에서	-10.104
▁비현실적	-10.1042
▁손발이	-10.1044
▁모르게	-10.1045
▁웃기지도	-10.1046
▁모를	-10.1046
됐다	-10.1047
▁한번쯤	-10.1048
▁최강	-10.1049
봐요	-10.1057
이었음	-10.1066
▁신경	-10.1069
30	-10.1071
▁의미를	-10.108
주면	-10.1084
▁진부	-10.1092
▁조용	-10.11
▁뛰어	-10.1102
읽	-10.1116
헐	-10.1116
빠르	-10.1121
▁보여준다	-10.1126
▁죽은	-10.1131
새끼들	-10.1138
▁못함	-10.1141
칭	-10.1142
핑	-10.1142
▁봤을때	-10.1142
▁외계인	-10.1142
▁잠깐	-10.1143
▁똑같은	-10.1147
명의	-10.115
▁잼있다	-10.1161
▁모르겠지만	-10.1165
놈이	-10.1179
▁답답한	-10.1186
▁어른들	-10.1187
es	-10.1204
▁할까	-10.1205
▁아침	-10.1213
▁보며	-10.1214
st	-10.1216
모두	-10.1216
당한	-10.1219
▁선생님	-10.122
▁영화라는	-10.1221
하기도	-10.1223
▁앞으로도	-10.1224
▁보내	-10.1225
▁빵점	-10.1227
▁얼마	-10.1231
▁개봉한	-10.1233
있냐	-10.1241
끼리	-10.1244
▁잔	-10.1247
롯	-10.1247
벅	-10.1247
▁마이너스	-10.1247
층	-10.1247
▁디테일	-10.1247
▁챙겨	-10.1247
콧	-10.1247
보네	-10.1248
▁웃기다	-10.1251
▁크리스	-10.1252
자나	-10.1253
▁짜증난다	-10.1254
19	-10.1256
▁아이가	-10.1258
요소	-10.1269
▁블랙	-10.1281
▁막판에	-10.1291
▁괜찮은데	-10.1297
속의	-10.1298
0%	-10.1306
야한다	-10.1306
▁한심한	-10.1312
▁긴장감도	-10.1313
▁홍콩영화	-10.1319
었나	-10.1319
▁맞아	-10.1319
▁뿐이다	-10.1323
▁대해서	-10.1325
▁꽝	-10.1327
▁관한	-10.1336
닐	-10.1337
모양	-10.134
점줌	-10.1346
겠습니다	-10.1347
▁심하게	-10.1347
▁나타	-10.1348
하고싶은	-10.1348
▁현실이	-10.1351
▁스트레스	-10.1354
▁싸이코	-10.1354
▁레알	-10.1362
아무리	-10.1367
▁따로	-10.1371
▁망치	-10.1371
▁해결	-10.1374
편에	-10.1378
▁재미있었	-10.138
년만에	-10.1382
으니까	-10.1383
치곤	-10.139
▁한명	-10.1398
씬이	-10.1401
쟁	-10.1407
었네요	-10.1407
▁오랜만	-10.1411
것인가	-10.1413
▁대중	-10.1419
▁보자	-10.1429
▁가슴에	-10.1432
▁주말	-10.1434
뭐야	-10.1445
▁이래	-10.1446
멍	-10.1448
논	-10.1448
꼴	-10.1449
붙	-10.1449
▁잊을수	-10.1455
껴	-10.1458
▁이유를	-10.1461
▁DVD	-10.1461
▁아름다웠	-10.1461
폼	-10.1461
▁바꿔	-10.1462
▁줬	-10.1464
▁반개도	-10.1465
▁생각함	-10.1466
▁으리	-10.1469
▁사랑은	-10.1469
▁관점	-10.1473
▁깨닫게	-10.1474
여주	-10.1477
▁결정	-10.148
만들었	-10.1482
▁설마	-10.1482
▁재미잇	-10.1489
▁악마	-10.1501
▁않을까	-10.1507
♥♥♥	-10.151
▁커플	-10.1529
▁힘들었	-10.1529
▁한마디	-10.1532
점이다	-10.1538
en	-10.1545
▁하는거	-10.1551
꿀잼	-10.1557
큰	-10.1563
▁케이블	-10.1564
스럽게	-10.1567
포스터	-10.1568
녕	-10.1569
이즈	-10.157
▁응원	-10.1571
납니다	-10.1571
ing	-10.1572
▁감흥	-10.1572
▁없어요	-10.1577
▁동안	-10.1577
▁생각하면	-10.158
▁변태	-10.1581
▁ᄀ	-10.1584
▁재밌던데	-10.1585
▁방영	-10.1586
▁ᄏᄏᄏᄏᄏᄏ	-10.1591
도아니고	-10.1597
▁먹고	-10.1598
▁애기	-10.16
▁읽어	-10.1605
▁싱	-10.1628
▁낚시	-10.1635
▁밤	-10.1642
▁행복한	-10.1646
▁자신이	-10.1673
▁한국영화는	-10.1676
▁본영화	-10.1677
도대체	-10.1679
롤	-10.168
헬	-10.168
▁주성치	-10.168
무서움	-10.1681
▁개뿔	-10.1683
▁거짓말	-10.1685
▁풍경	-10.1687
as	-10.1687
▁미쳤	-10.1687
▁일어나	-10.1688
나올때	-10.1692
▁추억이	-10.1694
▁전설의	-10.1694
▁있구나	-10.1699
▁강력	-10.1702
▁싶은데	-10.1708
조금	-10.1709
▁아픈	-10.1713
본사람	-10.1714
ᄏᄏᄏᄏᄏᄏᄏᄏᄏᄏᄏᄏᄏ	-10.1714
▁없습니다	-10.1725
▁죽이는	-10.173
▁정체	-10.1731
할만한	-10.1731
장애	-10.174
빨리	-10.1745
▁그렇지	-10.175
▁위로	-10.1754
▁진부하고	-10.1758
개그	-10.176
▁빠진	-10.1764
바닥	-10.1764
90	-10.1765
▁조화	-10.1769
▁들었다	-10.1771
▁보긴	-10.1772
▁잊을	-10.1777
▁왠만하면	-10.1781
▁폴	-10.1786
었네	-10.1788
▁패러디	-10.1791
손가락	-10.1792
장르	-10.1793
▁기다려	-10.1793
긴장감	-10.1794
허접	-10.1796
▁자신을	-10.1808
▁남자의	-10.1809
▁개성	-10.1814
랄까	-10.1815
▁잼있어요	-10.1815
▁야동	-10.1815
▁졸리	-10.1823
스톤	-10.1826
▁보여줬	-10.1831
했더니	-10.1836
▁우리의	-10.1837
▁있겠	-10.1839
▁뇌	-10.1839
것같아요	-10.184
▁장르가	-10.184
▁속에서	-10.1855
▁소름이	-10.1856
같네	-10.1858
▁본거	-10.1859
▁점수가	-10.1865
▁못하다	-10.1868
▁감동적이다	-10.1869
지루함	-10.187
았어요	-10.1875
오래	-10.1879
▁탑	-10.1883
▁전개도	-10.1887
▁실력	-10.1888
▁도전	-10.1892
▁사람들의	-10.1894
▁섬	-10.1898
보이는	-10.1898
럭	-10.1903
낯	-10.1903
삐	-10.1903
핀	-10.1903
▁이제서야	-10.1903
▁엄	-10.1905
거같은데	-10.1905
▁느껴진다	-10.1905
콩	-10.1909
▁할머니	-10.1909
<	-10.191
꽃	-10.1911
▁주기	-10.1914
▁멍	-10.1915
▁전율	-10.1915
분은	-10.1916
공주	-10.1916
▁개막장	-10.1917
때까지	-10.1921
▁낮네	-10.1923
▁짝이	-10.1924
관람	-10.1926
▁없지	-10.1936
받아	-10.194
▁재미없게	-10.1947
▁긴장감이	-10.1948
▁잭	-10.1965
▁오락	-10.1966
거리는	-10.1968
않다	-10.1975
하기에	-10.1975
받아서	-10.1981
^^*	-10.1991
▁모두가	-10.1995
감정	-10.2004
▁몇년	-10.2013
z	-10.2017
H	-10.2017
▁잔혹	-10.2018
▁말도안되는	-10.2018
▁몇몇	-10.202
~!!!	-10.202
▁만든영화	-10.2022
▁영혼	-10.2022
▁이용	-10.2024
▁보려고	-10.2024
▁하늘	-10.2029
잊	-10.2029
앤	-10.203
▁간다	-10.2034
관객	-10.2035
▁보았습니다	-10.2036
▁무술	-10.2046
옴	-10.2055
임에도	-10.2057
학년	-10.2059
▁인해	-10.206
▁싶을	-10.206
▁있으	-10.2065
▁기자	-10.2075
▁결론	-10.2077
▁아내	-10.2077
▁드립니다	-10.2079
▁자주	-10.2083
▁조작	-10.2084
▁불러	-10.2084
▁아까울	-10.2091
▁작가님	-10.2092
▁남아있	-10.2093
▁않네요	-10.2108
▁좋아하는데	-10.2108
▁보기에	-10.2113
었을	-10.2117
년도에	-10.2118
건가요	-10.2119
▁평점보고	-10.2124
미국	-10.2124
80	-10.2129
빅	-10.2132
싼	-10.2132
▁어린시절	-10.2134
▁최초	-10.2142
▁세상을	-10.2145
▁농	-10.2149
했다고	-10.215
▁사랑이야기	-10.2151
떨어지	-10.2152
그만	-10.2156
▁그당시	-10.2156
버전	-10.2161
▁원작이	-10.2173
하지마	-10.2174
▁감안	-10.2176
▁세월	-10.2177
두고	-10.2188
▁지루하기	-10.2194
▁제외	-10.2199
같았	-10.2205
▁죽는줄	-10.2206
▁필름	-10.2206
▁낮다	-10.2214
▁특별한	-10.2215
▁샤	-10.2224
본영화	-10.2225
▁본방사수	-10.2227
▁보려	-10.2227
▁콩	-10.224
닿	-10.2244
셀	-10.2248
엑	-10.2248
▁잔뜩	-10.2248
▁떨어진다	-10.2252
▁보여주고	-10.2255
▁쩝	-10.2268
▁이래서	-10.2268
덜	-10.2273
▁참으로	-10.2286
▁깎	-10.2287
▁감히	-10.2287
사건	-10.2292
▁11	-10.2306
쓰레기영화	-10.2309
▁왜이래	-10.2311
▁충격적이	-10.2316
부분이	-10.232
앞에서	-10.2325
▁재미와	-10.2326
▁거기에	-10.2327
th	-10.2331
▁형사	-10.2351
▁어릴	-10.2363
▁안타까운	-10.2366
▁무엇인지	-10.2366
▁소중한	-10.2367
▁여러가지	-10.2368
▁흑인	-10.2369
▁촌스럽	-10.2372
▁억지스러운	-10.2373
▁아예	-10.2381
모자	-10.2382
▁재미없었다	-10.2386
▁욕망	-10.239
▁돌리	-10.2391
하길	-10.2391
다운받	-10.2394
즐	-10.2395
비디오	-10.2397
싫	-10.2397
▁부모님	-10.2398
지않아	-10.2405
적이지	-10.2405
▁단어	-10.2406
▁내면	-10.2407
보내	-10.2409
▁출연한	-10.241
▁보통	-10.2411
▁분들은	-10.2413
▁생각나서	-10.2416
▁문제가	-10.2418
빠지	-10.2423
▁있었지만	-10.2431
▁최고였다	-10.2431
안됨	-10.2442
▁그녀의	-10.2442
▁시리즈중	-10.2447
▁만들면	-10.2451
▁원작의	-10.2457
▁있었는데	-10.248
보구	-10.2485
곰	-10.2485
딜	-10.2485
랭	-10.2485
뽀	-10.2485
▁깜짝	-10.2485
▁의미가	-10.2486
▁캐릭터가	-10.2487
▁겨우	-10.249
▁모험	-10.249
▁영화보면서	-10.2491
쳐서	-10.2492
▁액션씬	-10.2493
했지	-10.2494
▁좋겠	-10.2495
▁받는	-10.2495
▁위해서	-10.2496
▁또다른	-10.2498
▁하나같이	-10.2506
▁대놓고	-10.2509
▁뛰어나	-10.2525
새롭	-10.253
▁인디	-10.2536
▁사진	-10.2538
▁개연성도	-10.2545
▁기준	-10.2549
▁답답하고	-10.2552
▁맹	-10.2555
▁멋지	-10.256
▁단편	-10.2575
있었다	-10.2582
▁그건	-10.2586
▁잔인	-10.2591
브라	-10.2596
객	-10.2599
▁비디오로	-10.2601
▁갖고	-10.2601
찐	-10.2605
▁느꼈다	-10.2605
곱	-10.2605
펜	-10.2605
▁시간가는줄	-10.2605
▁제임스	-10.2605
▁후속작	-10.2606
떨어진	-10.2614
▁에로영화	-10.2617
▁형님	-10.2647
▁어쩔수	-10.2647
▁쥐	-10.2648
▁둘이	-10.2649
추억	-10.2652
▁배우를	-10.2657
였으면	-10.266
▁분위기가	-10.2662
me	-10.2663
잘만들	-10.2671
▁겉	-10.2675
좋앗	-10.2676
▁추리	-10.2678
▁뭐하나	-10.2678
▁야구	-10.2678
▁낙	-10.2679
▁명작입니다	-10.269
▁탄탄	-10.2697
▁쓰는	-10.27
▁진부하	-10.27
▁많은데	-10.271
레스	-10.2714
▁맞지	-10.2719
라곤	-10.2723
▁집에	-10.2724
ᅥ	-10.2727
▁아닙니다	-10.2727
쿨	-10.2727
▁스크린	-10.2727
▁아이디어	-10.2727
▁집착	-10.2729
▁극장가서	-10.273
▁심각	-10.2731
▁화려하	-10.2742
▁수준의	-10.2744
▁이럴	-10.2749
끄러	-10.275
▁열연	-10.2753
▁기대이상	-10.2754
▁관객을	-10.2756
▁살아가는	-10.2759
조아	-10.2763
돋	-10.2763
낚	-10.2771
보니까	-10.2773
주고싶다	-10.2774
역사	-10.2777
▁효과	-10.2779
▁지나도	-10.278
개념	-10.2782
커플	-10.2782
▁느껴졌	-10.2786
▁아니야	-10.2791
후회	-10.2811
▁대본	-10.2812
좋은영화	-10.2815
나름	-10.2843
▁그만큼	-10.2843
할수없	-10.2844
여행	-10.2844
보기싫	-10.285
묵	-10.285
J	-10.2851
▁동성애	-10.2851
▁충실	-10.2851
▁탄생	-10.2852
▁빈약	-10.2853
▁싸우는	-10.2854
하진	-10.2856
▁어쩜	-10.2856
▁영원히	-10.2856
▁색감	-10.2857
▁남자주인공	-10.2861
▁비밀	-10.2863
▁웃고	-10.2863
▁참신한	-10.2867
▁최근에	-10.2869
▁배역	-10.2873
▁끝날	-10.2874
▁빼면	-10.2879
어이없	-10.2881
▁변화	-10.2884
▁도망	-10.2886
짱짱	-10.2892
기에는	-10.2896
▁잼나게	-10.2897
▁찾아보	-10.2897
되나	-10.2897
▁생각했는데	-10.2898
▁안볼	-10.2902
▁보지말	-10.2904
▁공포물	-10.291
▁보지마라	-10.2913
▁노래도	-10.2915
▁낮지	-10.2915
▁코미디영화	-10.2921
▁죽이고	-10.2922
▁재난영화	-10.2926
햇다	-10.2928
ᄏᄏᄏᄏᄏᄏᄏᄏᄏ	-10.2939
때매	-10.2941
▁가치가	-10.2942
▁두고	-10.2944
거같아요	-10.2944
혼자	-10.2945
잖	-10.2949
▁2014	-10.2959
▁다운받아	-10.2959
할것	-10.296
▁이런영화를	-10.2962
쓰는	-10.2964
▁주인공은	-10.2969
렵	-10.297
왓	-10.297
재미없음	-10.2971
액	-10.2974
클레멘타인	-10.2976
ᄎ	-10.2976
컴	-10.2976
▁울컥	-10.2976
덕에	-10.2978
▁옷	-10.2979
▁바꾸	-10.298
만듬	-10.298
▁듣고	-10.2983
40	-10.2984
▁이것이	-10.2991
큐	-10.2992
▁알겠는데	-10.2992
▁여름	-10.2996
▁다르다	-10.3
▁높게	-10.3
▁성격	-10.3004
▁훌륭하다	-10.3012
▁명화	-10.3013
▁죽인	-10.3018
▁21	-10.302
▁기회	-10.3023
▁내가본	-10.3027
▁가슴을	-10.3031
▁별로임	-10.3034
▁풍자	-10.3035
시나리오	-10.3038
아저씨	-10.3038
분위기	-10.304
해야할	-10.3042
▁가족영화	-10.3056
못하는	-10.3058
▁예쁘고	-10.306
▁아까운영화	-10.3086
시오	-10.3093
터미네이터	-10.3102
틸	-10.3102
쪼	-10.3102
▁특수효과	-10.3102
받았	-10.3103
▁혹은	-10.3111
▁주기도	-10.3116
사라지	-10.3128
▁만남	-10.3129
추격	-10.3134
▁모르겠음	-10.3137
▁라이	-10.3138
▁조카	-10.3139
▁안맞는	-10.3146
▁부실	-10.3147
재밌어	-10.3148
▁할말	-10.3149
▁여운을	-10.3152
▁비하면	-10.3158
야겠다	-10.316
▁낮아	-10.3162
뇌	-10.3163
캐스팅	-10.3172
▁잼잇	-10.3176
아빠	-10.3179
졸작	-10.3185
년작	-10.3189
▁아래	-10.3195
▁전쟁영화	-10.3209
le	-10.3213
▁볼수있는	-10.3219
▁여주가	-10.3224
▁됩니다	-10.323
▁아류작	-10.3231
▁색다른	-10.3231
▁바랍니다	-10.3232
▁작위적	-10.3233
▁sf	-10.3234
▁이상하게	-10.3235
▁그저그런	-10.3236
보셈	-10.3237
긴하지만	-10.3239
▁사랑스럽	-10.324
▁감각	-10.324
막히	-10.3243
▁만들었는지	-10.3244
▁생각으로	-10.3246
좋음	-10.3248
▁승리	-10.325
▁반전은	-10.3254
▁조절	-10.3259
▁끝났	-10.326
▁넌	-10.3261
▁훈훈	-10.3261
▁만들수	-10.3265
▁선동	-10.3266
했다면	-10.3274
▁재미있습니다	-10.3275
▁길게	-10.3282
▁호구	-10.3291
~~~~~~~	-10.3294
▁대단하	-10.3304
개인적으로	-10.3307
▁연출과	-10.3313
▁배신	-10.3314
점이상	-10.3314
주고싶	-10.3317
▁편안	-10.3327
▁남네요	-10.3331
내용은	-10.3332
마냥	-10.3339
하겠다	-10.334
)"	-10.334
겠죠	-10.3355
아까웠	-10.3358
^-^	-10.336
★	-10.336
▁봤을까	-10.336
▁블록버스터	-10.336
▁심지어	-10.3362
▁위험	-10.3364
▁아무런	-10.3365
▁짧은	-10.3366
▁등등	-10.337
아이들	-10.3371
▁매력을	-10.3371
▁적당히	-10.3375
▁좋겠네요	-10.3379
▁오래된	-10.3381
▁만들다니	-10.3384
▁다시보니	-10.3387
▁따분	-10.3389
▁재미도없고	-10.339
효과	-10.3391
▁아쉽지만	-10.3394
▁궁금하다	-10.3399
▁수많은	-10.3399
▁최고임	-10.3406
▁주제를	-10.3411
인물	-10.3413
▁내용인지	-10.3417
▁망친	-10.3424
스럽지	-10.343
댄	-10.3436
▁요리	-10.3439
▁책을	-10.3448
▁정말이지	-10.3454
▁교훈을	-10.3456
보는게	-10.3462
▁등장인물	-10.3464
▁낮게	-10.347
멜로	-10.3471
말아먹	-10.348
▁뭘까	-10.3485
측	-10.3489
▁노래가	-10.3489
씁	-10.3492
▁살다살다	-10.3492
▁즐거웠	-10.3492
▁사운드	-10.3492
▁다양한	-10.3493
언제	-10.3496
▁구성이	-10.3496
치고는	-10.3498
▁낚였다	-10.35
▁일반	-10.3504
▁놀라운	-10.3504
▁흔들	-10.3504
조연	-10.3507
▁시간아깝다	-10.3513
▁없으면	-10.3527
▁엉성하고	-10.3542
해주고	-10.3546
▁몰라	-10.355
▁엉망이	-10.3552
들끼리	-10.3556
기전에	-10.3557
생김	-10.3559
▁만든거	-10.356
▁친구가	-10.3561
되었다	-10.3561
거같음	-10.3564
▁줄수	-10.3569
법한	-10.3569
이랄까	-10.357
것같은	-10.3573
ᄏᄏᄏᄏᄏᄏᄏᄏᄏᄏᄏ	-10.3573
▁안습	-10.3579
칼	-10.3582
흠	-10.3582
엄청	-10.3586
▁불쌍하다	-10.3592
▁좀비영화	-10.3601
▁식상한	-10.3614
렷	-10.3624
뭉	-10.3625
▁로버트	-10.3625
▁어렵다	-10.3625
▁잘봤어요	-10.3625
▁브루스	-10.3625
▁플롯	-10.3625
▁끔찍	-10.3625
▁유일하게	-10.3625
▁감정이입	-10.3628
▁신선하	-10.3628
♡♡	-10.363
▁결코	-10.3631
▁데리고	-10.3635
▁담겨	-10.3643
▁꼬마	-10.3645
▁무료	-10.3651
뿐이다	-10.3651
▁그자체	-10.3654
능력	-10.3661
▁반대	-10.3671
▁보던	-10.3679
스카	-10.3681
이었습니다	-10.3681
▁귀여워	-10.3684
할수가	-10.3685
▁살린	-10.3688
있지	-10.369
점대는	-10.3692
하는건지	-10.3698
▁여러분	-10.3701
▁못보겠	-10.3702
려다가	-10.3707
▁애들은	-10.3708
▁좋네	-10.3716
깝	-10.3721
아버지	-10.3721
il	-10.3725
재미있게	-10.3731
▁이해할수	-10.3733
보여주	-10.3737
듯하다	-10.3739
▁연기력은	-10.3745
▁감정이	-10.3746
빠져	-10.3746
풋풋	-10.3758
뚱	-10.376
▁스티븐	-10.376
▁어설프고	-10.376
▁한국에서	-10.3761
▁소소한	-10.3761
▁핵노잼	-10.3762
▁개인적	-10.3763
▁앞뒤	-10.3763
▁흐르는	-10.3763
옆	-10.3767
▁꽤나	-10.377
▁운명	-10.3772
▁어느정도	-10.3773
▁예쁘다	-10.3776
ut	-10.3779
▁답이	-10.3784
▁살면서	-10.3787
▁책임	-10.3793
거죠	-10.3795
▁몰랐다	-10.3808
▁짜증나서	-10.381
▁있다니	-10.382
15	-10.3827
만드네	-10.3844
같아서	-10.3849
▁매일	-10.385
것만으로도	-10.3854
▁확인	-10.3858
높은	-10.3865
꿈	-10.3866
범죄	-10.3869
▁약간의	-10.3876
▁안본	-10.388
었는지	-10.3883
또한	-10.3883
▁보기에는	-10.3885
보고싶다	-10.389
젊	-10.3894
▁매력적	-10.3896
ᄁ	-10.3897
램	-10.3897
벼	-10.3897
싹	-10.3897
랩	-10.3897
▁러시아	-10.3897
지마세요	-10.3898
▁아름답게	-10.3899
았지만	-10.39
좋았다	-10.3901
놀이	-10.3906
▁때려	-10.3907
▁말하고자	-10.3922
▁짜증만	-10.3933
▁집중해서	-10.394
▁마지막까지	-10.3942
▁선물	-10.3944
▁뭐니	-10.3945
간만에	-10.3957
▁놀랍다	-10.3968
▁나랑	-10.3998
▁오락영화	-10.4008
벗	-10.401
▁새로	-10.4019
▁소장	-10.402
결국	-10.4031
꾼	-10.4032
▁알수있	-10.4033
괜	-10.4034
갱	-10.4036
▁dvd	-10.4036
▁임팩트	-10.4036
▁해리포터	-10.4036
및	-10.4036
탱	-10.4036
퓨	-10.4036
▁쓸데없이	-10.4036
찔	-10.4036
▁짜집기	-10.4036
▁어른이	-10.4037
▁유일한	-10.4037
낮은	-10.4043
▁일부러	-10.4043
▁폐지	-10.4043
▁마지막장면	-10.4045
보게되	-10.4047
▁여자친구	-10.4047
▁모르겟	-10.4047
▁담배	-10.4052
▁어울리는	-10.4052
없네요	-10.4053
▁나름대로	-10.4053
있네요	-10.4058
▁연극	-10.406
오르	-10.4064
상영관	-10.4065
시원	-10.4066
▁역사를	-10.4073
▁포스터가	-10.4073
▁먼가	-10.4074
먹은	-10.4074
발연기	-10.4078
▁막장드라마	-10.4079
▁욕심	-10.408
겠는데	-10.4098
주제	-10.4101
▁볼때	-10.4111
▁영상과	-10.4112
▁재밌어서	-10.4116
스티	-10.4124
▁잠시	-10.4128
썼	-10.4157
▁자체는	-10.4158
춤	-10.4158
화이팅	-10.4158
느껴	-10.416
찮	-10.4176
펑	-10.4177
U	-10.4177
▁설득력	-10.4177
쫓	-10.4177
▁제니퍼	-10.4177
▁착각	-10.418
▁잤다	-10.4182
▁웃으면서	-10.4184
▁어째	-10.4188
▁로코	-10.4191
극장에서	-10.4195
▁봤다면	-10.4197
▁동양	-10.42
질질끌	-10.4201
▁순수함	-10.4201
ᅮᅲ	-10.4202
▁나에겐	-10.4203
▁인상적	-10.4209
▁동심	-10.4221
였나	-10.4227
바라	-10.4234
▁않아서	-10.4235
▁부분도	-10.4242
져요	-10.4245
▁많은걸	-10.4246
lo	-10.4251
▁소설을	-10.4255
▁수작이다	-10.4257
▁재미없어서	-10.4261
스토	-10.4263
▁떨어지고	-10.4269
▁곧	-10.4274
▁연인	-10.4279
▁포스	-10.4279
것처럼	-10.4283
▁철학적	-10.4284
▁정작	-10.4289
▁혹시	-10.4291
라는걸	-10.4291
▁한편의	-10.4292
못하고	-10.4294
않음	-10.4294
으려고	-10.4302
뭘	-10.4307
걍	-10.4308
글자	-10.4309
수밖에	-10.4313
느끼	-10.4316
▁아닐	-10.4317
랍	-10.4317
맴	-10.432
셋	-10.432
짤	-10.432
▁가벼운	-10.432
▁반드시	-10.432
▁교과서	-10.432
▁매니아	-10.432
▁of	-10.4321
▁내생에	-10.4321
▁뭐하자는	-10.4321
익숙	-10.4325
▁할아버지	-10.4325
▁괜찮았다	-10.4328
▁남자들	-10.4328
▁희망을	-10.433
▁두번째	-10.433
존나	-10.4331
▁근래	-10.4332
▁충분	-10.4333
▁그야말로	-10.4333
▁손발	-10.4334
행복	-10.4337
▁목적	-10.4338
▁잘못된	-10.4339
▁개노잼	-10.4342
▁재능	-10.4344
▁생긴	-10.4345
ᅮᅮᅮ	-10.4348
▁시청률이	-10.4348
▁명장면	-10.4348
▁이딴걸	-10.4353
▁사상	-10.4358
▁난잡	-10.4365
▁돋보이는	-10.4373
▁그립다	-10.4384
다시보고싶	-10.4389
웨이	-10.4392
▁보다니	-10.4395
▁검색	-10.4397
▁여전	-10.44
ᄏᄏᄏᄏᄏᄏᄏᄏᄏᄏᄏᄏ	-10.4408
▁이런건	-10.4413
중국	-10.4413
톤	-10.4418
▁적절	-10.443
▁음식	-10.4433
▁사용	-10.4436
하러	-10.4453
▁봐야하는	-10.4456
일듯	-10.4458
코믹	-10.446
▁저급	-10.4464
젖	-10.4465
툭	-10.4465
▁이끌어	-10.4465
▁모른다	-10.4465
▁실수	-10.4466
웃김	-10.4467
엇는데	-10.4471
▁첫사랑	-10.4472
▁언제봐도	-10.4473
▁다섯	-10.4475
25	-10.4476
이러니	-10.4487
▁봐도봐도	-10.4489
앞으로	-10.449
전혀	-10.4498
▁공감할	-10.4499
▁독일	-10.4504
▁따뜻하고	-10.4507
뭐냐	-10.4525
너무너무	-10.4527
▁점수는	-10.4533
♥♥♥♥	-10.4546
▁불쌍한	-10.4547
▁잼있음	-10.4547
멋있	-10.4547
▁중심	-10.4552
에대해	-10.456
▁내용과	-10.4564
▁부부	-10.4597
▁이상하고	-10.4598
▁찾는	-10.4601
▁안봐도	-10.4603
▁아깝고	-10.4605
쩜	-10.4606
말이필요없	-10.4611
딘	-10.4612
쿵	-10.4612
▁대통령	-10.4612
▁태어나서	-10.4612
닷	-10.4612
▁심형래	-10.4612
▁짜임새	-10.4612
▁떨어짐	-10.4612
▁오글거려	-10.4612
움직이	-10.4612
▁떠오르	-10.4613
▁아까웠다	-10.4615
▁맞춰	-10.4616
불쌍	-10.4616
▁즐겨	-10.4618
▁여러번	-10.462
▁적어도	-10.462
▁이루어	-10.4621
▁저평가	-10.4623
▁여자주인공	-10.4628
▁케이블에서	-10.464
!!!!!!!!!!!!!!!!	-10.4649
알아	-10.4651
있지만	-10.4658
▁새벽에	-10.4664
▁생기	-10.4666
▁않았지만	-10.4671
▁없었음	-10.4675
▁그지같	-10.4679
▁괜찮음	-10.4695
▁가정	-10.4697
▁잊고	-10.4697
▁어색하고	-10.4702
▁의사	-10.4712
100	-10.4716
▁삼류영화	-10.4722
▁그것도	-10.4723
▁난해하	-10.473
▁불편한	-10.4732
보시길	-10.474
했을때	-10.4743
올라	-10.4745
보긴	-10.4748
맞는	-10.4749
납	-10.4759
닫	-10.476
뷰	-10.476
뎅	-10.4761
▁뱀파이어	-10.4761
눌	-10.4761
▁배트맨	-10.4761
부끄럽	-10.4761
▁이소룡	-10.4761
▁소재와	-10.4762
▁배경음악	-10.4767
섬	-10.4768
나왓	-10.4768
폴	-10.4768
비슷	-10.4769
평론가	-10.4769
아직도	-10.4771
CG	-10.4771
목소리	-10.4777
▁프리	-10.478
지말자	-10.4782
싫어	-10.4785
▁끌고	-10.4786
▁피해	-10.4789
▁처음에는	-10.4792
▁절정	-10.4808
▁우연	-10.4822
▁모든걸	-10.4824
▁키스	-10.4828
▁다르게	-10.4831
어색	-10.4834
▁안간다	-10.4841
▁정상	-10.4842
▁망했	-10.4851
곳에서	-10.4864
▁가득한	-10.4871
▁보이지	-10.4881
▁안될	-10.4882
▁귀엽다	-10.4885
있으면	-10.4895
열받	-10.4898
하군	-10.491
▁컴퓨터	-10.4913
▁you	-10.4913
▁할리우드	-10.4913
▁장국영	-10.4913
▁인내심	-10.4913
▁정신병자	-10.4913
▁걱정	-10.4913
제시카	-10.4914
스텝	-10.4915
▁거장	-10.4916
본영화중	-10.492
▁당연히	-10.4925
훌륭	-10.4928
TV	-10.4929
우리나라	-10.4931
▁괜찮았는데	-10.4931
▁to	-10.4932
▁짜증나고	-10.4934
▁반담	-10.4937
ve	-10.4945
▁마약	-10.4946
▁훈훈하	-10.4951
▁높아서	-10.4951
▁애매	-10.4953
▁특별	-10.4956
신분	-10.4957
▁없나요	-10.4961
ᄍ	-10.4963
▁강렬한	-10.4971
▁싶어요	-10.4994
▁없냐	-10.5002
같아	-10.5003
▁달려	-10.5014
▁초딩때	-10.5016
놨네	-10.5026
하시길	-10.5026
▁망쳐	-10.5027
▁없게	-10.5032
▁개봉했	-10.5032
▁밀려	-10.5039
-_-;	-10.5047
▁김치	-10.5047
▁수입	-10.5051
▁주연배우	-10.5053
썸	-10.5066
앨	-10.5067
▁이토록	-10.5067
▁희대의	-10.5067
덩어리	-10.5067
▁제이슨	-10.5067
▁처절	-10.5073
줄알았는데	-10.5076
▁부탁	-10.5077
▁과학	-10.5077
빠진	-10.508
▁디워	-10.5083
▁거북	-10.5084
사실	-10.5084
자마자	-10.5085
▁단순히	-10.5086
그렇게	-10.5089
▁하품	-10.5094
▁서양	-10.5095
▁최고봉	-10.5096
어떤	-10.5097
▁궁금해서	-10.51
웃겨	-10.5105
▁많아서	-10.5108
▁사랑해요	-10.5116
하지말고	-10.5116
▁잡아	-10.512
▁원조	-10.5121
▁다시보고	-10.5123
보소	-10.5128
드립	-10.5131
▁기대없이	-10.5132
할뿐	-10.5135
▁놀랍	-10.5144
제대로	-10.5148
▁조선	-10.5149
▁어울리지	-10.5151
귀신	-10.5154
▁불안	-10.5171
▁논리	-10.5175
렬	-10.5178
▁아이들과	-10.5178
▁가족들	-10.5183
▁신비	-10.5187
▁마음으로	-10.5203
▁죽었	-10.5205
▁작품입니다	-10.5211
소름돋	-10.5218
엽	-10.5219
멈	-10.5223
깃	-10.5223
▁소중함을	-10.5223
껀	-10.5223
▁공짜로	-10.5223
▁늑대	-10.5223
▁꿈꾸	-10.5225
▁빠른	-10.523
분만에	-10.523
▁극복	-10.5231
▁정신없	-10.5232
기도하고	-10.5233
미친	-10.5242
굿굿굿	-10.5247
▁울리는	-10.5249
줄알았	-10.5249
▁만들기	-10.525
탑	-10.5252
▁현실과	-10.5252
귀엽	-10.5253
여운이	-10.5262
차별	-10.5263
▁인형	-10.5265
▁당신은	-10.5269
▁기억나는	-10.5273
해지고	-10.528
갔는데	-10.528
잖아요	-10.5284
▁기타	-10.5304
▁멋지고	-10.5305
겐	-10.5311
▁여자애	-10.5313
▁쉽지	-10.5313
▁세번	-10.5315
▁보게된	-10.5352
빼	-10.5359
▁굉장	-10.5374
륜	-10.5376
ᄡ	-10.5381
릇	-10.5381
웟	-10.5381
▁조니뎁	-10.5381
켄	-10.5381
▁깡패	-10.5381
▁숨겨진	-10.5381
▁오프닝	-10.5381
▁컨셉	-10.5381
▁명복을	-10.5382
▁아놀드	-10.5382
▁불가능	-10.5382
▁우려먹	-10.5382
▁무엇인가	-10.5382
▁겉멋	-10.5382
갈때	-10.5383
그저	-10.5383
▁실험	-10.5386
하니까	-10.5389
습니까	-10.5398
▁이뻐서	-10.5398
~~^^	-10.5399
▁거품	-10.54
▁첨엔	-10.5403
분동안	-10.5403
베리	-10.5404
▁한방	-10.5405
하거나	-10.5409
▁전개와	-10.5412
▁보았는데	-10.5414
500	-10.5415
!!!!!!!!!	-10.5416
▁혹시나	-10.5417
▁하지원	-10.5418
▁스토리전개	-10.5419
할줄	-10.5428
▁의상	-10.5429
▁시작부터	-10.543
▁박수	-10.5435
▁지겹다	-10.5462
un	-10.5467
있던	-10.5467
싶은데	-10.5482
발랄	-10.5482
▁강렬	-10.5484
힘들	-10.5489
▁그것을	-10.5502
▁재미있는데	-10.5513
아니면	-10.5514
▁표현할	-10.5515
작이라	-10.5524
그러나	-10.5524
▁좋지	-10.5536
깍	-10.5538
콤	-10.5541
▁빛을	-10.5542
쯔	-10.5543
뱀	-10.5543
▁네티즌	-10.5543
▁명불허전	-10.5543
▁송강호	-10.5543
뻥	-10.5543
숀	-10.5543
▁탁월	-10.5543
▁달콤	-10.5544
▁판단	-10.5546
▁좋았을텐데	-10.5546
▁명대사	-10.5547
▁각색	-10.555
▁믿고보는	-10.5554
▁말아야	-10.5555
신분들	-10.5556
못하겠	-10.556
▁내용전개	-10.5561
랜드	-10.5566
▁짜증남	-10.5568
▁이번에	-10.558
▁믿기지	-10.558
햇는데	-10.5586
첫	-10.5589
오랜만에	-10.5589
재미있어요	-10.5592
▁볼만했다	-10.56
▁아깝네요	-10.56
바람	-10.5601
노답	-10.5605
~~~~~	-10.5606
▁왜곡	-10.5616
▁만들어서	-10.5628
점주기도	-10.5631
돈주고	-10.5642
▁소화	-10.566
▁선정	-10.566
▁보시면	-10.5661
▁발상	-10.5672
▁상대	-10.5677
뻔했다	-10.568
복수	-10.5682
좋네요	-10.5691
▁그립	-10.5692
▁정도면	-10.5694
교회	-10.5702
갠	-10.5707
덩	-10.5707
밍	-10.5707
덴	-10.5707
닼	-10.5707
▁고등학교	-10.5707
▁쓸데없는	-10.5707
▁인터넷	-10.5707
▁주윤발	-10.5707
곽	-10.5707
▁박진감	-10.5707
보느니	-10.5708
▁상관없	-10.5708
▁알겠다	-10.5709
▁루즈	-10.5709
▁현실감	-10.571
다큐	-10.5712
▁거기다	-10.5714
▁최소	-10.5715
▁고뇌	-10.5716
▁보고싶어	-10.5717
▁만약	-10.5718
▁흘리	-10.5719
▁부정	-10.5721
것같은데	-10.5721
억울	-10.5722
ck	-10.5725
▁담긴	-10.5738
▁유쾌하게	-10.5739
▁갖다	-10.5742
▁진수	-10.5743
▁어거지	-10.5748
▁유행	-10.5748
하자면	-10.5749
▁치유	-10.5752
▁생각난다	-10.5758
꼽	-10.5758
갖	-10.576
▁남았	-10.5765
ᄏᄏᄏᄏᄏᄏᄏᄏᄏᄏ	-10.5768
▁마지막회	-10.5775
그럼	-10.5776
되요	-10.5785
▁강간	-10.579
▁명연기	-10.579
▁결론은	-10.5791
안돼	-10.5797
▁ᄏᄏᄏᄏᄏᄏᄏᄏ	-10.581
▁재난	-10.5821
늙	-10.583
으시	-10.5839
답게	-10.5843
,,,,"	-10.5849
퉁	-10.5873
몫	-10.5873
▁듭니다	-10.5873
똘	-10.5873
미스테리	-10.5873
▁아무생각없이	-10.5873
▁호기심	-10.5873
▁뭥미	-10.5874
▁이해불가	-10.5874
▁하정우	-10.5874
▁도무지	-10.5874
▁정우성	-10.5874
▁동시에	-10.5874
▁환경	-10.5875
▁죄송	-10.5875
괜찬	-10.5875
▁폭풍	-10.5876
▁사랑한다	-10.5879
▁즐길	-10.5881
▁만화책	-10.5881
▁그럴듯	-10.5883
▁돈내고	-10.5884
찾아	-10.5886
▁억지감동	-10.5888
▁만들어낸	-10.589
▁애절	-10.5903
▁살인마	-10.5903
▁유럽	-10.5903
▁안보는게	-10.5909
할수있는	-10.591
▁눈물나	-10.5912
▁울면서	-10.5917
▁싶었던	-10.5917
볼수있	-10.5917
▁대신	-10.5928
소녀	-10.5933
▁각자	-10.5935
▁모르겠네요	-10.5935
▁본건데	-10.5936
아름다운	-10.5937
댄스	-10.5944
스턴	-10.5952
여배우	-10.5962
▁좋을듯	-10.5965
▁매미	-10.597
▁지겹	-10.5975
등록	-10.5981
▁만들었나	-10.5982
하실	-10.5986
▁않은데	-10.5988
편집	-10.5988
▁명배우	-10.599
물론	-10.5993
▁찾아서	-10.5998
델	-10.5999
천원	-10.5999
하고싶다	-10.6003
왔어요	-10.6012
▁황당한	-10.6016
ma	-10.602
지루하다	-10.6024
지못한	-10.6029
셉	-10.6043
▁빕니다	-10.6043
랴	-10.6043
쩍	-10.6043
퀄	-10.6043
룰	-10.6043
▁리얼리티	-10.6043
▁내생애	-10.6043
▁잔잔하게	-10.6044
▁유치해	-10.6047
▁모르지만	-10.6047
▁녹아	-10.6048
▁초반부	-10.6048
▁어쩌면	-10.6049
▁잔잔하면서	-10.6049
▁장난하냐	-10.6049
▁폭발	-10.6052
▁만난	-10.6052
특집	-10.6054
▁놀란	-10.6062
▁천국	-10.6063
▁자극적인	-10.6064
▁100%	-10.6065
▁여태	-10.607
▁사람이라면	-10.6076
보고싶어요	-10.6076
▁부담	-10.6078
▁보았던	-10.608
▁평소	-10.6094
▁이뻐	-10.6102
▁넣어	-10.6103
▁그동안	-10.6104
▁서울	-10.6105
▁실감	-10.6113
맹	-10.6114
▁나오는데	-10.6115
판타지	-10.6116
▁사랑합니다	-10.6127
▁알았네	-10.6129
▁무난	-10.6151
쩐다	-10.6151
50	-10.6153
도좋고	-10.6156
었을까	-10.616
역할	-10.6173
처리	-10.6174
보고있어요	-10.6181
싶으면	-10.6182
윈	-10.6203
ed	-10.6208
▁빵빵	-10.6214
젼	-10.6215
▁Good	-10.6215
▁왤케	-10.6215
▁웰메이드	-10.6215
▁짐캐리	-10.6215
걷	-10.6215
썰	-10.6215
엣	-10.6215
옳	-10.6215
타란티노	-10.6215
▁어두운	-10.6215
▁양아치	-10.6215
▁민폐	-10.6219
▁극단적	-10.622
▁축구	-10.622
게만드는	-10.6222
▁재개봉	-10.6222
▁은근히	-10.6223
▁향수	-10.6225
답니다	-10.6225
▁요새	-10.6227
▁개똥	-10.623
▁일부	-10.6232
졌음	-10.6239
▁모아	-10.6244
▁괜찮았음	-10.6248
▁허술한	-10.6251
▁액션신	-10.6261
▁평화	-10.6274
▁알았음	-10.6275
▁그렇지만	-10.6278
▁사람들에게	-10.6279
셔야	-10.6287
아까워	-10.6287
별한개	-10.6288
▁반영	-10.6292
그나마	-10.6298
로맨스	-10.63
▁아니었다	-10.6305
▁진지한	-10.6308
▁허무한	-10.6311
예술	-10.6315
선택	-10.6315
같아요	-10.6317
ch	-10.632
만큼이나	-10.6327
각본	-10.6335
▁배경으로	-10.6344
안된다	-10.6362
▁아깝네	-10.6368
앉	-10.6381
있어요	-10.6385
장난치	-10.639
쉴	-10.6391
▁류승범	-10.6391
읍	-10.6391
▁러브라인	-10.6391
쉐	-10.6391
▁유덕화	-10.6391
뺏	-10.6391
movie	-10.6391
▁비행기	-10.6391
▁화나	-10.6391
▁데뷔	-10.6391
마누라	-10.6391
▁첩보	-10.6391
▁전반적으로	-10.6394
▁이도저도	-10.6395
볼까	-10.6401
▁재미있었습니다	-10.6409
▁마지막엔	-10.6409
70	-10.6412
▁망할	-10.6417
해놓고	-10.642
▁다행이다	-10.6421
▁기존	-10.6423
없구	-10.6425
▁첨부터	-10.6427
지루하고	-10.6427
시간동안	-10.6433
▁답답하다	-10.6449
였네요	-10.645
▁왜이러	-10.6465
▁유치해서	-10.6466
▁기대이하	-10.647
먹었	-10.6471
▁시작해서	-10.6472
댓글	-10.6484
저런	-10.6499
포드	-10.6503
▁밤에	-10.6506
나쁜	-10.6513
재미있다	-10.6514
▁만들어주	-10.6521
▁쩌는	-10.6522
▁사랑스럽다	-10.6524
!!!!!!!!!!!!	-10.6526
하지않고	-10.6537
여주인공	-10.6537
영화자체	-10.6564
▁살았	-10.6567
앵	-10.6567
뚝	-10.6569
욤	-10.6569
▁어설프다	-10.6569
▁흡입력	-10.6569
닭	-10.6569
홈	-10.6569
▁나레이션	-10.6569
▁역겨운	-10.6569
▁빨갱이	-10.6569
▁갠적으로	-10.6569
▁흑백	-10.6569
▁하이틴	-10.657
▁이런류의	-10.6572
펙트	-10.6572
▁풋풋한	-10.6573
▁역량	-10.6574
▁빛나는	-10.6574
▁왠만한	-10.6574
꺼면	-10.6575
▁생각해보게	-10.6575
▁이것보단	-10.6576
▁대사들	-10.6578
외엔	-10.6583
▁전체적인	-10.6583
▁등장인물들	-10.6584
아쉬워요	-10.6589
▁진지하게	-10.6593
▁한개도	-10.6597
▁탄탄하고	-10.6603
▁조연들	-10.6605
▁친구랑	-10.6607
▁볼만합니다	-10.6607
▁비슷하	-10.661
▁있었으면	-10.6612
▁첨이다	-10.6639
▁빠져서	-10.6641
돈으로	-10.6646
▁한번더	-10.6648
▁못보겠다	-10.6657
▁나와야	-10.666
였다면	-10.6665
쁜	-10.6668
핵	-10.667
왠	-10.667
시청률	-10.6671
he	-10.6673
으러	-10.6674
▁남성	-10.6675
->	-10.6682
에비해	-10.6682
있었는데	-10.6684
▁슬픈영화	-10.6702
보고나서	-10.6703
월드	-10.6708
▁막판	-10.6717
ost	-10.6719
▁벗어	-10.672
▁답답함	-10.6727
▁전문	-10.6745
첩	-10.675
렀	-10.6751
븐	-10.6751
▁언젠가	-10.6751
띠	-10.6751
ᅢ	-10.6751
▁오글오글	-10.6751
▁베드신	-10.6751
차승원	-10.6751
▁블랙코미디	-10.6753
▁분량	-10.6756
▁낫겠다	-10.6759
▁로빈	-10.6761
▁라스트	-10.6762
밖	-10.6762
▁창피	-10.6763
▁만들었을까	-10.6765
▁거지같은	-10.6766
▁극중	-10.677
am	-10.6776
▁괜찮아	-10.6784
꺼야	-10.6789
귀여웠	-10.6791
점만점에	-10.6796
▁멋지게	-10.6802
▁최소한	-10.6806
▁만났	-10.681
▁앞서	-10.6815
▁들어간	-10.6817
▁감동적이네요	-10.6829
▁한국판	-10.6838
▁책으로	-10.684
▁보겠다	-10.6856
몇번	-10.6859
▁벗어나	-10.6862
터짐	-10.6866
▁별로였다	-10.6875
▁소개	-10.6879
▁볼것	-10.6891
멜	-10.6898
▁잊혀	-10.6899
▁하나님	-10.6907
▁장진	-10.6913
픔	-10.6919
▁따뜻해	-10.6919
▁백인	-10.692
렐	-10.6936
▁재밌게봤어요	-10.6936
듦	-10.6936
뤄	-10.6936
릅	-10.6936
엮	-10.6936
쟈	-10.6936
스파이더맨	-10.6936
▁아쉬울	-10.6936
▁가까운	-10.6936
▁박보영	-10.6936
▁거부감	-10.6937
▁소름끼치는	-10.694
▁평균	-10.694
잇엇	-10.6942
▁은근	-10.6953
립니다	-10.6953
▁절망	-10.6953
▁드림	-10.6957
▁암울	-10.696
▁아만다	-10.6961
▁안본다	-10.6962
▁기괴	-10.6964
▁던져	-10.6965
실력	-10.697
버그	-10.6971
것같네요	-10.6983
광구	-10.6984
▁언제까지	-10.6986
▁나을듯	-10.6986
▁준비	-10.6992
▁실망스럽	-10.6993
▁돼지	-10.6998
▁생명	-10.7014
▁별하나	-10.7016
하더니	-10.7021
▁적당한	-10.7023
▁ᄒᄃᄃ	-10.704
▁지키	-10.7048
순위	-10.705
▁내돈	-10.7052
▁짜증나게	-10.7058
코메디	-10.7059
줄알았다	-10.7063
tv	-10.7065
경찰	-10.7076
거같아	-10.708
▁범죄자	-10.7084
ᅩ	-10.7124
☆	-10.7125
헉	-10.7125
덮	-10.7125
킴	-10.7125
▁못봐주겠	-10.7125
▁왕조현	-10.7125
▁박중훈	-10.7125
▁이병헌	-10.7125
쯧쯧	-10.7125
▁배급사	-10.7125
▁혐오	-10.7125
▁흥미로웠	-10.7125
▁감명깊게	-10.7126
▁니콜	-10.7126
▁향연	-10.7126
▁배꼽	-10.7128
▁개그맨	-10.7132
▁장애인	-10.7132
▁신선함	-10.7133
▁2000	-10.7134
▁마시길	-10.7136
▁앉아	-10.7136
▁같았다	-10.714
▁개콘	-10.7146
▁흘러가는	-10.7148
▁여친	-10.7149
▁미안하다	-10.7161
▁재미있었음	-10.7165
더군	-10.7165
역겹	-10.7168
▁단점	-10.7171
▁고독	-10.7173
▁재밌었던	-10.7176
것같아	-10.7178
감동받	-10.7179
▁아까워서	-10.7181
느냐	-10.7189
▁적절한	-10.7189
▁있으나	-10.7191
보신분들	-10.7192
▁살아야	-10.7195
▁되는데	-10.7205
비추	-10.7219
▁전반	-10.7222
억지스럽	-10.7222
▁방해	-10.7223
▁그리워	-10.723
▁당황	-10.7239
▁새벽	-10.7252
프로그램	-10.7259
애니메이션	-10.726
옛날	-10.726
거에요	-10.7263
▁연상	-10.7265
▁여신	-10.7265
초딩	-10.7265
▁싫어하는	-10.7265
룬	-10.7298
▁소장하고	-10.7306
▁여배우들	-10.7307
하나하나	-10.7313
현실적	-10.7314
▁둘째치고	-10.7317
넬	-10.7317
밉	-10.7317
튜	-10.7317
푼	-10.7317
맺	-10.7317
팩	-10.7317
▁깔끔한	-10.7317
어쨌든	-10.7317
▁드디어	-10.7317
▁무거운	-10.7318
▁엑소	-10.7318
▁케빈	-10.7318
▁보지마셈	-10.7318
▁무간도	-10.7319
▁엽기	-10.7319
▁그럴싸	-10.7319
▁그려낸	-10.7321
▁도둑	-10.7321
▁2012	-10.7321
▁승부	-10.7321
▁예측	-10.7322
▁돈아까워	-10.7322
▁그림체	-10.7327
▁엄청나게	-10.7328
▁따름	-10.733
▁상징	-10.7333
▁고딩	-10.734
▁영원	-10.7345
▁한순간	-10.7349
▁재미있었는데	-10.736
▁순수하고	-10.7374
몰라	-10.7393
▁어이없음	-10.7394
▁드네요	-10.7417
▁끝나서	-10.7426
까봐	-10.7432
▁선사	-10.7439
▁보고나니	-10.7447
▁기대하지	-10.7448
영활	-10.7455
▁장난아니	-10.7461
▁몰아	-10.7464
네이버	-10.7468
완벽	-10.7468
결혼	-10.747
되길	-10.7471
▁충분한	-10.7471
할뻔	-10.7478
▁기적	-10.7494
뜬금	-10.7497
▁재미없네요	-10.7504
그런데	-10.7506
▁비쥬얼	-10.7513
▁살렸다	-10.7513
▁인상깊었	-10.7513
렛	-10.7513
셧	-10.7513
츄	-10.7513
캠	-10.7513
▁화장실	-10.7513
▁객관적	-10.7513
▁비호감	-10.7513
▁총체적	-10.7514
▁짜릿	-10.7516
▁돋보였	-10.7517
▁역겹다	-10.7517
▁풀어낸	-10.7518
클라라	-10.7519
▁억지스럽고	-10.752
▁오로지	-10.752
▁직업	-10.7521
자꾸	-10.7522
▁동영상	-10.7522
▁좋으나	-10.7523
▁혼란	-10.7524
▁가능성	-10.7527
▁꼭보세요	-10.7531
▁부활	-10.7532
합시다	-10.7533
id	-10.7538
▁말하려는	-10.7539
▁귀여워요	-10.754
▁다운받아서	-10.7541
었구나	-10.7542
잭슨	-10.7544
▁최후	-10.7553
▁독특하고	-10.7562
▁재방	-10.7563
▁영원한	-10.7564
▁완벽하다	-10.7569
▁분장	-10.7575
▁가짜	-10.7577
▁인류	-10.7582
▁나열	-10.7584
▁미녀	-10.7585
시킬	-10.7587
▁당장	-10.7592
▁부족함	-10.7593
▁빠졌	-10.7602
하겠습니다	-10.7611
▁또보고싶	-10.7613
해줘서	-10.7622
▁두시간	-10.764
ic	-10.7653
누구	-10.7669
킬링타임	-10.7671
멀	-10.7671
외에는	-10.7686
야말로	-10.7698
영상미	-10.7704
뎀	-10.7713
▁EBS	-10.7713
▁디카프리오	-10.7713
▁엔딩크레딧	-10.7713
버렸네	-10.7713
즉	-10.7713
퉤	-10.7713
▁아마추어	-10.7713
▁임창정	-10.7713
밧	-10.7713
얄	-10.7713
▁여러모로	-10.7713
▁강동원	-10.7713
▁김수현	-10.7713
▁워낙	-10.7713
▁닥치고	-10.7714
▁킬러	-10.7715
▁라이언	-10.7718
▁소름돋는	-10.772
▁픽사	-10.7722
▁시험	-10.7726
줄거리	-10.7726
▁좋겠습니다	-10.7727
▁에효	-10.7728
▁애잔	-10.773
▁모욕	-10.7732
▁있긴	-10.7733
▁늙어	-10.7735
▁흥분	-10.7739
멋잇	-10.7746
▁군인	-10.7748
▁보고있는데	-10.7749
▁아니잖아	-10.7752
▁가족애	-10.7753
▁학생들	-10.7761
▁연기잘하	-10.7763
▁다시보기	-10.7763
▁부산	-10.7773
▁위트	-10.7784
▁이거보단	-10.779
▁공유	-10.7806
▁잔인함	-10.782
▁천사	-10.784
찡	-10.7847
▁알게되	-10.7855
쩝	-10.7883
농	-10.7883
덕분에	-10.7884
긴했지만	-10.789
돌려	-10.7891
나왔으면	-10.7893
폭력	-10.7898
▁미국식	-10.79
밋	-10.7911
소름끼치	-10.7914
뜬	-10.7915
허무	-10.7916
쿡	-10.7917
꽁	-10.7917
▁놀랐다	-10.7917
▁시종일관	-10.7917
둠	-10.7917
맷	-10.7917
솜	-10.7917
▁말그대로	-10.7917
▁미스터리	-10.7918
▁한효주	-10.7918
▁일주일	-10.7918
▁온갖	-10.7919
멋진	-10.7919
com	-10.7919
▁에라이	-10.7922
▁민족	-10.7922
▁개봉당시	-10.7923
▁감동적이에요	-10.7924
▁케미	-10.7924
▁돌아보게	-10.7925
▁묘한	-10.7928
▁세계관	-10.7934
분짜리	-10.794
▁모자라	-10.7944
▁대학	-10.7951
였구나	-10.7953
▁충격적인	-10.7958
▁매번	-10.7961
▁작화	-10.7962
▁아이유	-10.7975
▁역사상	-10.7981
▁믿음	-10.7997
▁불쌍하	-10.8002
국민	-10.8006
▁스릴러물	-10.8009
▁말투	-10.8013
투성이	-10.8016
▁모르겠네	-10.8018
▁고문	-10.8019
ne	-10.8029
▁뻔뻔	-10.8072
▁팬들	-10.8077
행위	-10.8084
지않게	-10.809
▁흉내	-10.809
▁인상적인	-10.81
개연성	-10.8102
얼마나	-10.8102
촬영	-10.8104
▁않았던	-10.8106
▁욕먹	-10.8116
보지마세요	-10.8118
둑	-10.8122
감명깊	-10.8124
▁스타워즈	-10.8126
▁점수준것들	-10.8126
。	-10.8126
덧	-10.8126
쏴	-10.8126
퀸	-10.8126
▁미스캐스팅	-10.8126
▁신하균	-10.8126
▁아름다워	-10.8126
랏	-10.8126
▁납득	-10.8126
▁도데체	-10.8126
▁칭찬	-10.8126
▁ᄌᄂ	-10.8126
▁애초에	-10.8126
▁입장에서	-10.8126
▁극혐	-10.8127
▁레옹	-10.8129
▁4.44	-10.8129
▁방황	-10.8131
▁방향	-10.8134
▁나타나	-10.8134
▁멋짐	-10.8135
▁중학생	-10.8141
▁개꿀잼	-10.8142
▁말씀	-10.8145
▁어쩌다	-10.8145
지않을	-10.8148
▁조낸	-10.8154
▁울었어요	-10.8161
us	-10.8161
▁감명	-10.8164
▁아이들에게	-10.8166
▁싶습니다	-10.817
▁산만하고	-10.8179
▁보게되는	-10.819
것인지	-10.8196
▁말밖에	-10.8212
▁나왔던	-10.8216
▁역작	-10.8231
ay	-10.8248
▁두명	-10.8254
봣어요	-10.8258
▁멋져	-10.8275
카메라	-10.8324
▁옆에	-10.8328
쎄	-10.8337
▁뒤죽박죽	-10.8339
▁흘렸	-10.8339
됫	-10.8339
렴	-10.8339
뻑	-10.8339
▁어정쩡	-10.8339
곁	-10.8339
혔	-10.8339
카메론	-10.8339
▁감성팔이	-10.8339
▁펼쳐	-10.8339
▁기발한	-10.8339
졌으면	-10.834
▁쓸쓸	-10.834
흑흑	-10.834
▁자연스럽게	-10.834
▁쉬운	-10.8341
▁로맨틱코미디	-10.8341
▁전성기	-10.8341
▁사회적	-10.8342
▁난해한	-10.8342
성유리	-10.8344
▁오래전에	-10.8345
▁않으	-10.8346
▁파격적	-10.8346
▁내취향	-10.8349
남긴다	-10.8349
▁재앙	-10.8351
▁충분하다	-10.8357
웃긴	-10.8357
▁보여줄	-10.8358
▁장난하나	-10.8363
▁한심하다	-10.8369
▁비록	-10.8379
▁커서	-10.8388
▁모방	-10.84
졌어요	-10.8402
아닌가요	-10.8408
▁외국인	-10.8408
▁일반인	-10.8409
작가님	-10.8442
▁좋아하지만	-10.8451
해야하나	-10.8503
하려면	-10.8537
옷	-10.855
갑자기	-10.8552
ter	-10.8553
혐	-10.8554
▁킬링	-10.8555
캡	-10.8556
▁bad	-10.8556
▁런닝타임	-10.8556
왈	-10.8556
▁세련된	-10.8556
▁유치찬란	-10.8556
렘	-10.8556
▁바탕으로	-10.8556
▁마찬가지	-10.8556
▁클래식	-10.8556
▁나루토	-10.8556
▁머릿속	-10.8556
▁가슴아프	-10.8556
▁상업영화	-10.8556
▁봐줄만	-10.8556
▁no	-10.8557
▁귀찮	-10.8557
▁스파이	-10.8558
▁무의미	-10.8559
▁짜증났	-10.856
▁말이필요없다	-10.856
병맛	-10.8561
▁억지스런	-10.8563
철학	-10.8565
페이스	-10.8566
▁잔잔함	-10.8567
넘치는	-10.8569
▁게스트	-10.8574
▁태국	-10.858
▁속았다	-10.858
줄알고	-10.8585
▁거짓	-10.8586
노출	-10.8588
▁재밌었습니다	-10.8589
▁빠질	-10.8591
더라고요	-10.8593
▁있겠지만	-10.8593
끝내	-10.8595
학년때	-10.8598
▁보고싶은데	-10.8603
▁웃었다	-10.8607
▁안나온다	-10.8608
▁안나옴	-10.861
▁채워	-10.8611
▁웃겨서	-10.8614
▁십점	-10.8615
▁모든것이	-10.8617
▁말았다	-10.8619
▁망쳐놓	-10.864
▁살아남	-10.8669
보지마	-10.874
▁배우분들	-10.8744
▁독립	-10.8746
냄	-10.8777
랍니다	-10.8778
아카데미	-10.8778
ᄐ	-10.8778
▁안타까움	-10.8778
▁오그라들	-10.8778
▁크레딧	-10.8778
뚫	-10.8778
뼈	-10.8778
잣	-10.8778
톡	-10.8778
▁짬뽕	-10.8778
▁아기자기	-10.8778
▁떡밥	-10.8778
▁섬뜩	-10.8778
▁스타뎀	-10.8779
▁수면제	-10.8779
▁캐릭	-10.8779
▁바란다	-10.8779
드려요	-10.8779
▁혁명	-10.8779
▁상큼	-10.8781
><	-10.8781
▁호흡	-10.8782
▁자연스러운	-10.8784
그래픽	-10.8785
볼때마다	-10.8796
바른	-10.8802
▁괜찮았던	-10.8806
▁감정선	-10.8817
엉성	-10.8821
평생	-10.8822
좋아하는데	-10.8823
▁소통	-10.8823
▁한동안	-10.8834
보지마라	-10.8839
만들엇	-10.8874
▁재수없	-10.8909
▁완성	-10.892
▁좋더라	-10.8941
▁시청자들	-10.8951
뗄	-10.8996
뜸	-10.9005
▁호불호가	-10.9005
좆	-10.9005
▁오그라드는	-10.9005
▁즐거움	-10.9005
믄	-10.9005
숲	-10.9005
얀	-10.9005
조기종영	-10.9005
짙	-10.9005
턱	-10.9005
****	-10.9005
넷	-10.9005
▁평점조절	-10.9005
▁피아노	-10.9006
점준것중	-10.9006
▁엠마	-10.9006
▁찬양	-10.9006
▁다니엘	-10.9006
▁김혜수	-10.9007
vs	-10.9011
밴드	-10.9013
▁반지의	-10.9015
▁웃으며	-10.9016
▁시골	-10.902
깐	-10.902
잘봤습니다	-10.9022
나봐요	-10.9024
▁경악	-10.9027
암튼	-10.9027
▁복선	-10.9031
▁처음본다	-10.9032
▁로망	-10.9034
▁느껴질	-10.9036
▁귀여워서	-10.9037
▁의미있는	-10.9044
▁채우	-10.9046
삼류	-10.9046
▁알바생	-10.9049
성룡	-10.9053
▁기대된다	-10.9054
▁극본	-10.9055
댓	-10.9236
킥	-10.9238
팝	-10.9238
쩡	-10.9238
쭈	-10.9238
룸	-10.9238
쇄	-10.9238
쇠	-10.9238
팽	-10.9238
늬	-10.9238
훔	-10.9238
봇	-10.9474
칫	-10.9476
핫	-10.9476
템	-10.9476
녁	-10.9476
썩	-10.9515
륵	-10.972
삘	-10.972
쫌	-10.9772
큼	-10.988
즌	-10.9953
풋	-10.997
훌	-10.997
넓	-10.997
ᄊ	-10.997
꾹	-10.997
떳	-10.997
꽝	-11.0034
졋	-11.0226
줫	-11.0226
Y	-11.0226
잭	-11.0304
섯	-11.047
믹	-11.0486
긍	-11.049
묶	-11.049
썬	-11.049
헝	-11.049
뿔	-11.0751
겄	-11.076
뎁	-11.076
웰	-11.076
훗	-11.076
낙	-11.0867
펼	-11.1037
띵	-11.1037
둡	-11.1038
쉣	-11.1038
갇	-11.1038
뚜	-11.1038
릉	-11.1038
궈	-11.1038
럿	-11.1038
탠	-11.1038
펴	-11.1038
끓	-11.1038
밨	-11.1038
흉	-11.1323
끗	-11.1323
뎌	-11.1323
딕	-11.1323
뉘	-11.1323
벙	-11.1323
펀	-11.1323
펠	-11.1323
겸	-11.1617
↓	-11.1617
꺄	-11.1617
쏙	-11.1617
켈	-11.1617
꿔	-11.1917
랙	-11.1919
줍	-11.1919
뜩	-11.192
쯧	-11.192
셜	-11.192
깡	-11.192
옵	-11.192
탭	-11.192
툰	-11.192
둬	-11.192
빤	-11.192
콕	-11.192
앜	-11.192
헨	-11.2233
꽥	-11.2233
뱅	-11.2233
윽	-11.2233
핳	-11.2233
긔	-11.2233
꼇	-11.2233
욬	-11.2233
웩	-11.2233
웬	-11.2431
쩐	-11.2485
낌	-11.2552
맙	-11.2555
잎	-11.2555
넼	-11.2556
댐	-11.2556
뱉	-11.2556
쌀	-11.2556
텀	-11.2556
핏	-11.2556
ᅦ	-11.2556
깎	-11.2778
꿨	-11.2889
人	-11.2889
뒀	-11.2889
쌈	-11.2889
쉰	-11.2889
톨	-11.2889
팡	-11.2889
q	-11.2889
률	-11.3233
#	-11.3234
냅	-11.3234
듀	-11.3234
댈	-11.3234
됌	-11.3234
짬	-11.3234
췄	-11.3234
칩	-11.3234
횽	-11.3234
륙	-11.3234
넌	-11.3505
끊	-11.3507
꽤	-11.3507
죤	-11.3591
댕	-11.3591
샀	-11.3591
샹	-11.3591
솟	-11.3591
숫	-11.3591
밴	-11.3948
쵝	-11.3961
○	-11.3961
훼	-11.3961
ᄑ	-11.3961
뺀	-11.3961
샷	-11.3961
슐	-11.3961
엌	-11.3961
쫙	-11.3961
Z	-11.3961
쬐	-11.3961
킷	-11.3961
햄	-11.3961
낳	-11.4291
뽑	-11.4291
펐	-11.4345
뻘	-11.4346
쏠	-11.4346
흙	-11.4346
뇨	-11.4346
됴	-11.4346
뺨	-11.4346
샌	-11.4346
샬	-11.4346
젓	-11.4346
췌	-11.4346
캅	-11.4346
쌩	-11.4346
쿄	-11.4346
탔	-11.4346
짠	-11.4708
뀌	-11.4742
흰	-11.4746
갸	-11.4746
꿋	-11.4746
롬	-11.4746
쌔	-11.4746
썽	-11.4746
쪄	-11.4746
멕	-11.4746
욧	-11.4746
깁	-11.5161
욜	-11.5162
짖	-11.5162
돕	-11.5162
밭	-11.5162
쑤	-11.5162
씌	-11.5162
쨩	-11.5162
꽂	-11.5162
넨	-11.5162
씽	-11.5162
엎	-11.5162
륭	-11.5597
쨌	-11.5597
붓	-11.5597
괘	-11.5597
얹	-11.5597
좁	-11.5597
힛	-11.5597
덥	-11.5597
펄	-11.5597
뭥	-11.6051
퍽	-11.6052
훅	-11.6052
·	-11.6052
셰	-11.6052
얕	-11.6052
햐	-11.6052
횡	-11.6052
댔	-11.6052
밝	-11.6073
펙	-11.652
걱	-11.6527
\	-11.6528
ᅭ	-11.6528
낱	-11.6528
됀	-11.6528
뛴	-11.6528
얌	-11.6528
쟝	-11.6528
핍	-11.6528
뜰	-11.6528
쌤	-11.6528
앳	-11.6528
촉	-11.6528
쵸	-11.6528
깬	-11.6528
밌	-11.7022
|	-11.7028
첼	-11.7028
윙	-11.7028
뎈	-11.7028
밸	-11.7028
늠	-11.7028
뤽	-11.7028
웁	-11.7028
윗	-11.7028
융	-11.7028
’	-11.7028
붐	-11.7028
쑈	-11.7028
퀼	-11.7028
ᆞ	-11.7028
엥	-11.7028
ᅧ	-11.7028
푹	-11.7099
뷔	-11.7553
캔	-11.7554
갤	-11.7554
‘	-11.7554
“	-11.7554
깽	-11.7554
꿉	-11.7554
낰	-11.7554
놉	-11.7554
슌	-11.7554
썅	-11.7554
텍	-11.7554
홉	-11.7554
휼	-11.7554
팜	-11.7554
겜	-11.7554
몹	-11.7554
맡	-11.7641
떤	-11.8077
늑	-11.8109
찜	-11.811
얔	-11.811
웹	-11.811
굼	-11.811
꾀	-11.811
쁠	-11.811
짚	-11.811
짭	-11.811
곸	-11.811
뚤	-11.811
빔	-11.811
촬	-11.8692
→	-11.8698
꺅	-11.8698
싯	-11.8698
Q	-11.8698
乃	-11.8698
甲	-11.8698
빽	-11.8698
욘	-11.8698
웡	-11.8698
읎	-11.8698
쟤	-11.8698
젬	-11.8698
캣	-11.8698
쿤	-11.8698
퉷	-11.8698
꺽	-11.8698
뇬	-11.8698
땟	-11.8698
숴	-11.8698
댜	-11.8698
훨	-11.8866
돠	-11.9323
귄	-11.9323
쉘	-11.9323
”	-11.9323
걔	-11.9323
댁	-11.9323
뺐	-11.9323
좃	-11.9323
핰	-11.9323
♬	-11.9323
뵈	-11.9323
쾅	-11.9323
곧	-11.9534
힙	-11.999
갚	-11.999
無	-11.999
겅	-11.999
룻	-11.999
뭍	-11.999
챔	-11.999
칵	-11.999
퀘	-11.999
훤	-11.999
뤠	-11.999
꿰	-11.999
옛	-12.0245
헷	-12.0704
됏	-12.0704
넥	-12.0704
첸	-12.0704
겔	-12.0704
떴	-12.0704
맬	-12.0704
얍	-12.0704
킁	-12.0704
텨	-12.0704
굽	-12.0704
끽	-12.0704
넉	-12.0704
뮬	-12.0704
뺑	-12.0704
뿅	-12.0704
、	-12.0704
쨔	-12.0704
욯	-12.0704
겉	-12.1018
헛	-12.1019
꼐	-12.1473
샵	-12.1473
ᅣ	-12.1473
꼼	-12.1473
믓	-12.1473
섰	-12.1473
젝	-12.1473
죵	-12.1473
찼	-12.1473
툴	-12.1473
퐁	-12.1473
풉	-12.1473
껌	-12.1473
뷁	-12.1473
잌	-12.1473
휙	-12.1473
섀	-12.1473
슥	-12.1473
뒷	-12.1852
땜	-12.2225
깼	-12.2307
굶	-12.2307
넝	-12.2307
눅	-12.2307
헿	-12.2307
흣	-12.2307
』	-12.2307
냔	-12.2307
륨	-12.2307
뻗	-12.2307
쏜	-12.2307
왁	-12.2307
졷	-12.2307
쳇	-12.2307
힝	-12.2307
뿍	-12.2307
캄	-12.2307
}	-12.3216
{	-12.3216
끙	-12.3216
밓	-12.3216
뒈	-12.3216
벡	-12.3216
줏	-12.3216
『	-12.3216
욥	-12.3216
잰	-12.3216
쪙	-12.3216
춥	-12.3216
곀	-12.3216
괄	-12.3216
넛	-12.3216
넴	-12.3216
뎃	-12.3216
돔	-12.3216
뒹	-12.3216
쒸	-12.3216
컥	-12.4213
봅	-12.4213
$	-12.4216
눔	-12.4216
혓	-12.4216
컵	-12.4216
깟	-12.4216
앰	-12.4216
쫘	-12.4216
햅	-12.4216
死	-12.4216
렜	-12.4216
벳	-12.4216
뿡	-12.4216
쒯	-12.4216
짰	-12.4216
펭	-12.4216
갯	-12.4216
궤	-12.4216
꺠	-12.4216
랖	-12.4216
볶	-12.4216
쑥	-12.4216
닛	-12.5327
잦	-12.5327
읭	-12.5327
ᄈ	-12.5327
女	-12.5327
괸	-12.5327
딛	-12.5327
쎈	-12.5327
쏭	-12.5327
챈	-12.5327
뺄	-12.5327
컹	-12.5327
헠	-12.5327
멱	-12.5327
팰	-12.5327
킵	-12.6574
갘	-12.6577
떙	-12.6577
딥	-12.6577
웜	-12.6577
쨰	-12.6577
퀵	-12.6577
꽈	-12.6577
뽐	-12.6577
숏	-12.6577
앱	-12.6577
쥰	-12.6577
♪	-12.6577
떵	-12.6577
팟	-12.6577
팥	-12.6577
》	-12.8004
쮸	-12.8005
촤	-12.8005
콰	-12.8005
녜	-12.8005
랔	-12.8005
밈	-12.8005
븅	-12.8005
옇	-12.8005
찟	-12.8005
캘	-12.8005
ᆪ	-12.8005
랠	-12.8005
룽	-12.8005
뭄	-12.8005
벵	-12.8005
빰	-12.8005
슛	-12.8005
읏	-12.8005
쭝	-12.8005
챠	-12.8005
쳣	-12.8005
큭	-12.8005
팁	-12.8005
×	-12.8005
낑	-12.8005
뙇	-12.8005
띨	-12.8005
렙	-12.8005
졉	-12.8005
쥴	-12.8005
챦	-12.8005
쿼	-12.8005
뮈	-12.8005
꿧	-12.8005
■	-12.9671
ン	-12.9672
냠	-12.9672
웍	-12.9672
숩	-12.9672
끅	-12.9672
됄	-12.9672
쓱	-12.9672
옄	-12.9672
쨉	-12.9672
핼	-12.9672
헹	-12.9672
作	-12.9672
귯	-12.9672
깸	-12.9672
냇	-12.9672
믈	-12.9672
뽁	-12.9672
슝	-12.9672
쎼	-12.9672
옼	-12.9672
젯	-12.9672
쨍	-12.9672
찹	-12.9672
찿	-12.9672
츰	-12.9672
캉	-12.9672
쿰	-12.9672
폈	-12.9672
헀	-12.9672
홬	-12.9672
뽜	-12.9672
삿	-12.9672
쌌	-12.9672
쌕	-12.9672
먀	-12.9672
앟	-12.9672
뇽	-12.9672
※	-13.1671
굉	-13.1672
い	-13.1672
☞	-13.1672
⊙	-13.1672
곘	-13.1672
샨	-13.1672
갬	-13.1672
깄	-13.1672
롸	-13.1672
뱌	-13.1672
쟎	-13.1672
갰	-13.1672
맄	-13.1672
맵	-13.1672
짦	-13.1672
盧	-13.1672
高	-13.1672
깰	-13.1672
꿎	-13.1672
넙	-13.1672
띤	-13.1672
뤼	-13.1672
셍	-13.1672
셩	-13.1672
옌	-13.1672
쭐	-13.1672
첬	-13.1672
튈	-13.1672
펫	-13.1672
ᄄ	-13.1672
美	-13.1672
멩	-13.1672
뽄	-13.1672
캇	-13.1672
켁	-13.1672
ᅪ	-13.1672
몃	-13.1672
쳥	-13.1672
텝	-13.4124
슷	-13.416
《	-13.4172
쥘	-13.4172
で	-13.4172
山	-13.4172
▷	-13.4172
↗	-13.4172
的	-13.4172
好	-13.4172
욷	-13.4172
有	-13.4172
컄	-13.4172
눼	-13.4172
뎐	-13.4172
뎠	-13.4172
얇	-13.4172
▽	-13.4172
か	-13.4172
中	-13.4172
겡	-13.4172
꿍	-13.4172
뀨	-13.4172
끕	-13.4172
녓	-13.4172
땃	-13.4172
뗀	-13.4172
몀	-13.4172
뻬	-13.4172
슭	-13.4172
쓔	-13.4172
앎	-13.4172
옿	-13.4172
졍	-13.4172
짯	-13.4172
찻	-13.4172
챌	-13.4172
칰	-13.4172
탬	-13.4172
▼	-13.4172
갉	-13.4172
깠	-13.4172
맟	-13.4172
밎	-13.4172
뵜	-13.4172
쌘	-13.4172
잏	-13.4172
좐	-13.4172
쯩	-13.4172
훙	-13.4172
깅	-13.4172
둣	-13.4172
듸	-13.4172
言	-13.4172
읔	-13.4172
も	-13.4172
日	-13.4172
멌	-13.4172
쫭	-13.4172
헣	-13.4172
し	-13.4172
●	-13.7505
す	-13.7505
き	-13.7505
た	-13.7505
☜	-13.7505
겧	-13.7505
뀰	-13.7505
엡	-13.7505
늣	-13.7505
먄	-13.7505
얏	-13.7505
쬬	-13.7505
윔	-13.7505
딤	-13.7505
땄	-13.7505
땍	-13.7505
볕	-13.7505
봈	-13.7505
셤	-13.7505
숍	-13.7505
숑	-13.7505
쎔	-13.7505
­	-13.7505
ᅯ	-13.7505
ᆭ	-13.7505
↑	-13.7505
▶	-13.7505
」	-13.7505
っ	-13.7505
づ	-13.7505
男	-13.7505
要	-13.7505
귝	-13.7505
귿	-13.7505
깻	-13.7505
꼰	-13.7505
끆	-13.7505
넢	-13.7505
뉨	-13.7505
뎄	-13.7505
땨	-13.7505
떈	-13.7505
릐	-13.7505
몄	-13.7505
뮌	-13.7505
붸	-13.7505
빢	-13.7505
뽈	-13.7505
쉅	-13.7505
쉡	-13.7505
슉	-13.7505
쎅	-13.7505
쎠	-13.7505
쏫	-13.7505
얜	-13.7505
엨	-13.7505
쟘	-13.7505
졈	-13.7505
좡	-13.7505
줠	-13.7505
탉	-13.7505
팸	-13.7505
팻	-13.7505
폿	-13.7505
핛	-13.7505
흨	-13.7505
웤	-13.7505
긱	-13.7505
돗	-13.7505
읃	-13.7505
젋	-13.7505
밷	-13.7505
─	-13.7505
━	-13.7505
善	-13.7505
뼛	-13.7505
샥	-13.7505
읅	-13.7505
힣	-13.7505
귱	-13.7505
곪	-13.7505
겋	-13.7505
뵛	-13.7505
◆	-14.2504
¡	-14.2505
¿	-14.2505
ム	-14.2505
ス	-14.2505
と	-14.2505
な	-14.2505
小	-14.2505
컾	-14.2505
햤	-14.2505
홱	-14.2505
돱	-14.2505
候	-14.2505
솢	-14.2505
§	-14.2505
品	-14.2505
늡	-14.2505
맜	-14.2505
싖	-14.2505
惡	-14.2505
겝	-14.2505
낲	-14.2505
늉	-14.2505
닏	-14.2505
둿	-14.2505
뜀	-14.2505
봬	-14.2505
삤	-14.2505
윰	-14.2505
췃	-14.2505
딍	-14.2505
쯥	-14.2505
÷	-14.2505
π	-14.2505
ᅇ	-14.2505
ᅠ	-14.2505
ᅴ	-14.2505
ᆰ	-14.2505
∇	-14.2505
「	-14.2505
だ	-14.2505
よ	-14.2505
一	-14.2505
凸	-14.2505
年	-14.2505
愛	-14.2505
流	-14.2505
濡	-14.2505
生	-14.2505
用	-14.2505
糞	-14.2505
者	-14.2505
色	-14.2505
錢	-14.2505
韓	-14.2505
갗	-14.2505
곻	-14.2505
궅	-14.2505
긛	-14.2505
깤	-14.2505
끾	-14.2505
냑	-14.2505
넒	-14.2505
놕	-14.2505
눙	-14.2505
댇	-14.2505
덛	-14.2505
뎋	-14.2505
땋	-14.2505
뗴	-14.2505
똠	-14.2505
뚯	-14.2505
뜽	-14.2505
륄	-14.2505
뫄	-14.2505
뱔	-14.2505
븍	-14.2505
뼉	-14.2505
삔	-14.2505
샠	-14.2505
셴	-14.2505
솧	-14.2505
솨	-14.2505
싀	-14.2505
싄	-14.2505
썜	-14.2505
쓉	-14.2505
욌	-14.2505
웄	-14.2505
좉	-14.2505
좍	-14.2505
죻	-14.2505
줮	-14.2505
쥼	-14.2505
쩨	-14.2505
쪘	-14.2505
쭁	-14.2505
챗	-14.2505
첵	-14.2505
쳔	-14.2505
킌	-14.2505
퇘	-14.2505
펩	-14.2505
퓽	-14.2505
핟	-14.2505
횐	-14.2505
뚬	-14.2505
봑	-14.2505
봵	-14.2505
쾡	-14.2505
←	-14.2505
感	-14.2505
뭬	-14.2505
믜	-14.2505
싑	-14.2505
젹	-14.2505
쪈	-14.2505
찎	-14.2505
츼	-14.2505
퐉	-14.2505
핶	-14.2505
♩	-14.2505
道	-14.2505
섳	-14.2505
앚	-14.2505
켐	-14.2505
콬	-14.2505
튿	-14.2505
反	-14.2505
뜷	-14.2505
の	-14.2506
低	-14.2506
喜	-14.2506
映	-14.2506
面	-14.2506
봊	-14.2506
졓	-14.2506
탯	-14.2506
헑	-14.2506
れ	-14.2506
ら	-14.2506
흝	-15.2171
펌	-15.2172
튕	-15.2173
캍	-15.2174
췟	-15.2175
쵼	-15.2176
촣	-15.2177
촏	-15.2178
쭌	-15.2179
쫏	-15.218
쪾	-15.2181
죷	-15.2182
좊	-15.2183
잗	-15.2184
읺	-15.2185
윀	-15.2186
왹	-15.2187
옭	-15.2188
엏	-15.2189
쐈	-15.219
쎌	-15.2191
쎀	-15.2192
싰	-15.2193
싣	-15.2194
숱	-15.2195
숯	-15.2196
솝	-15.2197
솓	-15.2198
샜	-15.2199
쀍	-15.22
뾰	-15.2201
뽱	-15.2202
뽠	-15.2203
뼜	-15.2204
뼘	-15.2205
븨	-15.2206
븡	-15.2207
뷸	-15.2208
뷃	-15.2209
붇	-15.221
봭	-15.2211
봫	-15.2212
벋	-15.2213
밣	-15.2214
믺	-15.2215
묠	-15.2216
멓	-15.2217
멉	-15.2218
맗	-15.2219
맏	-15.222
럤	-15.2221
띌	-15.2222
똭	-15.2223
떌	-15.2224
됭	-15.2225
돜	-15.2226
뎡	-15.2227
덯	-15.2228
댑	-15.2229
넿	-15.223
껜	-15.2231
깥	-15.2232
귘	-15.2233
귈	-15.2234
곗	-15.2235
겤	-15.2236
걘	-15.2237
舒	-15.2238
淇	-15.2239
急	-15.224
ろ	-15.2241
ぽ	-15.2242
≥	-15.2243
≤	-15.2244
∼	-15.2245
∀	-15.2246
ᆱ	-15.2247
̈	-15.2248
́	-15.2249
흫	-15.225
홋	-15.2251
퐌	-15.2252
팼	-15.2253
튄	-15.2254
텃	-15.2255
킄	-15.2256
켯	-15.2257
켬	-15.2258
챕	-15.2259
쯪	-15.226
쫗	-15.2261
쩖	-15.2262
짢	-15.2263
죗	-15.2264
잿	-15.2265
씰	-15.2266
씐	-15.2267
솤	-15.2268
섴	-15.2269
섥	-15.227
섣	-15.2271
삻	-15.2272
빂	-15.2273
븜	-15.2274
뵐	-15.2275
뱁	-15.2276
맻	-15.2277
맣	-15.2278
맠	-15.2279
띈	-15.228
똔	-15.2281
떫	-15.2282
딫	-15.2283
덫	-15.2284
뉠	-15.2285
놬	-15.2286
냌	-15.2287
꽹	-15.2288
껒	-15.2289
깉	-15.229
갭	-15.2291
必	-15.2292
핱	-15.2293
퐈	-15.2294
콸	-15.2295
캥	-15.2296
칀	-15.2297
췬	-15.2298
쭘	-15.2299
짴	-15.23
줸	-15.2301
잽	-15.2302
옐	-15.2303
얙	-15.2304
얗	-15.2305
앴	-15.2306
쒜	-15.2307
뫼	-15.2308
뗼	-15.2309
떔	-15.231
늪	-15.2311
궐	-15.2312
곶	-15.2313
갛	-15.2314
非	-15.2315
最	-15.2316
̄	-15.2317
헸	-15.2318
퐝	-15.2319
쩃	-15.232
젛	-15.2321
웽	-15.2322
쏩	-15.2323
쉿	-15.2324
쉼	-15.2325
빳	-15.2326
랰	-15.2327
녈	-15.2328
겈	-15.2329
텼	-15.233
츈	-15.2331
짘	-15.2332
좇	-15.2333
읊	-15.2334
욀	-15.2335
엾	-15.2336
삥	-15.2337
몆	-15.2338
떽	-15.2339
훠	-15.234
헥	-15.2341
챘	-15.2342
쫀	-15.2343
죨	-15.2344
왘	-15.2345
옅	-15.2346
엊	-15.2347
덟	-15.2348
꿇	-15.2349
껑	-15.235
궂	-15.2351
⌒	-15.2352
햏	-15.2353
햌	-15.2354
촐	-15.2355
챤	-15.2356
씸	-15.2357
숟	-15.2358
빴	-15.2359
벚	-15.236
롹	-15.2361
랗	-15.2362
뛸	-15.2363
냨	-15.2364
괭	-15.2365
故	-15.2366
흩	-15.2367
헵	-15.2368
툼	-15.2369
촛	-15.237
짊	-15.2371
썪	-15.2372
쌉	-15.2373
닠	-15.2374
헴	-15.2375
츤	-15.2376
땔	-15.2377
뉜	-15.2378
눕	-15.2379
낍	-15.238
괞	-15.2381
훑	-15.2382
횟	-15.2383
콱	-15.2384
쥑	-15.2385
잴	-15.2386
윅	-15.2387
옜	-15.2388
앍	-15.2389
썹	-15.239
놧	-15.2391
뀜	-15.2392
휠	-15.2393
홥	-15.2394
쫑	-15.2395
좔	-15.2396
폄	-15.2397
큽	-15.2398
샛	-15.2399
덱	-15.24
뀔	-15.2401
핥	-15.2402
샐	-15.2403
쁩	-15.2404
멧	-15.2405
꺾	-15.2406
휩	-15.2407
촘	-15.2408
샴	-15.2409
뺴	-15.241
큘	-15.2411
콥	-15.2412
멎	-15.2413
핡	-15.2414
펏	-15.2415
뵙	-15.2416
딪	-15.2417
낡	-15.2418
긁	-15.2419
씻	-15.242
뱃	-15.2421
릎	-15.2422
뤘	-15.2423
굵	-15.2424
녔	-15.2425
쥔	-15.2426
닳	-15.2427
퀀	-15.2428
셸	-15.2429
켠	-15.243
왼	-15.2431
딨	-15.2432
귓	-15.2433
닦	-15.2434
픕	-15.2435
눠	-15.2436
쫒	-15.2437
빚	-15.2438
넋	-15.2439
탤	-15.244
얽	-15.2441
룹	-15.2442
뀐	-15.2443
쨋	-15.2444
앓	-15.2445
껍	-15.2446
썻	-15.2447
뭡	-15.2448
뜯	-15.2449
꽉	-15.245
땠	-15.2451
붉	-15.2452
텅	-15.2453
밟	-15.2454
멤	-15.2455
겻	-15.2456
홧	-15.2457
틋	-15.2458
쌓	-15.2459
뿜	-15.246
컸	-15.2461
맑	-15.2462
핸	-15.2463
옮	-15.2464
뻣	-15.2465
뭇	-15.2466
빕	-15.2467
찢	-15.2468
켰	-15.2469
땀	-15.247
팠	-15.2471
쫄	-15.2472
삽	-15.2473
뭣	-15.2474
띄	-15.2475
껐	-15.2476
왤	-15.2477
겪	-15.2478
뻤	-15.2479
쏟	-15.248
빗	-15.2481
닙	-15.2482
딧	-15.2483
섞	-15.2484
튀	-15.2485
닮	-15.2486
듭	-15.2487
획	-15.2488
챙	-15.2489
쁨	-15.249
얻	-15.2491
늦	-15.2492
됩	-15.2493
볍	-15.2494
찝	-15.2495
묻	-15.2496
꼈	-15.2497
잃	-15.2498
낄	-15.2499
똑	-15.25
랐	-15.2501
¤	-15.2502
°	-15.2502
깊	-15.2502
꽦	-15.2503
떻	-15.2503
が	-15.2504
ね	-15.2504
は	-15.2504
ウ	-15.2504
ガ	-15.2504
グ	-15.2504
タ	-15.2504
ダ	-15.2504
デ	-15.2504
ベ	-15.2504
ヨ	-15.2504
ル	-15.2504
ワ	-15.2504
結	-15.2504
見	-15.2504
렸	-15.2504
蜀	-15.2505
◎	-15.2505
◐	-15.2505
◑	-15.2505
う	-15.2505
え	-15.2505
こ	-15.2505
ほ	-15.2505
ま	-15.2505
り	-15.2505
わ	-15.2505
を	-15.2505
ん	-15.2505
シ	-15.2505
ヒ	-15.2505
出	-15.2505
様	-15.2505
論	-15.2505
뇔	-15.2505
뚠	-15.2505
륒	-15.2505
맂	-15.2505
붑	-15.2505
쳫	-15.2505
켔	-15.2505
♤	-15.2505
侖	-15.2505
傑	-15.2505
柱	-15.2505
看	-15.2505
꽄	-15.2505
쟄	-15.2505
졀	-15.2505
햫	-15.2505
カ	-15.2505
倭	-15.2505
友	-15.2505
定	-15.2505
田	-15.2505
立	-15.2505
自	-15.2505
離	-15.2505
귻	-15.2505
댖	-15.2505
맍	-15.2505
숰	-15.2505
썌	-15.2505
읖	-15.2505
쮜	-15.2505
亡	-15.2505
古	-15.2505
害	-15.2505
希	-15.2505
戰	-15.2505
漁	-15.2505
笑	-15.2505
紅	-15.2505
藝	-15.2505
鈴	-15.2505
難	-15.2505
驛	-15.2505
곷	-15.2505
꾜	-15.2505
놜	-15.2505
늨	-15.2505
댸	-15.2505
뵨	-15.2505
샣	-15.2505
셌	-15.2505
슲	-15.2505
썁	-15.2505
옘	-15.2505
좠	-15.2505
좢	-15.2505
죸	-15.2505
짼	-15.2505
춋	-15.2505
칝	-15.2505
켤	-15.2505
쿳	-15.2505
쿸	-15.2505
핬	-15.2505
훃	-15.2505
훕	-15.2505
～	-15.2505
꿬	-15.2505
넜	-15.2505
럈	-15.2505
맸	-15.2505
뭨	-15.2505
쌜	-15.2505
씝	-15.2505
촹	-15.2505
킈	-15.2505
ω	-15.2505
ᄚ	-15.2505
ᅱ	-15.2505
ᆬ	-15.2505
↘	-15.2505
┏	-15.2505
□	-15.2505
△	-15.2505
◀	-15.2505
◁	-15.2505
☻	-15.2505
♧	-15.2505
♫	-15.2505
【	-15.2505
】	-15.2505
に	-15.2505
ひ	-15.2505
ゃ	-15.2505
る	-15.2505
イ	-15.2505
テ	-15.2505
ピ	-15.2505
マ	-15.2505
メ	-15.2505
三	-15.2505
下	-15.2505
不	-15.2505
也	-15.2505
亞	-15.2505
佑	-15.2505
先	-15.2505
典	-15.2505
刻	-15.2505
前	-15.2505
北	-15.2505
史	-15.2505
名	-15.2505
味	-15.2505
塵	-15.2505
外	-15.2505
大	-15.2505
天	-15.2505
孝	-15.2505
完	-15.2505
家	-15.2505
岡	-15.2505
峰	-15.2505
峽	-15.2505
式	-15.2505
彩	-15.2505
彼	-15.2505
待	-15.2505
後	-15.2505
復	-15.2505
忍	-15.2505
情	-15.2505
慄	-15.2505
慶	-15.2505
憎	-15.2505
手	-15.2505
敵	-15.2505
會	-15.2505
望	-15.2505
期	-15.2505
木	-15.2505
末	-15.2505
林	-15.2505
檢	-15.2505
歌	-15.2505
江	-15.2505
派	-15.2505
湖	-15.2505
演	-15.2505
火	-15.2505
王	-15.2505
申	-15.2505
異	-15.2505
白	-15.2505
皿	-15.2505
益	-15.2505
直	-15.2505
眞	-15.2505
眠	-15.2505
祖	-15.2505
神	-15.2505
禪	-15.2505
禮	-15.2505
秀	-15.2505
紐	-15.2505
紙	-15.2505
終	-15.2505
綠	-15.2505
老	-15.2505
腸	-15.2505
臭	-15.2505
苦	-15.2505
英	-15.2505
蒼	-15.2505
記	-15.2505
謝	-15.2505
讐	-15.2505
車	-15.2505
部	-15.2505
都	-15.2505
野	-15.2505
鋒	-15.2505
集	-15.2505
電	-15.2505
霆	-15.2505
香	-15.2505
겂	-15.2505
겓	-15.2505
곅	-15.2505
굯	-15.2505
굷	-15.2505
궛	-15.2505
귐	-15.2505
귬	-15.2505
긑	-15.2505
깞	-15.2505
깩	-15.2505
꺆	-15.2505
꺍	-15.2505
꺙	-15.2505
꺤	-15.2505
껃	-15.2505
껬	-15.2505
껭	-15.2505
껰	-15.2505
꼅	-15.2505
꼿	-15.2505
꾱	-15.2505
꾿	-15.2505
꿐	-15.2505
꿑	-15.2505
꿘	-15.2505
뀩	-15.2505
끋	-15.2505
끚	-15.2505
끠	-15.2505
낏	-15.2505
낔	-15.2505
낛	-15.2505
낟	-15.2505
냊	-15.2505
냣	-15.2505
냬	-15.2505
넀	-15.2505
넖	-15.2505
넗	-15.2505
넫	-15.2505
녘	-15.2505
녿	-15.2505
놃	-15.2505
놋	-15.2505
놑	-15.2505
뇰	-15.2505
눊	-15.2505
늄	-15.2505
늰	-15.2505
늴	-15.2505
닁	-15.2505
닊	-15.2505
닯	-15.2505
닶	-15.2505
닺	-15.2505
닻	-15.2505
댠	-15.2505
댣	-15.2505
댬	-15.2505
덨	-15.2505
덷	-15.2505
뎜	-15.2505
뎟	-15.2505
돟	-15.2505
됑	-15.2505
됻	-15.2505
듁	-15.2505
듕	-15.2505
듧	-15.2505
듴	-15.2505
듵	-15.2505
듷	-15.2505
딮	-15.2505
딲	-15.2505
땈	-15.2505
땝	-15.2505
땸	-15.2505
떘	-15.2505
떰	-15.2505
뗬	-15.2505
똗	-15.2505
뙀	-15.2505
뙁	-15.2505
뜁	-15.2505
뜌	-15.2505
띀	-15.2505
띁	-15.2505
띔	-15.2505
띡	-15.2505
띰	-15.2505
띱	-15.2505
랃	-15.2505
랒	-15.2505
랟	-15.2505
랽	-15.2505
럾	-15.2505
렝	-15.2505
렠	-15.2505
렿	-15.2505
롁	-15.2505
롄	-15.2505
롴	-15.2505
롷	-15.2505
뢀	-15.2505
뢈	-15.2505
뢉	-15.2505
뢍	-15.2505
뢔	-15.2505
룔	-15.2505
룕	-15.2505
룯	-15.2505
뤌	-15.2505
뤰	-15.2505
륺	-15.2505
릋	-15.2505
릌	-15.2505
릏	-15.2505
릣	-15.2505
릳	-15.2505
먠	-15.2505
먾	-15.2505
멐	-15.2505
뫁	-15.2505
뫘	-15.2505
묨	-15.2505
묭	-15.2505
뮁	-15.2505
뮐	-15.2505
뮝	-15.2505
뮨	-15.2505
믐	-15.2505
믕	-15.2505
밐	-15.2505
밫	-15.2505
밬	-15.2505
뱆	-15.2505
뱎	-15.2505
벰	-15.2505
벴	-15.2505
벸	-15.2505
볐	-15.2505
볓	-15.2505
볔	-15.2505
볠	-15.2505
볹	-15.2505
볻	-15.2505
봘	-15.2505
봙	-15.2505
봨	-15.2505
뵤	-15.2505
뵹	-15.2505
붆	-15.2505
붤	-15.2505
붹	-15.2505
뷐	-15.2505
뷴	-15.2505
븟	-15.2505
빋	-15.2505
빝	-15.2505
뺌	-15.2505
뺍	-15.2505
뺒	-15.2505
뺘	-15.2505
뺠	-15.2505
뺵	-15.2505
뻉	-15.2505
뻡	-15.2505
뻭	-15.2505
뻴	-15.2505
뽯	-15.2505
뿨	-15.2505
뿰	-15.2505
쀠	-15.2505
쀨	-15.2505
삑	-15.2505
삳	-15.2505
삵	-15.2505
샅	-15.2505
샊	-15.2505
샙	-15.2505
샡	-15.2505
섫	-15.2505
섲	-15.2505
섶	-15.2505
섷	-15.2505
섺	-15.2505
섻	-15.2505
섿	-15.2505
셐	-15.2505
셕	-15.2505
솀	-15.2505
솎	-15.2505
솥	-15.2505
쇳	-15.2505
숼	-15.2505
쉈	-15.2505
쉑	-15.2505
쉔	-15.2505
쉩	-15.2505
슁	-15.2505
슠	-15.2505
슺	-15.2505
슼	-15.2505
슽	-15.2505
슾	-15.2505
싡	-15.2505
싢	-15.2505
싴	-15.2505
쌰	-15.2505
썱	-15.2505
쎗	-15.2505
쎘	-15.2505
쎴	-15.2505
쎾	-15.2505
쏔	-15.2505
쏨	-15.2505
쏱	-15.2505
쐌	-15.2505
쐬	-15.2505
쑝	-15.2505
쑨	-15.2505
쑬	-15.2505
쑴	-15.2505
쑹	-15.2505
쒀	-15.2505
쒕	-15.2505
쒰	-15.2505
쓕	-15.2505
씪	-15.2505
앀	-15.2505
앋	-15.2505
앖	-15.2505
앸	-15.2505
얺	-15.2505
엓	-15.2505
엪	-15.2505
엷	-15.2505
옂	-15.2505
옯	-15.2505
옰	-15.2505
옶	-15.2505
왑	-15.2505
욈	-15.2505
윖	-15.2505
윘	-15.2505
윱	-15.2505
윳	-15.2505
읮	-15.2505
읿	-15.2505
잛	-15.2505
쟙	-15.2505
쟞	-15.2505
쟾	-15.2505
젅	-15.2505
젭	-15.2505
졏	-15.2505
졔	-15.2505
좝	-15.2505
죈	-15.2505
죙	-15.2505
죳	-15.2505
죴	-15.2505
죶	-15.2505
줗	-15.2505
줭	-15.2505
쥇	-15.2505
쥣	-15.2505
쥤	-15.2505
즁	-15.2505
즛	-15.2505
즞	-15.2505
즤	-15.2505
짂	-15.2505
짅	-15.2505
짇	-15.2505
짏	-15.2505
짛	-15.2505
짫	-15.2505
쨓	-15.2505
쨘	-15.2505
쩁	-15.2505
쩄	-15.2505
쩧	-15.2505
쪠	-15.2505
쭙	-15.2505
쯗	-15.2505
찯	-15.2505
찱	-15.2505
챃	-15.2505
챡	-15.2505
첮	-15.2505
쳅	-15.2505
쳬	-15.2505
촟	-15.2505
촥	-15.2505
쵁	-15.2505
춌	-15.2505
춧	-15.2505
춴	-15.2505
츔	-15.2505
츙	-15.2505
츨	-15.2505
츽	-15.2505
칻	-15.2505
캢	-15.2505
캭	-15.2505
컼	-15.2505
콮	-15.2505
콯	-15.2505
콴	-15.2505
쾨	-15.2505
쿈	-15.2505
퀭	-15.2505
킼	-15.2505
탆	-15.2505
텁	-15.2505
텈	-15.2505
텟	-15.2505
텡	-15.2505
톼	-15.2505
퇄	-15.2505
퉜	-15.2505
퉽	-15.2505
튬	-15.2505
튭	-15.2505
틍	-15.2505
틐	-15.2505
팎	-15.2505
폇	-15.2505
퐛	-15.2505
퐠	-15.2505
푀	-15.2505
푱	-15.2505
풓	-15.2505
풔	-15.2505
풕	-15.2505
풰	-15.2505
퓌	-15.2505
퓰	-15.2505
핓	-15.2505
핕	-15.2505
핣	-15.2505
핦	-15.2505
핧	-15.2505
핮	-15.2505
핯	-15.2505
핻	-15.2505
헏	-15.2505
헙	-15.2505
혖	-15.2505
홐	-15.2505
홓	-15.2505
홪	-15.2505
홯	-15.2505
횔	-15.2505
횤	-15.2505
횬	-15.2505
훓	-15.2505
훜	-15.2505
훟	-15.2505
훡	-15.2505
휏	-15.2505
휨	-15.2505
휸	-15.2505
흏	-15.2505
흳	-15.2505
힉	-15.2505
렇	-15.2505
궜	-15.2505
뵌	-15.2505
엲	-15.2505
助	-15.2505
性	-15.2505
新	-15.2505
걈	-15.2505
곃	-15.2505
귤	-15.2505
긬	-15.2505
낞	-15.2505
넸	-15.2505
듨	-15.2505
똴	-15.2505
럔	-15.2505
솰	-15.2505
숄	-15.2505
쉒	-15.2505
쉥	-15.2505
싐	-15.2505
씼	-15.2505
얐	-15.2505
욹	-15.2505
젔	-15.2505
쨈	-15.2505
춸	-15.2505
퀜	-15.2505
틔	-15.2505
퓬	-15.2505
僞	-15.2506
律	-15.2506
旋	-15.2506
求	-15.2506
法	-15.2506
葉	-15.2506
觸	-15.2506
갅	-15.2506
갵	-15.2506
꼳	-15.2506
꿓	-15.2506
꿩	-15.2506
넵	-15.2506
댰	-15.2506
딬	-15.2506
땓	-15.2506
묽	-15.2506
셑	-15.2506
옾	-15.2506
왝	-15.2506
욺	-15.2506
읹	-15.2506
쭊	-15.2506
탸	-15.2506
튠	-15.2506
お	-15.2506
せ	-15.2506
そ	-15.2506
力	-15.2506
幸	-15.2506
念	-15.2506
曲	-15.2506
本	-15.2506
里	-15.2506
댘	-15.2506
땁	-15.2506
븬	-15.2506
턀	-15.2506
つ	-15.2506
む	-15.2506
師	-15.2506
張	-15.2506
蟲	-15.2506
頑	-15.2506
닟	-15.2506
싷	-15.2506
탗	-15.2506
봤	-15.2506
툥	-15.2506
