<pad>	0
<unk>	0
.	-3.43686
▁	-3.50305
..	-4.31595
▁영화	-4.53791
...	-4.56462
이	-4.58277
의	-4.74088
,	-4.84003
도	-4.84168
가	-4.91895
는	-4.92051
을	-5.08356
에	-5.16143
▁"	-5.16706
?	-5.25917
은	-5.34316
다	-5.39413
고	-5.42497
▁너무	-5.47539
지	-5.48764
!	-5.56357
▁정말	-5.6141
를	-5.62127
▁이	-5.68869
만	-5.69014
한	-5.71294
로	-5.79608
▁진짜	-5.81592
~	-5.8734
"	-5.92619
나	-5.95218
영화	-5.99488
게	-6.05108
과	-6.06553
점	-6.15217
하고	-6.20686
으로	-6.24541
▁잘	-6.27352
."	-6.28783
▁그	-6.29555
기	-6.31337
▁왜	-6.32698
인	-6.34679
라	-6.3511
▁더	-6.35439
▁다	-6.3573
▁1	-6.36431
▁이런	-6.38286
와	-6.39158
▁수	-6.40002
!!	-6.40298
에서	-6.40308
▁안	-6.4381
....	-6.44378
아	-6.44917
어	-6.47429
▁그냥	-6.48913
네	-6.52946
▁아	-6.54411
서	-6.54524
요	-6.55829
들	-6.56621
하는	-6.56662
리	-6.60077
▁10	-6.62811
▁보고	-6.63033
▁본	-6.64358
▁드라마	-6.65652
거	-6.70725
해	-6.72057
▁영화를	-6.7217
▁평점	-6.72206
▁연기	-6.72527
▁좀	-6.73797
자	-6.77396
네요	-6.78473
면	-6.81845
▁내	-6.84083
지만	-6.84794
야	-6.87271
▁한	-6.88285
수	-6.88338
▁봤는데	-6.8869
▁쓰레기	-6.89006
▁ᄏᄏ	-6.90143
▁영화는	-6.91193
▁없는	-6.9126
▁영화가	-6.91287
니	-6.91807
이다	-6.91988
▁이거	-6.92533
대	-6.92913
▁완전	-6.9441
▁최고의	-6.9446
▁참	-6.95685
▁내가	-6.9743
하게	-6.9802
▁없다	-6.98264
▁이건	-6.98395
▁있는	-6.99038
▁좋은	-7.01002
음	-7.0197
ᄏᄏ	-7.02436
▁스토리	-7.02438
▁최고	-7.02583
스	-7.03139
일	-7.04032
함	-7.04255
▁2	-7.05931
시	-7.06096
보다	-7.06518
!!!	-7.06926
▁이렇게	-7.09264
해서	-7.09746
▁다시	-7.09801
▁이게	-7.09865
하다	-7.0992
사	-7.10651
▁보는	-7.10881
하	-7.11234
까지	-7.11282
▁3	-7.11367
▁못	-7.11666
데	-7.13396
여	-7.14076
임	-7.14184
들이	-7.14386
▁것	-7.15412
할	-7.15576
구	-7.16422
진	-7.16521
건	-7.17472
우	-7.1924
ᄏ	-7.19287
안	-7.19495
▁많이	-7.20965
^^	-7.21256
랑	-7.21383
▁평점이	-7.21815
▁개	-7.21888
듯	-7.22201
▁난	-7.22379
미	-7.23776
냐	-7.23788
주	-7.2419
~~	-7.254
정	-7.27077
▁역시	-7.28843
▁그리고	-7.2893
적	-7.29641
는데	-7.29746
보고	-7.30176
▁넘	-7.30461
진짜	-7.31494
▁뭐	-7.31974
▁나	-7.32
인데	-7.32754
▁작품	-7.33288
▁재밌게	-7.35448
치	-7.35941
'	-7.3614
▁볼	-7.36341
??	-7.36814
상	-7.36921
▁하는	-7.36972
▁또	-7.38474
년	-7.38872
▁마지막	-7.39114
중	-7.39185
▁별로	-7.39507
1	-7.3987
▁재미	-7.4079
전	-7.41002
질	-7.41045
성	-7.41579
▁아깝다	-7.41962
던	-7.42026
▁없고	-7.4285
마	-7.43173
;;	-7.43362
▁꼭	-7.4374
드	-7.43877
▁감동	-7.44688
▁ᄏᄏᄏ	-7.45148
2	-7.46142
신	-7.46247
것	-7.47943
그	-7.48565
▁가장	-7.48704
▁말	-7.49192
▁무슨	-7.49655
오	-7.49729
▁보면	-7.49883
같은	-7.50112
내	-7.50233
▁하나	-7.50522
장	-7.50735
▁전	-7.5119
라고	-7.52764
너무	-7.52955
세	-7.53402
▁이야기	-7.53972
정말	-7.54183
분	-7.54246
▁저	-7.54692
ᅲᅲ	-7.54756
▁감독	-7.55112
)	-7.55377
적인	-7.55704
부	-7.55916
입니다	-7.56751
개	-7.56962
▁만든	-7.57045
했다	-7.57204
급	-7.57285
좀	-7.57306
ᄏᄏᄏ	-7.57792
▁오	-7.58698
▁액션	-7.59584
하지	-7.60266
용	-7.61055
소	-7.6251
에게	-7.62552
▁다른	-7.62769
비	-7.63228
▁중	-7.63371
된	-7.6348
▁할	-7.63547
▁ᄏ	-7.636
▁별	-7.64429
보	-7.64686
드라마	-7.65006
▁보	-7.6522
▁ᅲᅲ	-7.65534
라는	-7.65793
때	-7.65857
▁영화다	-7.66404
원	-7.67389
씨	-7.67752
▁지금	-7.68638
물	-7.68885
▁같은	-7.6919
▁시간	-7.69597
▁느낌	-7.69659
화	-7.69736
▁지	-7.69878
이나	-7.6995
부터	-7.70071
▁하	-7.7028
본	-7.7037
;	-7.70674
더	-7.70728
▁명작	-7.7077
▁말이	-7.71019
▁끝까지	-7.71093
ᅲ	-7.71365
란	-7.71417
선	-7.7146
▁연출	-7.718
3	-7.72567
트	-7.73413
말	-7.73854
려	-7.73911
▁'	-7.74078
▁ᅳᅳ	-7.74426
▁주	-7.74611
없는	-7.75041
걸	-7.75263
▁한국	-7.75567
▁하지만	-7.7582
러	-7.76179
처럼	-7.76195
▁전혀	-7.76357
▁생각	-7.76357
군	-7.76682
▁배우	-7.77131
인지	-7.77548
▁같다	-7.77626
▁와	-7.7779
습니다	-7.78414
▁대한	-7.78599
있는	-7.78612
▁사	-7.78708
▁사랑	-7.78855
무	-7.7922
▁좋다	-7.79241
▁기대	-7.79697
▁봤다	-7.79713
▁있다	-7.80165
▁솔직히	-7.80255
(	-7.80262
▁내용	-7.80435
난	-7.80644
▁아주	-7.81882
▁뭔가	-7.81953
ᅳᅳ	-7.81981
▁처음	-7.82408
편	-7.82451
▁때	-7.82728
한다	-7.83453
▁봐도	-7.83802
▁ᄒᄒ	-7.85503
▁아니	-7.85938
히	-7.86525
▁많은	-7.86712
들의	-7.86826
▁굿	-7.87426
영	-7.8764
당	-7.88014
▁재밌다	-7.88177
조	-7.88273
▁짱	-7.88305
인가	-7.8872
줄	-7.89164
류	-7.8918
때문에	-7.89855
▁내내	-7.90192
▁재미있게	-7.90521
운	-7.90768
▁유	-7.90786
▁일	-7.90811
유	-7.90838
▁않고	-7.911
▁해	-7.9141
▁계속	-7.91538
호	-7.91755
▁거	-7.91961
▁돈	-7.92328
▁모두	-7.92424
면서	-7.9297
▁두	-7.93171
▁내용이	-7.93605
▁나오는	-7.93639
▁하고	-7.93645
감	-7.93938
▁어떻게	-7.93976
두	-7.9423
▁이걸	-7.94478
▁코미디	-7.94703
동	-7.94909
며	-7.954
-	-7.95436
▁일본	-7.95511
하지만	-7.95665
이랑	-7.95711
단	-7.95773
긴	-7.96074
▁비	-7.9614
▁줄	-7.96434
식	-7.96474
▁대박	-7.96587
▁최악	-7.96591
▁최악의	-7.97052
살	-7.97418
▁자	-7.97551
▁4	-7.97661
▁그래도	-7.97962
길	-7.97965
남	-7.9822
▁제	-7.98524
▁후	-7.98608
린	-7.98611
▁대	-7.98621
▁아니라	-7.98696
합니다	-7.9885
▁한번	-7.98991
디	-7.99312
모	-7.9973
되는	-8.00115
바	-8.00117
제	-8.00427
▁듯	-8.00454
연	-8.00721
▁여자	-8.01294
▁연기가	-8.01359
▁배우들	-8.01368
타	-8.01394
▁김	-8.01471
명	-8.01774
▁알	-8.01818
▁아니다	-8.0186
▁재미없다	-8.01963
까	-8.02028
▁사람	-8.0225
잘	-8.02355
▁딱	-8.02924
▁고	-8.03177
이라	-8.03296
▁아닌	-8.03323
▁기	-8.03772
▁모든	-8.03833
어요	-8.04056
연기	-8.04132
점도	-8.04326
▁정	-8.04881
▁가	-8.05225
▁주인공	-8.05226
▁무	-8.05236
했던	-8.05247
▁만드는	-8.05472
▁아름다운	-8.05887
크	-8.06095
▁않은	-8.06177
▁근데	-8.06237
▁5	-8.06277
▁미	-8.06319
엔	-8.06674
▁제일	-8.06732
노	-8.072
구나	-8.07261
▁이영화	-8.07281
심	-8.07499
하면	-8.07536
없이	-8.07733
하나	-8.08391
▁보기	-8.08732
▁7	-8.08995
들은	-8.09052
▁스릴러	-8.09258
이라는	-8.09432
루	-8.10264
재	-8.10347
▁어	-8.10508
▁않는	-8.10664
위	-8.10743
▁나는	-8.1083
▁보다가	-8.10892
▁연기도	-8.11316
▁감독이	-8.11442
▁제대로	-8.11518
▁이해	-8.11796
▁스토리가	-8.1182
시간	-8.11848
▁그런	-8.11872
ᄒᄒ	-8.11882
죠	-8.1217
르	-8.12183
날	-8.12364
한테	-8.12378
봤는데	-8.12688
▁아니고	-8.1287
작	-8.13462
다니	-8.1392
방	-8.1435
▁싶다	-8.14621
▁내용도	-8.14698
레	-8.15058
으면	-8.15427
울	-8.15611
▁OO	-8.16025
간	-8.16719
▁절대	-8.16725
▁8	-8.16844
보면	-8.17077
~~~	-8.17271
▁요즘	-8.17343
▁때문에	-8.17388
생	-8.17423
▁우리	-8.17432
▁조	-8.17619
짱	-8.18387
▁보다	-8.18558
▁영화라고	-8.18816
♥	-8.19005
년대	-8.19146
▁아까운	-8.19337
!!!!	-8.19744
래	-8.19816
▁0	-8.19829
ᅳ	-8.20179
▁막장	-8.20423
▁시간이	-8.20607
프	-8.20648
▁주는	-8.20872
▁반	-8.21103
▁9	-8.21113
준	-8.21327
▁영화의	-8.21348
왜	-8.21446
10	-8.22221
적으로	-8.22273
▁이제	-8.22351
▁아직도	-8.22454
▁부	-8.22524
이고	-8.22625
ᄒ	-8.22647
발	-8.22693
▁추천	-8.22826
4	-8.22879
▁신	-8.22969
▁재밌어요	-8.23101
▁마	-8.23211
▁좋았다	-8.23682
▁되는	-8.23795
,,	-8.2389
▁나름	-8.2398
▁장면	-8.24033
▁엄청	-8.24056
▁걍	-8.24272
▁재미도	-8.24287
▁특히	-8.24428
번	-8.2451
후	-8.24683
▁도대체	-8.2475
▁인생	-8.24779
▁보면서	-8.2486
지는	-8.2502
박	-8.25151
산	-8.25156
니까	-8.25172
파	-8.2527
하네요	-8.25272
▁여운이	-8.25297
민	-8.25345
▁남자	-8.2581
저	-8.2598
스토리	-8.26046
▁차라리	-8.26086
▁영화입니다	-8.26187
되	-8.26247
님	-8.26366
▁진심	-8.26434
▁스토리도	-8.26554
없다	-8.26697
이란	-8.26906
▁음악	-8.27
▁나도	-8.27038
▁남는	-8.27383
▁마지막에	-8.27561
▁반전	-8.27569
▁소	-8.27754
▁수준	-8.27759
인듯	-8.28134
▁구	-8.28362
피	-8.28386
판	-8.28483
""""	-8.28653
▁애니	-8.28695
▁결말	-8.28763
점은	-8.28777
▁전개	-8.29085
겨	-8.29399
▁좋고	-8.2949
이라고	-8.29498
희	-8.29558
그냥	-8.29686
▁실망	-8.29697
점이	-8.30499
경	-8.31034
라도	-8.31225
▁없음	-8.31325
▁봤습니다	-8.31476
▁공포영화	-8.31543
즈	-8.3155
▁나온	-8.31602
▁시	-8.31645
이런	-8.31671
들을	-8.31845
▁감독의	-8.32005
▁오랜만에	-8.32674
▁영화에	-8.32821
▁애	-8.32893
현	-8.33214
다가	-8.33343
▁ᄏᄏᄏᄏ	-8.33423
생각	-8.33478
카	-8.33521
▁지루하고	-8.33576
토	-8.33836
었다	-8.33865
▁뻔한	-8.33908
▁이상	-8.33962
차	-8.33974
애	-8.34091
관	-8.34093
???	-8.34273
..."	-8.34334
공	-8.34424
▁좋아하는	-8.34437
▁OOO	-8.34542
▁건	-8.34843
▁만들어	-8.34881
▁눈	-8.35253
▁조금	-8.3546
▁생각이	-8.35492
.."	-8.35696
배우	-8.35743
국	-8.35921
반	-8.36204
▁ᅲ	-8.36399
지도	-8.36742
▁없이	-8.36767
▁걸	-8.36777
▁좋아	-8.36801
하네	-8.3698
▁공포	-8.37004
▁남	-8.3703
▁피	-8.37216
만큼	-8.37258
▁이해가	-8.37291
배	-8.37432
▁봤던	-8.37523
따	-8.3769
ᅮᅮ	-8.37788
평점	-8.37791
했는데	-8.37805
보는	-8.37854
▁최고다	-8.38022
▁지루한	-8.38097
회	-8.38468
▁재미가	-8.38473
▁모	-8.38476
▁어떤	-8.3858
▁사람이	-8.39161
▁시작	-8.392
사람	-8.39273
▁되	-8.3932
▁못한	-8.39345
든	-8.39413
ᄏᄏᄏᄏ	-8.39591
참	-8.39691
▁멋진	-8.39744
속	-8.39839
▁눈물	-8.39866
▁B	-8.39877
키	-8.39969
▁함께	-8.40016
해요	-8.40255
못	-8.40432
버	-8.40614
/	-8.40983
워	-8.41325
최고	-8.41755
▁뭘	-8.41881
▁괜찮은	-8.41892
감독	-8.41901
터	-8.42037
▁싶은	-8.42089
▁재밌는	-8.42152
▁우리나라	-8.42159
밖에	-8.42276
코	-8.42398
▁^^	-8.42437
▁된	-8.42695
▁영화로	-8.42982
▁얼마나	-8.43055
5	-8.43202
▁개인적으로	-8.43209
건지	-8.43248
▁애니메이션	-8.43255
▁큰	-8.43409
림	-8.43475
▁오늘	-8.43483
▁개봉	-8.43513
▁배우들의	-8.4352
하기	-8.43595
▁속	-8.43886
▁기억	-8.44023
▁보세요	-8.44071
▁대사	-8.44114
▁몇	-8.44188
▁그저	-8.44369
는거	-8.44719
태	-8.44724
▁보는내내	-8.44889
▁지루함	-8.45066
▁안되는	-8.45087
으	-8.45137
는게	-8.45158
~!	-8.45209
정도	-8.45397
▁지루하다	-8.45446
▁기억에	-8.45566
중에	-8.45836
▁될	-8.45981
더라	-8.46037
!"	-8.46113
▁수작	-8.46147
▁장	-8.46357
▁박	-8.46502
형	-8.46555
역	-8.46574
▁바	-8.46582
▁영	-8.4666
▁정도	-8.46874
▁매우	-8.47045
탄	-8.47107
있다	-8.47558
▁뭔	-8.47561
▁6	-8.47948
재미	-8.48147
▁가슴	-8.48148
▁졸작	-8.48231
▁"""	-8.4831
▁아무리	-8.48385
▁제발	-8.48458
▁막	-8.48617
▁20	-8.48751
문	-8.49204
▁표현	-8.49334
▁노	-8.49349
▁세	-8.49539
▁알바	-8.49765
▁연기는	-8.49795
▁날	-8.49888
;;;	-8.50187
쓰레기	-8.50264
티	-8.50607
하면서	-8.51154
사랑	-8.5138
▁스	-8.51465
▁불	-8.51625
▁미국	-8.51738
작품	-8.52177
뿐	-8.52283
▁같이	-8.52843
는지	-8.52969
불	-8.53113
해도	-8.53156
▁그렇게	-8.53341
망	-8.53577
▁것이	-8.53602
하며	-8.53719
▁좋아요	-8.53852
▁않는다	-8.53931
려고	-8.54028
▁필요	-8.54227
▁공감	-8.54399
▁배	-8.54425
져	-8.5443
▁기분	-8.54487
▁하나도	-8.54601
양	-8.54679
▁봤어요	-8.54781
▁연기력	-8.55107
e	-8.55359
실	-8.5569
이지만	-8.55696
▁마음이	-8.55723
▁모르겠다	-8.55742
▁위해	-8.55775
ᅮ	-8.56148
▁우	-8.56487
던데	-8.56607
▁사람들	-8.56717
▁한다	-8.56812
주는	-8.56907
o	-8.57126
d	-8.57413
죽	-8.57516
▁원	-8.57644
겠다	-8.57796
▁위한	-8.58067
▁있고	-8.58138
▁원작	-8.58206
▁있	-8.58315
▁만들	-8.58378
▁준	-8.58577
▁""""	-8.58695
▁재밌음	-8.59024
▁너무나	-8.59071
▁쓰	-8.59131
▁인간	-8.59144
▁캐릭터	-8.59388
▁존나	-8.59466
▁극장에서	-8.59779
극	-8.59792
그리고	-8.60013
▁강추	-8.60067
것도	-8.60331
s	-8.60391
달	-8.60465
▁강	-8.6056
▁보지	-8.60798
매	-8.60859
▁끝	-8.60932
▁ᄒ	-8.61014
넘	-8.61392
▁보게	-8.61619
악	-8.61731
▁살	-8.6176
▁결국	-8.61839
구만	-8.62011
▁한국영화	-8.62209
병	-8.62305
▁초	-8.6241
▁시리즈	-8.62473
체	-8.62696
▁영화네요	-8.62849
였다	-8.63015
▁재	-8.63075
▁느낌이	-8.63079
담	-8.63221
▁눈물이	-8.6347
종	-8.63567
▁않	-8.6361
강	-8.63677
했음	-8.64288
예	-8.64297
완전	-8.64395
▁진	-8.64596
▁내용은	-8.64858
▁대체	-8.64915
▁로맨스	-8.6495
▁훨씬	-8.65004
▁노래	-8.65069
봤다	-8.65087
이야	-8.65088
등	-8.65105
갈	-8.6523
▁성	-8.65235
▁예	-8.65346
뭐	-8.65433
쳐	-8.65482
어서	-8.6568
봐도	-8.65709
▁발	-8.65756
▁공	-8.66148
점을	-8.66196
7	-8.66344
▁울	-8.66524
▁재미없음	-8.66617
▁갈수록	-8.66648
▁누가	-8.66732
초	-8.66754
케	-8.66853
▁가슴이	-8.66891
▁영상	-8.66905
이거	-8.6693
▁여	-8.6722
▁알고	-8.67539
▁억지	-8.67695
▁그나마	-8.67738
▁욕	-8.67793
거야	-8.67858
감동	-8.67965
입	-8.68228
금	-8.68253
▁사실	-8.68287
▁기억이	-8.68353
▁결말이	-8.68373
이었다	-8.68408
▁만화	-8.68884
이네	-8.68977
포	-8.69001
▁ᅮᅮ	-8.69148
▁주고	-8.69174
꺼	-8.69201
장면	-8.69337
▁밖에	-8.69385
▁없어	-8.69407
▁미친	-8.69434
▁않다	-8.69657
이건	-8.69892
▁파	-8.70254
녀	-8.70353
▁문제	-8.70367
▁재밌	-8.70403
▁더빙	-8.70646
▁재밌고	-8.71057
▁단	-8.71164
기는	-8.71225
▁그만	-8.7124
▁머	-8.71258
▁시나리오	-8.71377
대로	-8.71442
▁입	-8.71712
너	-8.71803
봐	-8.7216
▁노잼	-8.72201
있	-8.72365
>	-8.72417
▁꽤	-8.72443
6	-8.72631
▁애들	-8.72632
▁연기를	-8.72671
영화를	-8.72706
▁소재	-8.72729
내용	-8.72811
통	-8.72854
▁음	-8.73077
▁주연	-8.73268
었는데	-8.7343
하는데	-8.73495
▁보여주는	-8.73513
▁가족	-8.7361
▁매력	-8.73807
▁들	-8.73874
▁그래서	-8.73996
▁허	-8.74214
▁게	-8.74316
▁아쉽다	-8.7441
▁없었다	-8.74481
석	-8.74537
집	-8.74577
봄	-8.74677
▁후회	-8.74943
▁코믹	-8.74967
없	-8.75325
▁쓰레기영화	-8.75344
글	-8.75437
잼	-8.75622
색	-8.75628
군요	-8.75815
▁다들	-8.75836
액션	-8.75994
이네요	-8.76025
"""	-8.76028
▁좋은데	-8.76154
▁긴장감	-8.76205
▁어설픈	-8.7638
알	-8.76436
김	-8.7645
영화는	-8.76477
+	-8.76545
▁적	-8.76573
▁뿐	-8.7658
▁CG	-8.76612
▁심	-8.76695
계	-8.76729
년이	-8.76735
보단	-8.76834
온	-8.77021
?"	-8.77048
▁것을	-8.77082
▁사람들이	-8.77091
력	-8.77152
이라도	-8.77176
없고	-8.77626
▁몰입도	-8.77648
▁볼만	-8.77671
▁것도	-8.77712
느낌	-8.77761
▁바로	-8.7788
▁마음	-8.78088
▁치	-8.78188
않	-8.78205
잡	-8.78292
▁동	-8.78409
영화가	-8.78648
▁-	-8.78652
▁준다	-8.78657
▁중국	-8.78733
리는	-8.78741
테	-8.78787
▁없	-8.78827
▁같아요	-8.78842
▁캐스팅	-8.78887
▁생각을	-8.78943
라면	-8.79023
▁극	-8.7909
▁시즌	-8.79274
▁서	-8.79319
▁상당히	-8.79377
▁영화였다	-8.79631
▁영화관에서	-8.79649
▁감동적인	-8.7983
▁걸작	-8.79926
이지	-8.7993
아니	-8.80044
▁간만에	-8.8019
점대	-8.80217
먹	-8.80331
▁매	-8.80405
이야기	-8.805
▁영화중	-8.80559
▁너	-8.80585
인줄	-8.80647
▁아님	-8.80705
승	-8.80938
▁차	-8.8094
,,,	-8.81023
▁대해	-8.81041
▁감동도	-8.81054
투	-8.81073
▁다큐	-8.81376
▁30	-8.81414
머	-8.81427
▁잼	-8.8161
▁있을	-8.81651
▁생각보다	-8.81686
▁총	-8.81815
▁손	-8.81864
▁같은데	-8.81866
천	-8.82089
▁진정한	-8.82592
▁자기	-8.82659
▁화	-8.82692
▁선	-8.82703
나는	-8.82736
▁재미있어요	-8.8274
▁별점	-8.82888
▁재미있는	-8.8289
▁전쟁	-8.82911
▁나오	-8.82999
▁감동이	-8.83098
▁그대로	-8.83145
학	-8.83225
된다	-8.83352
건가	-8.83574
수준	-8.83576
▁있을까	-8.83591
기도	-8.83815
내가	-8.83969
▁당시	-8.84114
▁재미있다	-8.84397
업	-8.84539
▁야	-8.84545
움	-8.84688
▁찾아	-8.84722
▁인	-8.84797
▁점수	-8.84883
거지	-8.84985
▁열	-8.85194
▁판타지	-8.85313
▁토	-8.85372
▁발연기	-8.85547
▁잔잔한	-8.85607
▁약간	-8.85639
또	-8.85834
▁배우들이	-8.85929
▁봤지만	-8.86094
▁정도로	-8.86172
▁거의	-8.86176
볼	-8.86214
이상	-8.86282
▁했는데	-8.86453
이게	-8.86481
▁죽	-8.86498
남자	-8.86572
평	-8.86606
나요	-8.86607
다고	-8.86685
▁네이버	-8.86784
있고	-8.86791
▁나와서	-8.86859
▁상	-8.8711
창	-8.87223
▁얼굴	-8.87469
했지만	-8.87474
▁뭐야	-8.87636
에도	-8.8778
▁망	-8.87788
▁재밌네요	-8.87928
기에	-8.87982
증	-8.88064
더니	-8.88194
▁등	-8.88471
쓰	-8.88487
▁친구	-8.88558
▁중간에	-8.88575
▁평가	-8.88632
돈	-8.88666
▁있지만	-8.888
해야	-8.88948
▁좋	-8.88973
▁뭐지	-8.89021
▁설정	-8.89047
여자	-8.89155
▁스토리는	-8.89156
편이	-8.89444
▁마음에	-8.89444
▁맘에	-8.89681
▁감동을	-8.89742
보니	-8.89976
▁볼만한	-8.90028
▁말도	-8.90091
▁재미는	-8.90165
8	-8.90574
릴	-8.90668
▁물	-8.90683
▁갑자기	-8.90724
▁제목	-8.90812
0	-8.90849
▁작가	-8.90882
▁전부	-8.90998
▁엄마	-8.91652
▁재미없는	-8.9179
씬	-8.91924
됨	-8.92117
을까	-8.92127
▁ᅳ	-8.9216
▁이영화를	-8.92276
했	-8.92366
에선	-8.92401
▁장면이	-8.92475
론	-8.92605
t	-8.92656
▁보니	-8.92778
가는	-8.928
격	-8.93043
▁엔딩	-8.93197
▁존	-8.93202
▁아이	-8.93308
근	-8.93371
▁악	-8.93451
▁영화임	-8.9348
편은	-8.9368
▁이딴	-8.93729
구요	-8.93735
▁봐야	-8.93805
짐	-8.93913
▁약	-8.93936
별	-8.9395
▁나의	-8.94006
될	-8.94123
교	-8.9431
▁장난	-8.94597
▁어디서	-8.94672
▁영화인데	-8.94694
▁최	-8.94848
▁초딩	-8.94899
근데	-8.95071
었던	-8.95087
▁정신	-8.95141
같이	-8.95217
능	-8.95266
맨	-8.95304
▁분	-8.95309
▁봐서	-8.95319
a	-8.9539
▁현실	-8.95399
▁있어서	-8.95404
▁저런	-8.956
▁훌륭한	-8.9581
9	-8.95858
▁맞	-8.95873
되어	-8.95906
보기	-8.96061
는건	-8.96088
열	-8.96242
들도	-8.9636
난다	-8.96566
▁평	-8.96875
▁외	-8.96968
슬	-8.97311
듯한	-8.97326
땜에	-8.97336
없음	-8.97384
▁얘기	-8.97436
▁아무	-8.97616
~!!	-8.97712
ᄋ	-8.97758
▁아직	-8.97776
▁영화도	-8.97874
r	-8.97889
▁굉장히	-8.97908
▁방송	-8.98015
▁원작을	-8.98119
▁했다	-8.9821
것이	-8.98283
▁새로운	-8.98306
거다	-8.98317
▁하지	-8.98505
들에게	-8.98702
▁항상	-8.98703
▁행복	-8.98771
짓	-8.9879
▁뒤	-8.98799
▁생각하게	-8.99089
왕	-8.99231
▁여주인공	-8.99294
슨	-8.99368
▁어느	-8.99391
욕	-8.99636
니다	-8.9964
막	-8.99654
▁뭐냐	-8.99677
허	-8.99934
▁평점을	-9.00176
▁봤음	-9.00222
▁출연	-9.00334
▁없어서	-9.00398
▁카	-9.00401
락	-9.00416
D	-9.00436
다는	-9.00457
나오는	-9.00503
순	-9.00623
▁유치	-9.00669
▁제가	-9.00715
▁감	-9.00773
▁분위기	-9.0079
▁따라	-9.00791
라서	-9.00827
채	-9.00874
놓고	-9.00998
▁지루	-9.01014
▁포스터	-9.01062
▁좋은영화	-9.01073
▁90	-9.01265
▁들어	-9.01302
▁주인공이	-9.01337
절	-9.01343
해라	-9.01368
▁못하는	-9.01388
▁자체	-9.01481
었	-9.01495
▁아까움	-9.01562
▁비해	-9.01698
할때	-9.01711
▁이런영화	-9.01712
기를	-9.01731
기대	-9.01769
스러운	-9.01771
▁꿀잼	-9.01818
▁그러나	-9.0205
웃	-9.02127
을때	-9.02195
▁호	-9.02296
▁자체가	-9.02353
▁처음부터	-9.02385
▁백	-9.02407
마지막	-9.02485
▁감독님	-9.02488
▁혼자	-9.02608
이라면	-9.02686
뻔	-9.0275
짜	-9.02779
약	-9.03052
베	-9.03063
▁딸	-9.03066
▁스릴	-9.03078
▁예술	-9.03282
▁가지고	-9.03293
▁모습	-9.03293
▁옛날	-9.03366
▁해서	-9.03385
스트	-9.03499
라니	-9.03513
▁대단한	-9.03526
▁하다	-9.03616
▁충분히	-9.03719
▁그런지	-9.03924
▁잡	-9.03976
치는	-9.04185
▁화면	-9.0423
치고	-9.0424
기만	-9.04247
▁삼류	-9.04454
조차	-9.04681
▁각본	-9.04757
▁먹	-9.04837
▁여기	-9.04914
슴	-9.05315
목	-9.05338
▁봐	-9.05373
▁흥행	-9.0547
퍼	-9.05473
▁뭐가	-9.05548
OO	-9.05617
▁잘못	-9.05688
▁사람은	-9.05736
▁있는데	-9.05808
거나	-9.05843
▁tv	-9.05956
행	-9.05967
연출	-9.05988
▁편	-9.06061
좋은	-9.06115
▁그러	-9.0615
에는	-9.06214
▁재밌는데	-9.06236
▁힘	-9.06257
▁오래	-9.06303
♡	-9.06322
▁존재	-9.06446
각	-9.06528
▁만	-9.06536
블	-9.06734
▁점점	-9.06883
▁저는	-9.06987
▁TV	-9.07055
▁빨리	-9.07093
▁시절	-9.07201
▁살아	-9.07222
▁더욱	-9.07234
▁좋네요	-9.0726
향	-9.0733
추	-9.07441
▁안된다	-9.07467
▁봐라	-9.07561
▁일단	-9.07587
처음	-9.07627
거냐	-9.07699
▁졸	-9.07736
b	-9.07746
▁허접	-9.07749
눈	-9.07813
▁똥	-9.07836
되고	-9.07911
▁간	-9.07977
겠지	-9.0819
▁구성	-9.08264
▁것은	-9.08311
▁봄	-9.08331
다시	-9.08421
▁그닥	-9.08436
▁꿈	-9.08476
커	-9.08479
▁순간	-9.08767
▁100	-9.08937
수가	-9.08956
한거	-9.09066
▁높은	-9.09076
▁good	-9.09104
철	-9.09361
▁줄거리	-9.09414
▁글	-9.09472
만한	-9.09765
역시	-9.0978
i	-9.09789
▁성룡	-9.09843
설	-9.09846
좋아	-9.09937
▁웃	-9.10053
시리즈	-9.10097
▁비디오	-9.10312
정도로	-9.1032
▁아쉬운	-9.10382
빠	-9.10516
직	-9.10735
▁좋겠다	-9.10823
▁쳐	-9.10859
▁너무너무	-9.11001
▁망작	-9.11074
년전	-9.11299
지금	-9.11303
▁책	-9.11306
했어요	-9.1137
마다	-9.11426
▁이영화는	-9.1153
배우들	-9.11714
▁개연성	-9.11787
척	-9.11804
▁편집	-9.11808
▁역	-9.11868
▁언제	-9.12093
_	-9.12112
▁짜증	-9.12123
▁도저히	-9.12141
삼	-9.12215
대박	-9.12342
▁배경	-9.12417
빈	-9.12453
▁합니다	-9.12551
▁한마디로	-9.12572
이라니	-9.12721
▁당	-9.12824
언	-9.12858
것같다	-9.12862
▁무조건	-9.13053
▁유치한	-9.13116
▁(	-9.13148
▁낫다	-9.13293
:	-9.13299
▁평점은	-9.13314
별로	-9.13433
▁극장판	-9.13465
소리	-9.13472
▁소리	-9.13835
▁추억	-9.13847
▁나올	-9.13869
혜	-9.13918
좋	-9.13974
복	-9.1398
▁그리	-9.14024
광	-9.14232
▁있어	-9.14254
▁재미없어	-9.14257
▁생	-9.14272
▁그때	-9.14498
▁연	-9.1452
▁보는데	-9.14562
나라	-9.14576
▁천	-9.14687
▁있음	-9.14731
▁없네	-9.14846
▁누구	-9.14907
법	-9.14924
▁돈주고	-9.14954
▁여주	-9.15234
▁다시봐도	-9.15246
▁재밌었다	-9.15277
▁어디	-9.15346
▁모르고	-9.15394
▁전개가	-9.15443
-_-	-9.15544
▁슬픈	-9.15585
처	-9.157
▁감정	-9.15706
y	-9.15748
표	-9.15804
끼	-9.16189
하냐	-9.16264
백	-9.16416
▁어릴때	-9.16459
▁경	-9.16537
▁갈	-9.16562
u	-9.16586
년도	-9.16641
보다는	-9.1673
나오	-9.1677
훈	-9.16771
규	-9.16863
▁엄청난	-9.16997
잇	-9.17025
▁있었다	-9.17195
▁모르는	-9.17261
으니	-9.17282
▁부족	-9.17367
▁댓글	-9.17441
효	-9.17466
▁사랑을	-9.1749
▁자꾸	-9.17551
▁원래	-9.17569
받	-9.17631
,"	-9.17703
▁소설	-9.1798
▁재미없	-9.18061
▁지금까지	-9.18354
재밌	-9.18408
▁알았다	-9.18416
진다	-9.18503
그래도	-9.18568
▁비교	-9.18582
쯤	-9.18659
▁사람들은	-9.18707
▁첫	-9.18711
▁코	-9.18716
▁예전에	-9.18754
▁다음	-9.18774
범	-9.18801
해지는	-9.18821
▁타	-9.18863
린다	-9.18877
았	-9.18982
▁멜로	-9.19067
▁달	-9.19097
▁지루해	-9.1919
주의	-9.19191
▁그게	-9.19215
길래	-9.19275
침	-9.19276
▁역사	-9.19428
▁따	-9.19578
▁오히려	-9.19596
▁따뜻한	-9.19624
▁두번	-9.19633
앗	-9.19748
많이	-9.19978
명작	-9.19994
▁ᄍᄍ	-9.20161
▁된다	-9.20192
▁봤네요	-9.20198
▁이것도	-9.20237
▁재밌어	-9.20243
▁왕	-9.20385
▁관객	-9.20404
▁전형적인	-9.20427
▁올	-9.20533
권	-9.20545
했습니다	-9.20631
외	-9.20701
▁이미	-9.20704
셨	-9.20847
▁변	-9.20949
▁수가	-9.21179
▁바보	-9.21185
▁감독은	-9.21191
▁머리	-9.21308
▁부족한	-9.21423
▁없네요	-9.21513
▁뭔지	-9.21526
▁실	-9.21598
▁헐	-9.21642
사람들	-9.2174
▁몰입	-9.21815
였음	-9.21842
적이고	-9.21885
같다	-9.21965
▁저질	-9.21972
친	-9.2199
▁알게	-9.22066
무슨	-9.22103
▁연출력	-9.22148
했고	-9.22209
▁목소리	-9.22287
▁좋음	-9.22322
h	-9.22349
▁나와	-9.22387
▁만족	-9.22504
▁더럽게	-9.22551
▁80	-9.22732
여서	-9.22736
▁인간의	-9.22778
▁길	-9.22803
▁느낄	-9.22849
▁개그	-9.23008
놈	-9.23125
브	-9.23135
▁병맛	-9.23206
▁휴	-9.23263
어야	-9.23473
▁충격	-9.23676
▁이상한	-9.23714
p	-9.2379
이면	-9.23799
▁메	-9.23808
▁반전이	-9.23946
▁선택	-9.23978
메	-9.24014
▁이야기를	-9.24058
▁번	-9.24138
,,"	-9.24174
▁연출이	-9.24187
었음	-9.24207
▁비슷한	-9.24306
이렇게	-9.24412
말이	-9.24452
▁돈이	-9.24513
지루	-9.24543
▁믿고	-9.24597
▁흠	-9.24613
▁포	-9.2484
찬	-9.25046
칠	-9.25082
▁돌	-9.2513
버린	-9.25151
레이	-9.25213
▁웃음	-9.25226
으나	-9.25232
세요	-9.25358
▁완벽한	-9.25364
▁억지로	-9.25405
▁SF	-9.25431
▁않을	-9.25465
잖아	-9.25468
월	-9.25471
▁낮은	-9.25494
~~~~	-9.25555
▁참고	-9.25593
▁아무것도	-9.25605
▁결혼	-9.25757
▁위	-9.25764
보다가	-9.25766
▁듯한	-9.2579
▁평점에	-9.25803
겠지만	-9.25813
▁잠	-9.25848
좋다	-9.25872
▁앞으로	-9.25945
▁말고	-9.26028
▁대작	-9.2603
윤	-9.26127
▁세계	-9.2623
▁해도	-9.2624
환	-9.26251
▁방	-9.26259
먼	-9.26358
▁예상	-9.26468
▁괜히	-9.26523
인거	-9.26541
츠	-9.26552
분들	-9.26572
▁것이다	-9.2662
새	-9.26626
▁특유의	-9.26627
건데	-9.26628
▁이정도	-9.26757
이냐	-9.2681
▁장르	-9.26817
▁초반	-9.26878
▁만들지	-9.26899
▁가는	-9.26904
▁아닌가	-9.26936
▁어린	-9.27088
▁좋았어요	-9.27103
▁알았는데	-9.27114
▁코메디	-9.27118
출	-9.27122
강추	-9.2723
년에	-9.27476
견	-9.27494
▁현재	-9.27567
▁영화라	-9.27598
땐	-9.27649
간다	-9.27652
▁레	-9.27657
▁성우	-9.2768
▁재밋	-9.27842
▁지금도	-9.27872
끝	-9.27981
▁대한민국	-9.27994
영화다	-9.28069
▁화이팅	-9.28121
보는데	-9.28148
름	-9.28192
께	-9.28321
▁느끼게	-9.28615
낸	-9.28702
▁의미	-9.28738
맞	-9.28766
▁볼수	-9.28816
▁요	-9.28924
이제	-9.28938
▁리	-9.28969
익	-9.29085
▁시청률	-9.29128
▁감사	-9.29215
▁b	-9.29244
▁명	-9.29249
▁아이들이	-9.29324
엇	-9.29361
▁유치하고	-9.29405
▁짜	-9.2946
▁졸라	-9.29469
▁인정	-9.29545
▁힘든	-9.29656
올	-9.29659
▁이리	-9.29869
어도	-9.29894
봐서	-9.29923
▁대단하다	-9.29952
▁감성	-9.29987
▁물론	-9.30022
▁우연히	-9.30029
▁써	-9.30083
▁지루하지	-9.30103
n	-9.30136
른	-9.30152
▁불륜	-9.30158
▁나라	-9.30419
▁과거	-9.30456
▁ost	-9.30496
▁그렇고	-9.30712
함을	-9.30738
▁쓴	-9.30778
▁지나	-9.30838
▁액션도	-9.30896
패	-9.30904
▁데	-9.31094
였는데	-9.3115
▁인물	-9.31153
▁베	-9.31154
▁낮	-9.31182
▁속편	-9.31211
k	-9.31452
혀	-9.31494
▁양	-9.31526
들과	-9.31556
▁이번	-9.31691
▁생각한다	-9.3173
▁패	-9.31751
리고	-9.31831
▁귀	-9.31865
하니	-9.3193
습	-9.31973
점짜리	-9.31997
뜨	-9.32026
코미디	-9.32039
▁감상	-9.32102
▁기대하고	-9.32137
▁실제	-9.32139
▁어렸을때	-9.32158
가서	-9.32196
▁모습이	-9.32276
굿	-9.32302
▁이런거	-9.32318
록	-9.32379
▁없을	-9.32408
하는거	-9.32413
▁않았다	-9.32422
봐라	-9.32433
최고의	-9.32465
▁서로	-9.32511
겠	-9.32511
▁프랑스	-9.32557
느	-9.32586
▁좋았고	-9.3259
틀	-9.32596
▁사회	-9.32678
▁액션영화	-9.32687
▁배우가	-9.327
▁이런걸	-9.32708
▁ᄒᄒᄒ	-9.3272
▁좋았습니다	-9.32882
▁아니지만	-9.32915
▁보이는	-9.33036
▁지난	-9.33042
였	-9.33044
▁또한	-9.3305
▁비추	-9.3318
▁처음으로	-9.33199
g	-9.33322
▁집중	-9.33327
▁질질	-9.33347
▁여배우	-9.33365
................	-9.33437
▁재미없고	-9.33444
▁버	-9.33466
▁나온다	-9.3351
▁복수	-9.33547
▁장면은	-9.33583
▁명작이다	-9.33646
풍	-9.33664
▁영화보다	-9.33697
▁귀여운	-9.33722
▁굳	-9.3374
▁하면	-9.33749
▁재미있고	-9.3377
할수	-9.33795
▁제작	-9.33865
지고	-9.33913
▁같	-9.34123
결	-9.34249
하던	-9.34259
▁맛	-9.34316
▁않음	-9.34333
▁왜이리	-9.34451
품	-9.34499
▁진행	-9.34695
▁찍	-9.34796
▁아닐까	-9.34842
▁늘	-9.34854
▁여성	-9.34874
▁많	-9.34901
점준다	-9.34912
을듯	-9.34954
▁만점	-9.35045
▁나쁜	-9.3515
팬	-9.35182
▁사랑이	-9.35218
▁이유	-9.35348
딱	-9.35372
쉬	-9.35384
▁영상미	-9.35556
시켜	-9.35604
혹	-9.35629
아이	-9.35684
▁처	-9.358
졌	-9.35861
▁있다는	-9.35879
▁새	-9.3592
▁떠나	-9.35945
▁재밌었어요	-9.35966
그러	-9.35977
가족	-9.36011
웃음	-9.36063
덕	-9.36065
▁무서운	-9.36106
▁둘	-9.36121
성이	-9.36155
리가	-9.36274
▁팬	-9.36321
졌다	-9.36331
귀	-9.36355
▁추	-9.36423
▁경찰	-9.36468
▁입니다	-9.36563
▁관람	-9.36671
▁몸	-9.36709
▁하게	-9.36736
▁나이	-9.36779
▁이름	-9.36792
▁순	-9.36847
▁첨	-9.36878
억	-9.3693
합	-9.37052
▁중에	-9.37123
▁보여주	-9.37135
돌	-9.37178
▁그런데	-9.37362
▁왠지	-9.37384
▁겁나	-9.37476
련	-9.37558
▁본다	-9.37613
▁보고나서	-9.37759
▁저도	-9.37773
@	-9.37852
▁숨	-9.37899
▁보여준	-9.38011
▁별루	-9.38083
▁대충	-9.38146
한번	-9.3824
▁무엇보다	-9.38251
▁행동	-9.38258
▁영화였습니다	-9.38348
감독이	-9.38429
▁상상	-9.38478
▁작품이	-9.38522
▁노출	-9.38533
만으로도	-9.3856
책	-9.38686
아깝다	-9.38754
▁하는데	-9.38792
션	-9.38953
▁시간낭비	-9.38972
반전	-9.38979
▁프로	-9.38988
많은	-9.38991
▁살인	-9.39231
▁어색한	-9.39285
▁M	-9.39302
m	-9.39359
방송	-9.39543
▁그런가	-9.39589
▁같습니다	-9.39589
▁잘봤습니다	-9.39734
▁맞는	-9.39752
▁내인생	-9.39804
일까	-9.39829
▁끝나	-9.39839
그런	-9.39848
였던	-9.39889
▁나만	-9.39893
완	-9.39899
였습니다	-9.39948
▁아이들	-9.40005
하긴	-9.40049
▁삶을	-9.40062
ᄉ	-9.40099
▁....	-9.40108
플	-9.40137
들어	-9.4017
더군요	-9.40184
▁일본영화	-9.40284
f	-9.40364
▁전체적으로	-9.40402
맛	-9.40561
료	-9.40595
▁귀신	-9.40686
▁그녀	-9.4086
▁최악이다	-9.40932
▁남주	-9.41068
도록	-9.4107
▁마음을	-9.41172
▁눈이	-9.41279
독	-9.41281
전개	-9.41421
▁싫어	-9.416
▁만들었다	-9.41621
▁통	-9.41707
함이	-9.41735
▁드라마를	-9.41767
▁재미있	-9.41772
▁실화	-9.41793
▁좋았음	-9.4187
▁스토리에	-9.41931
▁화려한	-9.41945
▁이젠	-9.42081
▁스타일	-9.42211
▁문	-9.42272
▁못하고	-9.42312
▁마치	-9.42318
▁노력	-9.42471
분이	-9.42479
▁드	-9.42495
없어	-9.425
으며	-9.4252
▁깊은	-9.42524
이에요	-9.42546
▁이야기가	-9.42565
▁부분이	-9.42647
하여	-9.42754
▁상영	-9.42857
▁범죄	-9.43002
▁매력이	-9.43118
▁먼저	-9.43133
▁진부한	-9.43141
▁영화에서	-9.432
▁성장	-9.43495
사람이	-9.43611
다면	-9.4372
▁확실히	-9.43736
벌	-9.43751
보면서	-9.43751
엄	-9.43756
▁낭비	-9.43774
특히	-9.43836
되지	-9.43843
▁액션이	-9.43843
▁아빠	-9.4396
▁있었던	-9.43967
▁프로그램	-9.44031
▁되어	-9.44082
▁좋았는데	-9.44127
c	-9.44307
손	-9.44424
▁왜이렇게	-9.4455
적이	-9.44589
▁어이없는	-9.44606
찍	-9.44623
▁잘만든	-9.44625
자가	-9.44772
▁나에게	-9.44803
씩	-9.44803
▁다소	-9.4488
려는	-9.44925
렌	-9.4494
했으면	-9.44965
^	-9.45098
▁질	-9.45122
▁팔	-9.45134
하는게	-9.45184
▁힘들	-9.45245
▁느껴지는	-9.45279
싶	-9.45303
▁허접한	-9.45391
작가	-9.45392
거임	-9.45459
▁킬링타임용	-9.45481
햇	-9.45521
▁관계	-9.45562
음악	-9.45697
▁고민	-9.457
▁든다	-9.45774
▁연기력이	-9.45792
▁훨	-9.45832
▁형	-9.45881
▁기분이	-9.45984
ᅲᅲᅲ	-9.46034
▁흥미	-9.46067
▁알아	-9.46162
▁빼	-9.46177
▁자신의	-9.46239
▁해주는	-9.46243
▁스토리와	-9.46245
▁천재	-9.46326
▁같네요	-9.4639
▁드라마가	-9.46437
스럽다	-9.46455
이며	-9.46462
▁너무나도	-9.46485
▁순수한	-9.4649
기가	-9.46516
▁평론가	-9.46642
▁눈을	-9.46813
내요	-9.46822
▁아니면	-9.46857
▁매력적인	-9.46888
▁현	-9.46931
재미없다	-9.46932
▁여자가	-9.46933
▁로맨틱	-9.47002
▁모습을	-9.47053
▁설명	-9.47057
▁완벽	-9.47087
▁죽음	-9.47171
▁했지만	-9.47197
▁역시나	-9.4721
겠네	-9.47216
▁ᄏᄏᄏᄏᄏ	-9.47244
▁마라	-9.47266
▁영화중에	-9.47267
▁지금봐도	-9.47286
▁세상에	-9.47326
▁완성도	-9.4734
▁감사합니다	-9.47413
빨	-9.47423
▁이영화가	-9.47442
▁사건	-9.4748
▁미화	-9.47501
▁이런게	-9.47581
결말	-9.47594
나서	-9.47705
▁해준	-9.47728
▁확	-9.47856
애니	-9.4793
▁찍은	-9.47941
▁답답	-9.48011
있게	-9.48051
▁이후	-9.48082
시간이	-9.48154
▁카메라	-9.4827
▁보지마세요	-9.483
▁까	-9.48307
~^^	-9.48339
일뿐	-9.48349
▁돌려	-9.48421
겟	-9.48487
▁아버지	-9.48598
▁그래	-9.4865
▁역대	-9.48776
▁소재를	-9.48829
▁싶	-9.48896
▁리메이크	-9.48897
▁재미있음	-9.4893
봐야	-9.48987
▁보고싶다	-9.49069
인이	-9.49146
▁처음이다	-9.49235
▁생각해	-9.49244
▁나오고	-9.49267
진심	-9.4928
▁웃긴	-9.49282
걸까	-9.49317
(?)	-9.49319
한데	-9.49364
▁태	-9.49394
▁전에	-9.49414
▁독립영화	-9.49437
▁떨어지는	-9.49649
▁웃기	-9.49664
▁상황	-9.49696
▁별로다	-9.49828
▁-_-	-9.49901
▁예전	-9.49946
▁마무리	-9.49994
▁ᄉᄇ	-9.50069
유치	-9.50107
????	-9.50172
쿠	-9.50196
딸	-9.50228
=	-9.50235
▁자연	-9.5028
▁중간중간	-9.50476
▁저렇게	-9.50477
▁연애	-9.50591
하면서도	-9.50594
속에	-9.50597
▁봤었는데	-9.50627
가지	-9.50691
소재	-9.50757
▁사람을	-9.50765
▁좀비	-9.50838
▁촬영	-9.5085
▁좋을	-9.50988
▁난다	-9.51085
▁바람	-9.51097
것이다	-9.51105
▁아놔	-9.51167
▁트	-9.51184
앙	-9.51204
나온	-9.5122
▁진실	-9.51239
▁그래픽	-9.51255
▁투	-9.51263
▁희생	-9.51268
▁귀엽고	-9.51295
드는	-9.51322
▁영웅	-9.51417
▁아름답다	-9.51461
셔	-9.51496
▁이유가	-9.51507
▁아들	-9.51566
꼭	-9.51566
▁유쾌한	-9.51605
▁나를	-9.51629
야지	-9.51779
▁드는	-9.51842
아닌	-9.51918
▁안하고	-9.51938
▁흥미진진	-9.52047
▁깨	-9.52054
▁크	-9.52089
▁볼때마다	-9.5213
송	-9.52203
잔	-9.52261
▁평범한	-9.52266
다른	-9.52283
▁표절	-9.52306
했을	-9.52307
휴	-9.52317
듬	-9.52385
만든	-9.52394
존	-9.52428
▁온	-9.52494
▁병	-9.52497
▁여운	-9.52512
▁분명	-9.52523
본다	-9.52538
00	-9.5261
▁그림	-9.5261
ᄏᄏᄏᄏᄏᄏᄏᄏᄏᄏᄏᄏᄏᄏᄏᄏ	-9.52747
평점이	-9.52763
▁예쁜	-9.52817
▁C	-9.52875
쇼	-9.52891
▁내용을	-9.52903
▁15	-9.5294
▁설	-9.5299
▁싫다	-9.53006
▁애들이	-9.53023
왔	-9.53088
▁법	-9.53109
▁OST	-9.53137
▁감동적이	-9.53161
▁짓	-9.53231
▁여전히	-9.53239
드라	-9.53258
들아	-9.53264
▁감탄	-9.53264
▁암	-9.53313
준다	-9.53314
▁관	-9.53316
▁종	-9.53332
었어요	-9.53369
▁19	-9.53562
▁교훈	-9.53567
▁안되고	-9.53569
▁수준이	-9.53622
동안	-9.53636
▁궁금	-9.53769
▁아는	-9.53777
탕	-9.53857
▁으	-9.54029
▁용	-9.54065
거리	-9.54094
▁안됨	-9.54165
▁그들의	-9.54245
▁굳이	-9.54267
▁<	-9.54268
총	-9.54304
▁능력	-9.5436
아주	-9.54372
▁흐	-9.54413
▁목	-9.54423
▁소름	-9.54437
▁젤	-9.54475
오빠	-9.54477
엉	-9.54483
▁등장	-9.54594
주고	-9.54674
▁사랑하는	-9.5469
▁아저씨	-9.54769
▁급	-9.54784
▁산	-9.54802
▁사는	-9.54822
우리	-9.54829
실망	-9.5492
▁한편	-9.54949
까진	-9.55008
T	-9.55014
▁소재는	-9.55023
▁재밌었는데	-9.55085
▁정치	-9.55125
▁나가	-9.55158
▁맨	-9.55168
▁아닌데	-9.55188
▁신선한	-9.55317
▁기대를	-9.55318
▁포장	-9.5533
▁아름답고	-9.55356
▁보는게	-9.55408
▁용서	-9.55414
최악	-9.55422
▁나중에	-9.55476
▁평생	-9.55477
▁몰입감	-9.55524
▁삼	-9.55545
았다	-9.55584
~"	-9.55622
▁페	-9.55644
▁독	-9.55672
염	-9.55694
원작	-9.55767
▁했던	-9.55769
▁가진	-9.55832
해주는	-9.55832
▁괴물	-9.55864
▁훌륭	-9.55867
▁과연	-9.55952
▁빠져	-9.56014
▁키	-9.56036
▁집	-9.56048
쪽	-9.56072
따라	-9.5608
▁사극	-9.56154
도없고	-9.56172
▁나서	-9.56237
던지	-9.56246
▁고전	-9.56298
숙	-9.56345
황	-9.56366
▁네	-9.56409
르는	-9.56482
▁짜증나	-9.56491
▁독특한	-9.56552
잉	-9.56595
▁cg	-9.56631
▁짜증나는	-9.56652
하세요	-9.56758
재밌다	-9.56981
취	-9.57043
엄마	-9.57147
▁나왔	-9.57275
▁작	-9.57317
▁있지	-9.5756
추천	-9.5756
▁보기엔	-9.57606
▁윤	-9.57652
▁단순	-9.57672
▁감동적이고	-9.57716
탈	-9.57748
▁꼴	-9.57774
▁다만	-9.57785
내용이	-9.57825
립	-9.57851
주인공	-9.58073
몰	-9.5808
▁권	-9.58128
▁작품성	-9.58147
▁연기와	-9.58198
▁느끼는	-9.58215
▁게임	-9.58334
곡	-9.5835
하려는	-9.58352
▁몰입이	-9.58356
▁느끼	-9.58403
▁열심히	-9.58446
▁연기에	-9.58453
▁현실을	-9.58459
마저	-9.58461
캐릭터	-9.58545
▁라는	-9.5855
▁추천합니다	-9.58582
▁무지	-9.58585
일본	-9.58632
▁우정	-9.58684
▁찾	-9.58787
▁그럭저럭	-9.58827
겁	-9.58884
하시	-9.58887
급영화	-9.59
ᄍᄍ	-9.59042
▁같음	-9.59058
▁만들어진	-9.59082
▁어릴적	-9.59125
는것	-9.5916
▁게이	-9.59194
▁재밌습니다	-9.59206
답	-9.59283
▁끝내	-9.59297
ᄂ	-9.59376
써	-9.59448
▁계	-9.59498
ᄒᄒᄒ	-9.5954
▁있다면	-9.59541
▁티비에서	-9.59568
주세요	-9.59572
재밌게	-9.59613
▁잼있게	-9.59631
▁군대	-9.59673
한듯	-9.59684
▁음악이	-9.5978
싸	-9.59802
▁미래	-9.59843
▁영화지만	-9.59845
특	-9.59965
▁남는다	-9.60038
▁전기세가	-9.60106
▁묘사	-9.60138
▁안되	-9.60222
▁많다	-9.60228
▁악역	-9.60258
▁캐	-9.60266
▁읽	-9.60271
을텐데	-9.60287
▁생각합니다	-9.60317
▁어찌	-9.60334
▁되었다	-9.60347
▁공감이	-9.60407
▁폭력	-9.60426
▁리뷰	-9.6053
▁살짝	-9.60604
▁스토리를	-9.6063
영화중	-9.60704
한국	-9.60711
▁받	-9.60802
▁봤으면	-9.60816
▁통해	-9.60827
지마라	-9.60836
l	-9.60846
▁영화이다	-9.60856
▁인상	-9.60869
▁분들	-9.60914
▁그의	-9.60939
▁디	-9.60989
▁성공	-9.61084
▁뻔	-9.61126
▁높다	-9.61145
▁동화	-9.61181
▁볼만함	-9.6138
▁같아	-9.61382
▁벌	-9.61447
▁나왔으면	-9.6147
보이	-9.61476
▁긴	-9.61512
낼	-9.61531
ᄆ	-9.61535
▁끝나고	-9.61545
▁진심으로	-9.61572
▁청춘	-9.61632
▁딴	-9.61714
보세요	-9.61742
▁덜	-9.61749
▁끌	-9.61759
▁재미없네	-9.61773
더라구요	-9.61816
▁아깝지	-9.61822
▁부분	-9.61826
▁꼬	-9.61858
▁담	-9.61864
변	-9.6189
▁골	-9.61921
%	-9.61938
▁아닌듯	-9.61954
▁친	-9.61978
▁답	-9.61988
거같다	-9.61991
영상	-9.61991
으면서	-9.62054
씨가	-9.62081
▁몸매	-9.62121
튼	-9.62146
▁만큼	-9.62154
량	-9.6217
었으면	-9.62223
▁액션은	-9.62254
▁남을	-9.6229
▁밑에	-9.62307
▁보시길	-9.62331
;;;;	-9.62333
성을	-9.62658
▁슬프다	-9.62667
▁황당	-9.62796
▁영화보고	-9.6287
▁이정도면	-9.62872
득	-9.6292
죄	-9.62975
대사	-9.63021
네여	-9.63039
에겐	-9.63045
*	-9.63066
▁북한	-9.63175
▁심리	-9.63182
▁아깝	-9.63237
▁크게	-9.63289
▁접	-9.63299
ᄃ	-9.63316
▁되게	-9.63356
다운	-9.63379
놓	-9.63391
술	-9.63476
▁일상	-9.63476
▁가지	-9.63478
인생	-9.63614
B	-9.63623
시는	-9.63634
놈들	-9.63642
힌	-9.63681
노잼	-9.63688
깨	-9.63696
었지만	-9.63748
▁말로	-9.63767
빵	-9.63776
▁이건뭐	-9.63792
▁함	-9.63799
사이	-9.63821
▁재밌네	-9.63849
재밋	-9.63916
▁여러	-9.63936
인간	-9.63968
▁있나	-9.63982
▁이유는	-9.64031
▁봤다가	-9.64088
친구	-9.64101
▁놀	-9.64122
닥	-9.64166
▁재미를	-9.64167
시절	-9.64236
▁종교	-9.64249
▁아까워	-9.6425
▁싸	-9.64289
됬	-9.64317
청	-9.64343
▁만든다	-9.64376
니깐	-9.64415
▁떠	-9.64421
▁깊이	-9.64427
w	-9.64472
▁멋있	-9.64502
스릴러	-9.64505
둘	-9.64506
스런	-9.64513
▁홍콩	-9.64576
▁더이상	-9.64579
▁채	-9.64645
났	-9.64702
▁알바들	-9.64743
20	-9.64746
▁성인	-9.64755
었습니다	-9.64785
▁됐	-9.64919
▁춤	-9.64963
▁생각나는	-9.65002
점주는	-9.65055
▁예고편	-9.65113
만으로	-9.652
껄	-9.65212
▁마세요	-9.65255
A	-9.65264
▁젊은	-9.65282
▁티	-9.65318
▁지루해서	-9.65354
애들	-9.65371
▁비주얼	-9.65406
▁싸구려	-9.65429
같	-9.65475
▁드라마는	-9.65497
것을	-9.65502
▁다큐멘터리	-9.65541
▁언제나	-9.65623
▁아쉬움	-9.65706
▁쓰래기	-9.65706
▁티비	-9.65738
▁감동과	-9.65773
프로	-9.65784
는걸	-9.65801
▁얼	-9.65812
▁저예산	-9.65858
율	-9.65901
▁유치함	-9.65991
할듯	-9.66017
시키는	-9.6603
징	-9.66039
였지만	-9.66045
봤던	-9.66051
▁좋습니다	-9.66056
▁멀	-9.6611
▁아오	-9.6613
▁대단	-9.66219
런	-9.66315
▁몰라도	-9.66319
▁재미있네요	-9.66502
에서는	-9.66526
령	-9.66571
더만	-9.66575
▁무섭다	-9.66578
▁뮤지컬	-9.66598
아님	-9.66652
아서	-9.66678
밀	-9.6671
▁세상	-9.66782
하자	-9.66787
▁전달	-9.66802
▁보고싶은	-9.66847
끈	-9.66887
▁유머	-9.66961
▁자막	-9.66971
▁끝나는	-9.67034
나고	-9.6714
▁사랑에	-9.67294
얼	-9.67317
▁봐야할	-9.67327
한영화	-9.67329
찌	-9.67414
충	-9.67442
▁처음엔	-9.67468
▁가볍게	-9.67485
▁잼있	-9.6752
였어요	-9.67536
봤음	-9.67572
▁ᅮ	-9.67585
&	-9.67593
▁가서	-9.67595
▁제목이	-9.67607
차라리	-9.67608
▁어쩔	-9.6771
노래	-9.67727
▁범인	-9.67746
하는지	-9.67749
."""	-9.67838
▁개판	-9.67847
▁없지만	-9.67866
▁만들었	-9.67885
▁바라	-9.67949
▁상상력	-9.67974
▁쉽게	-9.6806
랄	-9.6808
▁싶어	-9.68152
▁시대	-9.68174
▁추억의	-9.68235
▁필요없다	-9.68335
▁삶	-9.68339
전에	-9.68401
솔직히	-9.68406
걸로	-9.68526
▁만들고	-9.68628
▁좋았던	-9.68775
풀	-9.68834
▁스케일	-9.68914
가지고	-9.68936
있어	-9.68991
▁그린	-9.68991
▁사이	-9.69037
▁삶의	-9.69156
봣는데	-9.69168
보는내내	-9.69242
팔	-9.69346
▁그랬	-9.69407
없네	-9.69501
▁현대	-9.69578
▁우리가	-9.69601
▁좋아서	-9.69604
욱	-9.69633
▁극장	-9.69683
▁그럼	-9.69719
내용도	-9.69769
▁보여	-9.69867
▁풀	-9.6989
▁그다지	-9.70213
▁만나	-9.70241
▁엉성한	-9.70254
▁소재로	-9.70262
는건지	-9.70287
있었	-9.70294
것은	-9.7037
스타	-9.7039
편보다	-9.70405
▁주인공의	-9.70418
,,,"	-9.70474
▁못했다	-9.70508
ᅡ	-9.70598
▁홍보	-9.70615
▁가끔	-9.70634
▁필요없는	-9.70801
▁어제	-9.70807
▁올리	-9.70837
럽	-9.70875
나올	-9.71005
페	-9.7101
▁이러	-9.71013
제목	-9.71035
에요	-9.71075
고싶다	-9.71132
▁이어	-9.71171
er	-9.71206
▁자신	-9.71217
▁스타	-9.71276
▁소재가	-9.71329
현실	-9.7138
▁불구하고	-9.71392
꼬	-9.71449
▁그걸	-9.71489
▁제작진	-9.71543
낮	-9.71551
▁재밋다	-9.71564
!!"	-9.71589
▁현실성	-9.7159
먹고	-9.71638
▁유치하다	-9.71649
버렸다	-9.71705
놓은	-9.71906
▁힐링	-9.71939
▁배우의	-9.71961
하라	-9.72094
▁재미있었다	-9.721
▁재밋게	-9.72159
▁반성	-9.72199
▁많아	-9.72236
▁70	-9.72259
ᄀ	-9.72272
▁슬픔	-9.72276
갑	-9.72411
▁찍어	-9.72421
▁있었	-9.7252
던가	-9.72529
속에서	-9.72639
▁이제야	-9.72665
것만	-9.72678
▁운	-9.72686
▁다시한번	-9.7269
막장	-9.72707
갔	-9.72791
▁딱히	-9.72806
만화	-9.72834
▁둘다	-9.72856
▁지루할	-9.72859
시고	-9.7301
▁생애	-9.73056
▁최근	-9.73185
▁슬프고	-9.73218
▁어려운	-9.73233
S	-9.73267
▁소녀	-9.73269
답답	-9.73279
▁광고	-9.73285
▁건지	-9.73296
▁놓	-9.73296
▁볼만하다	-9.73346
▁뛰어난	-9.73356
▁빈	-9.73396
▁회	-9.73455
▁말을	-9.73455
▁웃기고	-9.73479
▁발전	-9.73503
▁조폭	-9.73607
▁보이	-9.73608
▁되지	-9.73637
요즘	-9.73696
▁낮아서	-9.73732
부분	-9.73755
하려고	-9.73822
번째	-9.73865
▁있게	-9.73868
▁연출도	-9.73877
▁달라	-9.73956
십	-9.73968
▁아름다움	-9.73974
▁헐리우드	-9.74072
공포	-9.74076
▁캐릭터들	-9.74096
감이	-9.74115
그래	-9.74124
필요	-9.74126
▁죄다	-9.74139
▁맥	-9.74179
안되	-9.74458
▁눈물을	-9.74586
▁연속	-9.7459
▁정말로	-9.74607
▁벗	-9.74622
▁했	-9.74646
▁시간을	-9.74691
▁중간	-9.74759
▁복	-9.74767
▁있습니다	-9.74774
▁잊혀지지	-9.74779
▁현실적인	-9.74779
▁표	-9.74796
골	-9.74919
C	-9.74962
킬	-9.74966
▁글쎄	-9.74978
년전에	-9.75035
놀	-9.75059
있음	-9.75081
▁볼수록	-9.75094
▁잔인한	-9.75124
▁넣	-9.75181
▁동물	-9.75193
▁없나	-9.7521
▁멋지다	-9.75285
♥♥	-9.75314
▁봣는데	-9.7532
▁드럽게	-9.75322
▁자유	-9.75323
▁;;	-9.75372
▁섹스	-9.75419
값	-9.75448
▁보았다	-9.75488
봉	-9.75497
눈물	-9.75501
▁남겨	-9.75524
▁사랑스러운	-9.75545
▁ᄃᄃ	-9.756
▁후반부	-9.75662
▁않아	-9.75683
▁각	-9.7569
▁산으로	-9.75734
에대한	-9.75749
▁의심	-9.75777
리스	-9.75817
▁12	-9.7592
려서	-9.75924
▁영화냐	-9.7594
와서	-9.76056
▁반전도	-9.76113
▁아마	-9.76142
▁압권	-9.76184
폐	-9.76268
▁힘들다	-9.76395
▁신선	-9.76417
▁짱짱	-9.76484
응	-9.7653
나게	-9.7656
▁평이	-9.76575
▁+	-9.76649
클	-9.76697
▁방금	-9.76766
관계	-9.76834
▁다르	-9.76914
일이	-9.77013
▁않게	-9.7702
ᄏᄏᄏᄏᄏ	-9.77027
▁A	-9.77051
▁느와르	-9.77087
얘기	-9.77099
▁사람의	-9.7712
로서	-9.77127
인가요	-9.77136
▁그렇다	-9.77153
▁사랑과	-9.7717
▁점수를	-9.77214
▁좀더	-9.77233
▁기본	-9.77348
▁에로	-9.77395
▁문화	-9.77444
암	-9.77519
▁어이가	-9.77529
▁뻔하고	-9.77541
▁어머니	-9.77673
오늘	-9.77678
▁하면서	-9.77707
▁광	-9.77804
랜	-9.77855
▁미드	-9.77856
▁남아	-9.77923
▁대화	-9.77934
릭	-9.77949
▁쫌	-9.78125
▁분노	-9.78182
해보	-9.78186
▁무섭	-9.78194
▁생각없이	-9.78216
▁민	-9.78246
▁되고	-9.78252
▁인생을	-9.78314
▁청소년	-9.78409
▁웃겨	-9.78436
링	-9.78453
점준	-9.7847
▁청	-9.7848
▁사기	-9.78482
봣	-9.78488
▁돌아	-9.78535
기억	-9.78615
좋고	-9.78647
▁보지마	-9.78732
나와	-9.78749
언니	-9.78776
버리는	-9.78778
▁죽는	-9.78787
들만	-9.78822
j	-9.78833
▁하네요	-9.78835
▁고생	-9.7887
한다는	-9.78892
면서도	-9.78913
▁결말도	-9.78965
▁거지	-9.79018
▁한심	-9.7906
▁떠나서	-9.79063
▁중요한	-9.79071
곤	-9.79142
▁동생	-9.79154
▁디즈니	-9.79239
접	-9.79282
▁올해	-9.79366
▁포기	-9.79389
▁이쁜	-9.79425
세기	-9.79431
▁보니까	-9.79431
▁해야	-9.79487
머리	-9.79555
▁여기서	-9.79567
▁짠	-9.79588
▁빌려	-9.79603
로써	-9.79668
]	-9.79695
영화의	-9.79762
자체가	-9.79816
▁제작비	-9.79913
▁식	-9.79914
높	-9.79948
설정	-9.79978
으로써	-9.79979
옥	-9.80084
▁희망	-9.80106
▁쵝오	-9.80131
▁결말은	-9.80142
▁음악도	-9.80177
▁유명	-9.80187
▁안보고	-9.80197
▁느낀	-9.80205
시대	-9.80219
연기가	-9.80224
만들어	-9.80236
킨	-9.80353
▁이해할	-9.80373
했어	-9.80484
▁나옴	-9.80505
최	-9.80612
인것	-9.80653
▁즐겁게	-9.80738
ᄃᄃ	-9.80745
한게	-9.8076
▁시사회	-9.80764
▁리얼	-9.80818
▁국	-9.8084
▁시트콤	-9.80951
▁하루	-9.80952
▁이런영화가	-9.80969
같음	-9.81077
뜻	-9.81108
▁I	-9.81141
▁표현한	-9.81145
돼	-9.81223
▁안돼	-9.81259
배우들의	-9.81308
▁틀	-9.81333
대는	-9.81367
▁남자가	-9.81368
지않은	-9.8138
에서도	-9.8142
▁레전드	-9.81442
▁재미없어요	-9.81445
계속	-9.81462
▁의도	-9.81466
했는지	-9.81486
▁주제	-9.81531
▁누	-9.81547
▁단연	-9.81549
▁몰입해서	-9.81592
▁조연	-9.81595
▁높아	-9.81652
▁팬이	-9.81741
▁빼고	-9.81781
▁40	-9.81784
영화라고	-9.81808
▁속에	-9.81833
▁금	-9.81835
▁멋	-9.81943
잠	-9.82018
▁줌	-9.82127
연기력	-9.82161
▁헤	-9.82181
▁못한다	-9.82223
힐	-9.82321
ᄅ	-9.82323
▁보인다	-9.82324
▁볼거리	-9.82384
▁취	-9.82394
▁않나	-9.82454
인의	-9.82472
▁말하는	-9.82485
▁시걸	-9.82541
^^"	-9.82604
만들	-9.82648
▁어른	-9.82654
▁알았	-9.82663
▁내려	-9.82665
▁멍청한	-9.82687
하지도	-9.82708
▁모든게	-9.82847
▁초반에	-9.8285
첨	-9.82909
▁재밌었음	-9.82931
엘	-9.82966
▁끝이	-9.82973
모르	-9.83024
▁봤을	-9.83086
한건	-9.83094
개봉	-9.83096
▁느낌을	-9.83104
말고	-9.83153
떄	-9.83219
▁있네요	-9.83263
▁있어요	-9.83291
▁재밌을	-9.83321
거라	-9.83324
예요	-9.83333
▁안타깝다	-9.83357
"""""""	-9.83369
▁나오면	-9.83394
▁유쾌하고	-9.8341
▁헐리웃	-9.83425
▁뜻	-9.83541
▁전편	-9.83568
▁않지만	-9.83576
괴	-9.8361
--	-9.83685
▁시대를	-9.83714
▁시도	-9.83744
▁공부	-9.83816
▁탄탄한	-9.83878
점수	-9.83883
▁국민	-9.83895
▁흔한	-9.83896
▁ᅲᅲᅲ	-9.83923
▁멋있다	-9.83948
▁교	-9.84062
▁먼	-9.84085
졸	-9.84112
▁갈등	-9.84157
알바	-9.84157
겁니다	-9.84203
좋아요	-9.84205
▁몇번을	-9.84218
▁허세	-9.84285
시간에	-9.84361
무비	-9.84421
님의	-9.84429
▁모르겠고	-9.84449
▁에피소드	-9.84493
했네요	-9.8451
▁한데	-9.84517
▁장면에서	-9.84597
▁견자단	-9.84632
▁표정	-9.84683
▁잊지	-9.84732
있는데	-9.84781
땅	-9.84837
▁영화에요	-9.84955
▁작가가	-9.8497
롱	-9.84977
▁이거보고	-9.84979
사람은	-9.85024
제발	-9.85027
▁따뜻해지는	-9.85048
........	-9.85167
짝	-9.85171
지않고	-9.85232
▁연예인	-9.85307
▁못해	-9.85372
필	-9.85376
▁어색	-9.85406
늘	-9.85534
시작	-9.85559
▁집에서	-9.85563
▁우울	-9.85606
▁설레	-9.85623
▁맨날	-9.8567
▁노답	-9.85758
하다가	-9.85771
▁순수	-9.85776
▁이후로	-9.85779
시즌	-9.85787
킹	-9.85793
▁주인공들	-9.85848
▁명작이	-9.85848
▁로봇	-9.85882
모든	-9.86128
연기도	-9.86205
전쟁	-9.86221
v	-9.86236
▁무엇을	-9.86245
▁스스로	-9.86271
▁작품을	-9.86328
▁진리	-9.86349
re	-9.86365
▁돌아가	-9.86375
x	-9.86397
▁재미있었어요	-9.86411
▁같아서	-9.86413
▁단지	-9.86415
▁벌써	-9.8642
재밌어요	-9.86457
안에	-9.8646
사는	-9.86479
▁받았	-9.86548
함과	-9.86577
▁있으면	-9.86611
▁싫	-9.86624
▁인기	-9.86684
떠	-9.867
▁보고나면	-9.86719
▁50	-9.8676
되서	-9.86766
부작	-9.86816
▁코난	-9.86958
▁잔잔하고	-9.86959
▁환상	-9.86975
▁좋았지만	-9.86975
▁필요한	-9.86983
▁킬링타임	-9.87008
▁다행	-9.87019
▁생각하는	-9.87072
▁야한	-9.87095
이해	-9.87167
▁대사가	-9.87168
▁없는데	-9.87186
끔	-9.87211
▁안나오	-9.87263
▁오바	-9.87283
▁씨	-9.87305
▁몰랐	-9.87347
뭔가	-9.87419
▁지금은	-9.87423
▁하는지	-9.87447
▁옛날에	-9.87452
▁웃음이	-9.87523
았던	-9.8762
▁느낄수	-9.87655
▁풍	-9.87658
▁섹시	-9.87679
▁ᄋᄋ	-9.87698
ᅵ	-9.87807
▁the	-9.87809
▁뭉클	-9.87809
▁더불어	-9.8781
재밌음	-9.87849
▁쓸	-9.87874
엿	-9.87879
▁빠	-9.87881
▁니	-9.87912
▁아이돌	-9.87961
족	-9.87966
▁싶네요	-9.87968
▁무섭지도	-9.87982
와는	-9.88037
▁왜케	-9.88142
영화로	-9.88159
▁발로	-9.88166
▁높	-9.8817
공감	-9.88179
▁전작	-9.88193
었어	-9.88199
영화임	-9.88209
▁갑	-9.88224
▁배우들도	-9.88245
▁미모	-9.88262
▁단순한	-9.8829
▁채널	-9.88338
▁무비	-9.88369
▁있어야	-9.88389
홍	-9.88512
짜증나	-9.88575
▁베스트	-9.88693
▁나오지	-9.88743
▁흐름	-9.88785
▁슬프	-9.88798
▁영국	-9.88854
▁유명한	-9.88861
▁인간이	-9.88981
▁못할	-9.88982
O	-9.88993
▁자살	-9.89045
▁일이	-9.89056
줘야	-9.89061
▁해석	-9.89138
▁이쁘고	-9.89151
▁:	-9.89153
▁지루하게	-9.89183
자는	-9.89198
▁이쁘다	-9.8923
오는	-9.89241
▁좋게	-9.89249
새끼	-9.89257
▁한참	-9.89258
▁"""""""	-9.89375
이었음	-9.89386
흐	-9.89408
▁이연걸	-9.8941
시킨	-9.89456
▁철	-9.89479
봐요	-9.89584
껏	-9.89587
탁	-9.89623
▁끌어	-9.89626
▁임	-9.89657
▁열정	-9.89699
끝까지	-9.89783
▁없었던	-9.89804
▁아쉽네요	-9.89829
지를	-9.89836
▁누구나	-9.89877
▁굿굿	-9.89899
▁한계	-9.89907
▁비극	-9.89955
▁암튼	-9.89966
매력	-9.89979
▁더러운	-9.89981
▁클	-9.90022
▁나쁘지	-9.90026
▁좋았을	-9.90077
들고	-9.90112
▁넘어	-9.90127
▁유쾌	-9.90139
씨의	-9.90142
만큼은	-9.90161
▁에휴	-9.90167
▁여행	-9.90202
웠	-9.90206
있네	-9.90247
▁떨	-9.90252
▁제로	-9.90343
▁불편	-9.90355
문제	-9.90379
▁와우	-9.90409
▁보고싶	-9.90417
▁생각하고	-9.90467
감독의	-9.9048
▁여자들	-9.90529
▁죽여	-9.9054
▁격	-9.9056
▁씬	-9.90604
▁엉성	-9.90652
▁정서	-9.90668
▁황	-9.90687
▁개연성이	-9.90716
▁괜찮다	-9.90786
▁신기	-9.90815
▁전체	-9.90825
▁지루했다	-9.90846
▁극치	-9.90868
▁펑펑	-9.90871
마지막에	-9.90896
▁보길	-9.90923
쓴	-9.90924
▁없었	-9.90927
▁즐거운	-9.90945
편을	-9.90997
있나	-9.91027
▁적당	-9.91051
▁덕분에	-9.91068
하려	-9.91153
.......	-9.9118
▁대부분	-9.9121
만이	-9.91211
▁부터	-9.91231
▁되었	-9.91263
▁쩐다	-9.91314
▁의리	-9.91344
▁짝퉁	-9.91359
▁십	-9.91414
▁작은	-9.91428
▁우주	-9.91471
▁빼고는	-9.9155
▁퀄리티	-9.91592
▁말할	-9.91624
OOO	-9.91628
▁아줌마	-9.91631
▁밀	-9.917
세계	-9.91775
▁부족하다	-9.91812
이걸	-9.91815
▁꺼	-9.91819
▁카리스마	-9.91859
▁호러	-9.91895
▁상처	-9.9192
리지	-9.91923
▁탈	-9.91936
▁그럴	-9.9194
▁부모	-9.91969
▁감정을	-9.92004
상황	-9.92008
▁관객들	-9.92021
▁영화였어요	-9.92022
시키	-9.92122
이였다	-9.92181
▁누군가	-9.92311
됐	-9.92342
▁완전히	-9.92393
힘	-9.92441
▁삶에	-9.92536
▁지구	-9.92543
▁힘이	-9.92569
받는	-9.92573
슈	-9.92578
굴	-9.92597
▁눈에	-9.92606
▁봤더니	-9.92616
▁착한	-9.92654
▁의외로	-9.92678
▁달리	-9.9271
▁c	-9.92729
▁연기력도	-9.92814
▁작품이다	-9.92826
▁박수를	-9.92844
장면이	-9.93013
▁신선하고	-9.93014
▁몰	-9.93028
▁질리지	-9.93062
하다니	-9.93084
▁넘치는	-9.93092
하구	-9.93112
▁귀엽	-9.93129
▁좋겠어요	-9.93154
▁조합	-9.93162
▁푹	-9.93169
▁시각	-9.93247
▁관심	-9.93264
▁볼게	-9.93368
▁영화인듯	-9.9337
▁인생의	-9.93395
▁말하고	-9.93409
똥	-9.93566
북	-9.93587
▁웃김	-9.93616
▁울었다	-9.93626
하신	-9.93628
▁다룬	-9.93643
갔다	-9.93665
▁일품	-9.93677
▁역대급	-9.93687
▁밥	-9.93784
▁보내	-9.93812
해진다	-9.93853
▁이쁘	-9.93854
▁있던	-9.93858
▁본인	-9.93921
이라서	-9.93952
엔딩	-9.94005
모습	-9.94031
▁본다면	-9.94038
▁피해자	-9.94041
▁용기	-9.94068
명이	-9.94069
식으로	-9.9407
였고	-9.94075
▁좋지만	-9.94132
▁실제로	-9.94179
받고	-9.94191
씬은	-9.94241
▁착	-9.94241
아깝	-9.94315
▁들어가	-9.94316
▁찡	-9.94369
▁영어	-9.94373
▁나왔다	-9.94416
개도	-9.94457
홀	-9.94569
▁논	-9.94573
배경	-9.94671
지않는	-9.94674
공포영화	-9.9471
▁13	-9.94778
▁양심	-9.94787
▁그렇다고	-9.94815
한다면	-9.94819
▁기대했는데	-9.94836
▁진정	-9.94926
▁눈빛	-9.94974
당시	-9.94981
기분	-9.95026
르고	-9.9503
▁뜨	-9.9504
▁시선	-9.95042
▁받아	-9.95047
이니	-9.95048
▁포르노	-9.95082
해진	-9.95085
▁믿	-9.95087
▁어린이	-9.95101
▁경험	-9.95111
▁김기덕	-9.95113
착	-9.95251
▁재밌다고	-9.95277
▁우와	-9.95362
▁웃기지도	-9.95382
감독님	-9.95426
▁연결	-9.95449
▁명품	-9.95455
기엔	-9.95457
져서	-9.9556
▁가능	-9.95582
▁긴장	-9.95589
▁이해하기	-9.956
▁뒷	-9.95607
▁끝난	-9.95659
▁할까	-9.95698
삶	-9.95745
▁평범	-9.95779
▁좋아해서	-9.95792
▁비판	-9.95806
▁음악과	-9.9586
그래서	-9.95894
▁게다가	-9.95929
한것	-9.95952
절대	-9.95977
자의	-9.96012
▁후반	-9.96027
▁엉망	-9.96047
사가	-9.96049
▁젠장	-9.96066
▁꿈을	-9.96097
버리고	-9.96101
▁007	-9.96185
▁울고	-9.96231
▁뭐라	-9.96234
▁18	-9.96241
▁!!	-9.96257
on	-9.96292
▁가치	-9.9636
째	-9.96422
▁자극	-9.96447
했네	-9.96474
멋	-9.96492
짜증	-9.96554
이런영화	-9.96569
▁많고	-9.96594
▁최고입니다	-9.96594
감을	-9.96611
▁잼있다	-9.96636
사람들이	-9.96639
▁직접	-9.96641
▁역할	-9.96652
▁지나치게	-9.96679
보자	-9.96685
▁어휴	-9.96691
밥	-9.9671
▁불쌍	-9.9674
택	-9.96749
젤	-9.96764
인건	-9.9677
캐	-9.96776
▁출연진	-9.96783
▁수도	-9.96793
▁보았	-9.96816
▁앞	-9.96818
내고	-9.96862
▁훈훈한	-9.9689
중의	-9.96948
려면	-9.9697
it	-9.96988
▁낚	-9.96995
줘	-9.96996
▁크리스마스	-9.96997
▁흥미로운	-9.96997
▁어처구니	-9.97003
▁웃기다	-9.97041
▁s	-9.97091
나옴	-9.97115
억지	-9.97197
▁S	-9.97314
나와서	-9.97344
▁악당	-9.97355
▁의미를	-9.97357
▁손발이	-9.9739
형님	-9.97396
▁고양이	-9.97438
▁이미지	-9.97458
▁멍청	-9.97479
▁로그인	-9.97573
하시는	-9.97598
웅	-9.97605
사회	-9.97614
넹	-9.97667
▁위대한	-9.97668
▁좋았으나	-9.97677
얼굴	-9.97839
▁긴장감도	-9.97848
더빙	-9.97854
▁시청	-9.9791
살아	-9.97924
▁개봉한	-9.97924
▁답답한	-9.97952
부족	-9.9796
기위해	-9.97961
주연	-9.98013
▁똑같은	-9.98073
무섭	-9.98093
혼	-9.98152
▁보여준다	-9.98172
쩌	-9.98177
▁먹고	-9.98196
편도	-9.98211
잼있	-9.9825
▁신경	-9.98325
▁동안	-9.98385
람	-9.9844
▁칼	-9.98464
▁학교에서	-9.98464
롭	-9.98489
▁좋았	-9.98496
▁빨	-9.98556
할까	-9.98615
▁못함	-9.98619
지말고	-9.98699
콜	-9.987
버리	-9.98707
▁모르게	-9.98711
▁잠깐	-9.98714
▁출	-9.98735
▁봤을때	-9.98765
재미없	-9.98765
▁오버	-9.98795
몽	-9.98829
▁사랑은	-9.98847
사람들은	-9.98851
//	-9.98876
어떻게	-9.98911
받은	-9.98928
▁아이가	-9.98931
텐데	-9.98941
▁왠	-9.98974
▁한국인	-9.98983
▁뿐이다	-9.99025
겟다	-9.99068
버림	-9.99089
or	-9.99097
▁외계인	-9.99115
▁간다	-9.99159
?!	-9.9916
▁모르겠지만	-9.99243
!!!!!	-9.99265
▁철학	-9.99268
줬다	-9.99405
▁관한	-9.99422
▁지켜	-9.99427
▁외모	-9.99428
▁이것	-9.99594
▁모르	-9.99665
▁꽝	-9.99685
을수	-9.99685
냥	-9.99705
온다	-9.99712
퇴	-9.9973
으론	-9.99747
▁대해서	-9.9985
구성	-9.99875
▁정의	-9.99896
따위	-9.9994
▁마이너스	-9.99974
▁디테일	-10.0004
▁보며	-10.0008
▁심하게	-10.001
▁막판에	-10.0015
▁앞으로도	-10.0016
▁그거	-10.0017
▁한심한	-10.0021
▁군	-10.003
년만에	-10.003
▁괜찮은데	-10.0033
▁선생님	-10.0035
▁아나	-10.0036
줌	-10.0037
점줌	-10.0042
인들	-10.0044
▁요소	-10.0047
▁따로	-10.0049
▁짜증난다	-10.0055
딩	-10.0056
▁한명	-10.0057
▁"1	-10.006
▁폭	-10.006
있어서	-10.0061
▁생각함	-10.0066
▁가슴에	-10.0072
냉	-10.0082
모두	-10.009
표현	-10.0091
긴한데	-10.0095
▁맘	-10.0097
정신	-10.01
치곤	-10.0105
.........	-10.0108
▁붙	-10.0108
편의	-10.0109
▁안보	-10.0116
▁주기	-10.0117
▁죽은	-10.012
▁커플	-10.0122
하기만	-10.0124
▁스트레스	-10.013
▁생각하면	-10.0131
▁좋아할	-10.0137
▁싸이코	-10.0143
어쩌	-10.0149
▁레알	-10.015
났다	-10.0153
▁무언가	-10.0153
어린	-10.0154
▁이유를	-10.0155
끝나	-10.0159
▁지루하	-10.016
▁참신	-10.0167
▁홍콩영화	-10.017
웃기	-10.0174
▁행복한	-10.0182
콘	-10.0183
▁학교	-10.0185
으로서	-10.0188
▁대중	-10.0192
▁밤	-10.0195
▁하는거	-10.0196
▁결정	-10.0197
먹는	-10.0199
▁남녀	-10.0203
▁속에서	-10.0206
▁미안	-10.0206
돌아	-10.0211
▁터	-10.0211
▁읽어	-10.0212
▁DVD	-10.0215
▁악마	-10.0216
좋아하는	-10.0216
▁반개도	-10.0216
초반	-10.0217
줘서	-10.0218
E	-10.0218
▁색	-10.022
아무리	-10.0231
점이다	-10.0233
소설	-10.0233
▁졸리	-10.0235
▁보긴	-10.0242
때부터	-10.0243
지도않고	-10.0244
탓	-10.0244
▁바꿔	-10.0249
▁케이블	-10.0253
▁싶은데	-10.0253
▁재밌었	-10.0263
▁긴장감이	-10.0265
..;;	-10.0266
▁남자의	-10.0277
쳤	-10.028
▁살고	-10.0281
드리	-10.0282
그리	-10.0285
▁한국영화는	-10.0287
했다는	-10.0288
▁않을까	-10.0294
▁전문가	-10.0295
▁무협	-10.0297
30	-10.0298
▁싶지	-10.0298
▁빠진	-10.03
납니다	-10.03
▁자신이	-10.03
▁깨닫게	-10.0303
▁변태	-10.0304
▁뇌	-10.0305
ing	-10.0305
▁방영	-10.0308
▁우리의	-10.0313
▁설마	-10.033
M	-10.033
▁재밌던데	-10.0332
꼴	-10.0332
I	-10.0334
11	-10.0337
▁까지	-10.0342
▁연기자들	-10.0344
▁추억이	-10.0346
▁한마디	-10.035
▁쓰레기다	-10.0357
장난	-10.0359
▁죽이는	-10.0367
▁꾸	-10.0368
▁가득	-10.0372
▁위로	-10.0372
▁낚시	-10.0373
▁전설의	-10.0375
▁화가	-10.0376
▁없어요	-10.0385
▁맞아	-10.0409
하기도	-10.0411
편에	-10.0418
보게	-10.0418
▁있구나	-10.0422
▁없습니다	-10.0424
▁않았	-10.0425
▁드립니다	-10.0432
▁전개도	-10.0432
▁실력	-10.0433
도아니고	-10.0439
▁진부하고	-10.0443
스타일	-10.0447
▁주성치	-10.0448
엇다	-10.0449
▁거짓말	-10.0453
▁일어나	-10.0454
▁못하다	-10.0455
▁장르가	-10.0457
▁빵점	-10.0463
▁월	-10.0467
영화에	-10.0471
▁왠만하면	-10.0475
센	-10.0475
▁개뿔	-10.0479
▁풍경	-10.0481
▁탑	-10.0481
▁조화	-10.0485
▁중에서	-10.0489
▁사람들의	-10.0493
▁근	-10.0496
▁들었다	-10.0497
▁영화관	-10.0497
▁감동적이다	-10.0498
간의	-10.05
▁아픈	-10.0502
▁잊을	-10.0504
만의	-10.0511
ᄇ	-10.0519
줬	-10.0521
꾸	-10.0529
봤어요	-10.0531
▁야동	-10.0534
▁통쾌	-10.0535
나온다	-10.0535
시다	-10.0536
▁점수가	-10.0545
떨	-10.0549
장르	-10.0553
수도	-10.0555
이자	-10.0555
▁라고	-10.0565
▁패러디	-10.0569
▁없다는	-10.0572
▁소름이	-10.0572
▁재미잇	-10.0573
▁마이클	-10.0573
▁모두가	-10.0574
▁메시지	-10.0575
▁망한	-10.0576
▁재미없게	-10.0576
▁도전	-10.0577
력이	-10.0579
▁보려	-10.0583
지가	-10.0592
▁원작이	-10.0594
빨리	-10.0596
▁잼있어요	-10.0604
▁자신을	-10.0606
누나	-10.061
▁그렇지	-10.061
도대체	-10.0612
▁이하	-10.0612
▁인해	-10.0613
▁본거	-10.0619
리를	-10.0622
▁기자	-10.0623
내는	-10.0628
것같아요	-10.0628
`	-10.0631
팅	-10.0632
혈	-10.0632
▁이제서야	-10.0634
▁없지	-10.064
▁느껴진다	-10.0643
▁실패	-10.0643
▁국내	-10.0644
▁잔	-10.0645
▁됨	-10.0646
으니까	-10.0657
▁본영화	-10.0665
즘	-10.0673
긴장감	-10.0678
밤	-10.0678
허접	-10.0683
▁있는지	-10.0687
▁사랑의	-10.0689
▁작품은	-10.069
▁자주	-10.0696
▁기대안하고	-10.0702
▁개막장	-10.0706
묘	-10.0707
▁좋아하는데	-10.0708
▁할머니	-10.0712
▁어렸을	-10.0718
지루함	-10.072
거같은데	-10.0725
임에도	-10.0726
▁필	-10.0726
▁작가님	-10.0727
▁세상을	-10.0729
▁괜찮	-10.0739
▁아내	-10.074
픈	-10.0741
렁	-10.0746
칸	-10.0746
▁말도안되는	-10.0747
스키	-10.077
학년	-10.0782
옴	-10.0787
▁몇몇	-10.0788
샤	-10.079
▁해피엔딩	-10.079
순간	-10.0793
▁창	-10.0794
▁조작	-10.0798
▁않네요	-10.0799
▁무술	-10.0805
놨	-10.0805
▁죽는줄	-10.0805
속의	-10.0806
년도에	-10.0806
새끼들	-10.0807
▁뒤로	-10.0814
두고	-10.0815
감정	-10.0815
▁낮다	-10.082
▁받는	-10.0823
▁평점보고	-10.0825
없어서	-10.0838
▁영화들	-10.084
▁이때	-10.0845
▁보여주고	-10.0846
▁보았습니다	-10.0847
an	-10.0854
누	-10.0856
▁ᄋ	-10.0857
생각이	-10.086
▁찍었	-10.0862
▁보려고	-10.0862
▁불쾌	-10.0864
까지는	-10.0868
▁필름	-10.0868
▁사랑이야기	-10.0876
쁘	-10.0877
▁하나하나	-10.0884
▁빠지	-10.0884
▁만든영화	-10.0888
한다고	-10.0894
▁받을	-10.0902
벨	-10.0906
틴	-10.0909
▁쩝	-10.0909
축	-10.0911
▁원작의	-10.0912
보지	-10.0913
▁어린시절	-10.0913
관객	-10.0915
♥♥♥	-10.0915
▁주변	-10.0918
자리	-10.0918
▁특별한	-10.0918
▁떨어지	-10.0921
▁본방사수	-10.0922
나오고	-10.0934
▁놀라	-10.0937
,,,,	-10.0947
럼	-10.095
▁절	-10.0951
미국	-10.0953
▁돋	-10.0955
▁캐릭터가	-10.0956
▁참으로	-10.0962
▁나은	-10.0963
▁웬	-10.0964
멘	-10.0965
0%	-10.0967
압	-10.0974
▁술	-10.0974
옹	-10.0976
칙	-10.0977
뻔한	-10.0979
쉽	-10.0979
했었는데	-10.098
▁독특	-10.0983
▁11	-10.0984
▁왜이래	-10.0987
▁판	-10.0988
▁감히	-10.0989
▁감동적	-10.0992
▁재미와	-10.0992
▁죽을	-10.0996
거리는	-10.0997
▁떨어진다	-10.1003
▁내면	-10.1006
▁살려	-10.1011
▁낫	-10.1012
▁잔뜩	-10.1015
건가요	-10.1017
▁의미가	-10.1027
싱	-10.1027
X	-10.1027
분은	-10.1028
▁매력있	-10.1032
▁문제가	-10.1039
▁아예	-10.1041
▁꽃	-10.1051
했나	-10.1055
▁이래서	-10.1056
켜	-10.1058
▁단어	-10.1062
▁죽어	-10.1063
▁예쁘	-10.1069
였어	-10.1071
▁웃고	-10.1074
▁있었는데	-10.1076
▁핵	-10.1084
▁시리즈중	-10.1088
▁잭	-10.1088
z	-10.1095
▁소중한	-10.1095
▁여러가지	-10.1097
▁무엇인지	-10.1097
▁억지스러운	-10.11
빼고	-10.1101
▁보통	-10.1114
▁죄	-10.1119
보네	-10.1121
▁있었지만	-10.1122
▁안타까운	-10.1129
활	-10.113
▁형님	-10.1132
랄까	-10.1134
▁최고였다	-10.1134
▁올라	-10.1135
▁재미없었다	-10.1137
▁척	-10.1138
▁흑인	-10.1139
▁줬	-10.114
▁쥐	-10.1142
▁출연한	-10.1143
스가	-10.1149
웠다	-10.1149
봅니다	-10.1151
▁그녀의	-10.1152
▁쇼	-10.1153
▁개연성도	-10.1156
논	-10.1159
▁욕망	-10.1159
~!!!	-10.1159
▁할말이	-10.116
▁감동의	-10.1169
▁차이	-10.117
▁만들면	-10.1176
조금	-10.1177
▁해라	-10.1178
▁처럼	-10.1181
이름	-10.1184
▁생각나서	-10.1184
▁위해서	-10.1184
▁분위기가	-10.1196
▁얼마	-10.1197
▁거기에	-10.1199
▁허무	-10.1204
▁두고	-10.1205
춘	-10.1209
▁겨우	-10.1215
▁퍼	-10.1219
▁하늘	-10.122
▁무서워	-10.1221
쓰레기영화	-10.1221
▁형사	-10.1223
여주	-10.1224
▁대놓고	-10.1225
▁또다른	-10.1225
되면	-10.1229
▁분들은	-10.1229
▁액션씬	-10.123
▁하나같이	-10.1232
▁둘이	-10.1236
해주세요	-10.1239
▁국가	-10.1239
▁배우를	-10.124
▁자식	-10.1243
듯이	-10.1244
있을	-10.1246
▁답답하고	-10.1253
용으로	-10.1253
▁ᄏᄏᄏᄏᄏᄏ	-10.1256
헤	-10.1256
▁갖고	-10.1262
▁합	-10.1262
▁쓰는	-10.1264
▁그건	-10.1265
▁결과	-10.1268
▁추리	-10.1274
명의	-10.1275
▁모르겠	-10.1277
▁효과	-10.1278
ᅲᅲᅲᅲ	-10.1279
▁모험	-10.1279
▁반복	-10.1282
▁잘만들었	-10.1283
▁치고	-10.1291
▁볼수있	-10.1291
▁수준의	-10.1297
▁영화보면서	-10.1298
▁비디오로	-10.1303
▁사진	-10.1315
▁취향	-10.1316
하길	-10.1322
것들	-10.1325
객	-10.133
헌	-10.1332
솔	-10.1332
닝	-10.1333
릿	-10.1333
랫	-10.1334
층	-10.1334
▁후속작	-10.1335
가슴	-10.1337
▁발견	-10.1339
였으면	-10.1352
▁집에	-10.1356
▁쓰레기같은	-10.1367
▁관객을	-10.1371
끄	-10.1371
었고	-10.1372
만드는	-10.1375
▁제임스	-10.1377
▁겉	-10.138
▁뭐하나	-10.1386
겠습니다	-10.1388
▁야구	-10.1392
▁명작입니다	-10.1393
▁D	-10.1396
안되는	-10.1398
▁슬	-10.1401
▁현실이	-10.1402
▁느꼈다	-10.1403
가요	-10.1403
▁많은데	-10.1413
▁할수	-10.1419
햇다	-10.1424
▁싸움	-10.1425
▁이것이	-10.1426
흔	-10.1432
자들	-10.1433
사건	-10.1434
▁홍	-10.1437
▁지나도	-10.1442
▁똑같	-10.1445
▁영화보는	-10.1447
▁나머지	-10.1448
▁평론가들	-10.1451
▁어렵	-10.1452
▁아닙니다	-10.1456
ᅥ	-10.1456
▁아이디어	-10.1456
▁극장가서	-10.1458
▁집착	-10.1459
보다도	-10.1464
수있는	-10.1464
찾	-10.1467
▁열연	-10.1469
▁살아가는	-10.1475
▁에로영화	-10.1477
▁불러	-10.1479
▁해결	-10.148
▁노래도	-10.1481
▁투자	-10.1484
▁무시	-10.1487
▁이래	-10.1496
▁대본	-10.1499
말도	-10.1505
▁죽이	-10.1506
▁송	-10.1515
는것도	-10.1516
▁최근에	-10.1516
쓰고	-10.1527
▁몇번	-10.1528
▁낮지	-10.1529
쥐	-10.1529
▁아니야	-10.1531
자를	-10.1535
이었습니다	-10.1537
않고	-10.1542
▁보지마라	-10.1542
▁참신한	-10.1543
▁가치가	-10.1545
▁혼	-10.1548
재밌어	-10.1548
▁시청자	-10.1551
▁괴	-10.1559
▁블랙	-10.1561
▁그만큼	-10.1567
님이	-10.1569
몇	-10.1569
덕에	-10.157
▁에이	-10.157
▁탄생	-10.158
▁미치	-10.1583
지마	-10.1585
▁존경	-10.1585
▁하나의	-10.1587
하는건	-10.1588
기로	-10.1589
때매	-10.1589
나름	-10.1594
▁싶을	-10.1598
▁맡	-10.1599
▁주인공은	-10.16
▁잼나게	-10.1604
▁생각했는데	-10.1607
▁색감	-10.1608
▁킬링타임용으로	-10.1609
▁높게	-10.1611
세상	-10.1614
▁죽이고	-10.1615
▁영원히	-10.1618
▁기다리	-10.1627
고싶은	-10.1643
▁갖	-10.1645
▁이런영화를	-10.1645
▁끊	-10.1645
생활	-10.1648
▁아쉽	-10.1651
▁어쩜	-10.1652
▁그것	-10.1655
▁비밀	-10.1656
붙	-10.1658
보니까	-10.1658
스의	-10.1659
포스터	-10.1659
아니다	-10.1661
커플	-10.1662
▁가슴을	-10.1664
▁그당시	-10.1665
▁진지	-10.1667
후회	-10.1675
▁배역	-10.1677
▁만드	-10.1678
▁전설	-10.1678
▁남자주인공	-10.1679
넣	-10.1683
친다	-10.1686
다음	-10.1687
거같아요	-10.1688
19	-10.1693
▁예쁘고	-10.1704
▁울컥	-10.1705
▁기다려	-10.1705
▁바꾸	-10.1707
▁별로임	-10.1708
▁무척	-10.1709
▁빼면	-10.171
▁알겠는데	-10.1712
뭔	-10.1712
▁변화	-10.1714
▁공포물	-10.1715
▁명화	-10.1717
▁훌륭하다	-10.172
했지	-10.1722
자나	-10.1724
▁폴	-10.1733
▁다르다	-10.174
▁맞지	-10.1741
▁뽑	-10.1742
▁안나	-10.1744
▁우리는	-10.1747
▁남은	-10.175
큐	-10.175
▁d	-10.1752
▁초등학생	-10.1752
▁재난영화	-10.1758
▁다운받아	-10.1765
▁중반	-10.177
▁듣고	-10.177
▁반전은	-10.1771
▁내가본	-10.1777
▁풍자	-10.1777
▁안맞는	-10.1778
▁가족영화	-10.178
▁성격	-10.1785
▁그려	-10.1786
았음	-10.179
년작	-10.1793
▁생각으로	-10.1798
좋았	-10.1798
▁구성이	-10.1803
ar	-10.1805
재미없음	-10.1808
▁남편	-10.181
▁아래	-10.1813
▁만들수	-10.1814
동생	-10.1816
▁아련	-10.1817
▁여운을	-10.1824
셀	-10.1831
닉	-10.1831
▁혹은	-10.1834
겠죠	-10.1839
▁멍	-10.184
어라	-10.1841
뒤	-10.1841
▁만남	-10.1851
▁매력적이	-10.1858
▁교육	-10.1861
ᄋᄋ	-10.1862
▁특수효과	-10.1864
▁비하면	-10.1866
▁끄	-10.1871
▁기독교	-10.1873
▁풀어	-10.1878
▁이상하게	-10.1892
▁전쟁영화	-10.1892
이즈	-10.1894
▁코미디영화	-10.1895
▁낮아	-10.1896
▁길게	-10.1899
▁헤어	-10.1899
▁싸우는	-10.19
▁응	-10.19
▁모르겠음	-10.1901
▁갔	-10.1902
▁남네요	-10.1903
하기에	-10.1909
▁체	-10.1909
▁기술	-10.1909
▁여주가	-10.191
분위기	-10.1918
출연	-10.1918
시나리오	-10.1919
덜	-10.1921
아저씨	-10.1921
싶다	-10.1922
▁넌	-10.1923
폰	-10.1924
▁육	-10.1925
▁잔인	-10.193
▁엄	-10.1931
상을	-10.1932
▁돼	-10.1933
거면	-10.1936
12	-10.1938
계의	-10.1942
▁21	-10.1949
당한	-10.1949
스러움	-10.1953
▁a	-10.1953
▁시원	-10.1955
껴	-10.1957
잤	-10.1957
좌	-10.1958
엑	-10.1959
▁색다른	-10.196
▁sf	-10.1961
▁바랍니다	-10.1961
▁아류작	-10.1961
으려	-10.1963
▁감각	-10.1963
▁영상이	-10.1964
대가	-10.1968
점이상	-10.1969
▁신파	-10.1977
▁매력을	-10.1978
줄이야	-10.1981
▁연출과	-10.1981
아이들	-10.1982
아빠	-10.1983
스토리도	-10.1986
못하는	-10.1987
▁요리	-10.1989
bb	-10.1993
▁배신	-10.1993
스터	-10.1994
▁아까운영화	-10.1995
▁즐	-10.2001
▁끼	-10.2002
▁볼수있는	-10.2005
▁낳	-10.2007
▁그저그런	-10.2009
▁만들었는지	-10.2012
▁주제를	-10.2014
▁잼잇	-10.2021
▁최고임	-10.2022
▁외국	-10.2023
▁특이	-10.2025
▁재미있습니다	-10.2031
▁찾아보	-10.2032
▁슈퍼	-10.2041
▁노래가	-10.2046
▁없으면	-10.2048
널	-10.2052
캐스팅	-10.2055
비디오	-10.2057
쏘	-10.2061
추억	-10.2061
▁조절	-10.2066
감동적	-10.2069
▁호구	-10.2074
▁교훈을	-10.208
▁만한	-10.2083
왔다	-10.2084
문화	-10.2084
▁승리	-10.2085
영화인데	-10.2085
이죠	-10.2086
▁등장인물	-10.2087
톱	-10.2087
▁낙	-10.2088
▁정도의	-10.2089
^-^	-10.2089
▁슈	-10.2091
▁옛	-10.2093
▁적당히	-10.2094
▁아쉽지만	-10.2101
▁봤을까	-10.2102
▁오래된	-10.2105
▁따분	-10.2105
놀이	-10.2105
몰입	-10.2106
▁궁금하다	-10.2106
▁낮네	-10.2111
▁만들다니	-10.2111
되었다	-10.2111
▁블록버스터	-10.2115
끼리	-10.2117
정이	-10.2118
▁모를	-10.2118
▁짧은	-10.2119
하더라	-10.2124
▁망친	-10.2124
▁수많은	-10.2128
▁느꼈	-10.213
내용은	-10.2131
▁T	-10.2132
▁아무런	-10.2137
▁생활	-10.2138
▁내용인지	-10.2139
▁심지어	-10.214
▁옥	-10.2144
▁책을	-10.2149
▁정말이지	-10.2152
▁결	-10.2152
▁됩니다	-10.2153
▁좋겠네요	-10.2162
다는게	-10.2162
▁2014	-10.2164
떡	-10.2172
좋음	-10.2172
▁먹먹	-10.218
▁뭘까	-10.2182
물이	-10.2184
▁학	-10.2186
콩	-10.2186
▁행	-10.2186
▁일반	-10.2187
개인적으로	-10.219
확	-10.219
▁재미도없고	-10.2194
▁썩	-10.2207
쟁이	-10.2207
보고싶다	-10.2209
버려	-10.2211
뽕	-10.222
▁다양한	-10.2221
▁낚였다	-10.2224
▁흔들	-10.2225
▁놀라운	-10.2225
볼만	-10.2228
▁친구가	-10.2237
▁낮게	-10.2237
▁많았	-10.2239
▁엉성하고	-10.2249
▁감정이	-10.2251
스럽게	-10.2252
▁주기도	-10.2254
▁이기	-10.2254
▁시간아깝다	-10.2258
해준	-10.2261
▁안습	-10.2261
▁식상한	-10.2262
▁인상적	-10.2264
▁다시보니	-10.227
▁반대	-10.2271
▁빵	-10.2277
▁봅니다	-10.2285
나왔	-10.2286
▁놈	-10.2289
배우가	-10.229
점대는	-10.2294
는듯	-10.2295
겠어요	-10.2295
▁뛰어	-10.2297
▁오빠	-10.2298
겠네요	-10.2299
거같음	-10.2304
▁친구들	-10.2304
▁가면	-10.2304
본영화	-10.2304
▁아직까지	-10.2306
▁어렵다	-10.2307
재미도	-10.2308
▁불쌍하다	-10.2309
었네요	-10.231
항	-10.2315
아까움	-10.2319
▁등등	-10.2319
웨	-10.2319
▁만들어도	-10.232
▁최강	-10.232
스럽고	-10.232
많	-10.2321
▁ᄀ	-10.2323
냐고	-10.2324
헐	-10.2327
큰	-10.2327
▁미소	-10.2328
냈	-10.2329
▁감동은	-10.2332
언제	-10.2337
▁귀여워	-10.2338
로만	-10.234
▁왔	-10.2345
▁연기력은	-10.2346
할만한	-10.2351
..........	-10.2354
▁유일하게	-10.2354
▁플롯	-10.2354
▁잼나	-10.2356
▁결코	-10.2357
집니다	-10.2365
쳐서	-10.2369
▁보다는	-10.2371
▁민망	-10.2372
인데도	-10.238
▁한국에서	-10.2382
했다고	-10.2385
▁살다살다	-10.2385
과는	-10.2386
▁살린	-10.2395
적이다	-10.2395
▁좀비영화	-10.2399
▁몰랐다	-10.2402
하는것	-10.2406
▁인물들	-10.2409
▁브루스	-10.241
하겠다	-10.2412
▁어쩔수	-10.2427
없네요	-10.2429
했다면	-10.2432
▁데리고	-10.2433
▁찌질	-10.2434
▁보던	-10.2435
▁예쁘다	-10.2443
빠지	-10.2444
가장	-10.2445
씨는	-10.2445
▁돈을	-10.2448
▁가져	-10.2449
주면	-10.245
▁잘봤어요	-10.2457
▁꼬마	-10.2457
깝	-10.2458
좋은영화	-10.246
굳	-10.246
겹	-10.2461
쓸	-10.2463
극장	-10.2464
팀	-10.2464
흠	-10.2469
엄청	-10.2469
▁꽤나	-10.2473
▁있다니	-10.2485
략	-10.2485
렉	-10.2486
더라도	-10.2486
▁거리	-10.2486
▁잘하는	-10.2487
룩	-10.2489
▁소소한	-10.2489
▁그자체	-10.2499
낫	-10.2502
▁어느정도	-10.2504
▁브	-10.2507
▁어설프고	-10.2508
▁살면서	-10.2509
▁레이	-10.2512
요소	-10.2515
▁f	-10.2518
▁짜증나서	-10.2521
▁애들은	-10.2529
식이	-10.253
▁확인	-10.253
▁운명	-10.2533
▁좋네	-10.2535
▁때려	-10.2535
▁원작에	-10.2537
있지	-10.2541
▁앞뒤	-10.2545
▁본게	-10.2546
▁했으면	-10.2555
▁보지말	-10.2559
▁썼	-10.2559
자체	-10.2561
랬	-10.2562
▁핵노잼	-10.2567
▁히	-10.2568
▁보기에는	-10.2569
▁한번도	-10.2571
▁흐르는	-10.2571
▁약간의	-10.2572
▁북	-10.2587
▁시리즈는	-10.2593
▁짜증만	-10.2597
ᄌ	-10.2598
▁찬	-10.2599
▁틀어	-10.2603
▁포스터가	-10.2606
재미있게	-10.2612
흑	-10.2613
혁	-10.2615
었나	-10.2621
▁다운	-10.2624
★	-10.2626
평가	-10.2629
▁애기	-10.2631
▁이야기는	-10.2632
▁희	-10.2639
▁아름답게	-10.2639
▁잠이	-10.2641
▁뭐니	-10.2645
▁나랑	-10.2646
▁마지막까지	-10.2647
▁집중해서	-10.2647
것만으로도	-10.2655
▁쉬	-10.2659
▁알수	-10.2661
적은	-10.2661
W	-10.2665
▁포스	-10.2665
영이	-10.2665
▁러시아	-10.2671
학교	-10.2676
보는게	-10.2676
냈다	-10.2677
않다	-10.2678
▁깜짝	-10.2678
또한	-10.2679
좋았다	-10.268
▁선물	-10.2682
높은	-10.2683
뿌	-10.2686
개그	-10.2687
15	-10.2687
)"	-10.269
시길	-10.2691
가고	-10.2698
▁와닿	-10.2699
라는걸	-10.2701
▁놀랍다	-10.2719
▁오락영화	-10.2725
거죠	-10.2733
▁역사를	-10.2734
▁여름	-10.2739
▁말하고자	-10.2739
▁앤	-10.274
빙	-10.2743
▁영상과	-10.2743
▁자체는	-10.2744
▁몽	-10.2747
것같은	-10.2749
칼	-10.2749
▁하네	-10.2751
쾌	-10.2751
▁봤네	-10.2751
▁못보겠	-10.2751
꿈	-10.2751
ᄏᄏᄏᄏᄏᄏᄏᄏᄏᄏᄏᄏᄏ	-10.2752
▁줄수	-10.2754
범죄	-10.2755
▁먼가	-10.2757
▁어른이	-10.2757
▁개성	-10.2757
꾼	-10.2762
▁소장	-10.2762
주기	-10.2765
▁dvd	-10.2765
▁쓸데없이	-10.2765
▁유일한	-10.2766
▁일부러	-10.2769
▁영화화	-10.2769
▁담배	-10.277
▁알수있	-10.2771
▁연극	-10.2772
▁이해할수	-10.2777
▁나름대로	-10.2778
▁고통	-10.2781
▁이따위	-10.2783
▁잠시	-10.2789
▁스토리의	-10.279
혼자	-10.2792
▁개인	-10.2796
흘	-10.2798
▁심장	-10.2799
▁해리포터	-10.2802
▁짜집기	-10.2802
▁결말을	-10.2802
▁임팩트	-10.2802
▁느낌의	-10.2803
▁하는게	-10.2803
▁어이	-10.2806
▁재밋어요	-10.2807
▁/	-10.281
▁넘게	-10.281
하는영화	-10.2814
▁재밌어서	-10.2816
▁엔딩이	-10.2818
바라	-10.282
▁당시에	-10.2822
간만에	-10.2824
읽	-10.2829
수는	-10.2839
씬이	-10.284
라스	-10.284
▁욕심	-10.2842
▁어울리는	-10.2843
였나	-10.2844
▁편견	-10.2847
괜찮	-10.2848
님들	-10.285
배우들이	-10.285
이든	-10.2854
▁챙겨	-10.2854
왔는데	-10.286
▁식상	-10.2862
▁무리	-10.2862
▁때문	-10.2863
▁어릴	-10.2867
▁꼽	-10.2869
▁부르	-10.287
▁하다가	-10.2872
폭	-10.2874
▁찌	-10.2877
▁잘하고	-10.2884
갓	-10.2887
▁막장드라마	-10.2894
푸	-10.2894
▁영화인	-10.2896
▁만든거	-10.2897
▁ᄍᄍᄍ	-10.2898
▁봤다면	-10.2899
▁망치	-10.29
결국	-10.2901
▁잊	-10.2902
▁볼때	-10.2904
▁사고	-10.2906
▁착각	-10.2908
▁잤다	-10.2908
▁웃으면서	-10.2908
▁로코	-10.2912
▁순수함	-10.2914
▁동양	-10.2915
▁보자	-10.2917
▁사상	-10.2918
▁여자의	-10.292
▁나에겐	-10.292
멜로	-10.2923
▁바다	-10.2926
200	-10.2927
▁부분도	-10.2931
나가는	-10.2933
ᅮᅲ	-10.2934
▁정작	-10.2934
잇는	-10.2936
웨이	-10.2937
▁설득력	-10.2941
▁괜찮았	-10.2945
▁찾는	-10.2946
▁인도	-10.2946
▁연인	-10.2946
뭐야	-10.2953
▁많은걸	-10.2955
▁소설을	-10.2956
▁몰입도가	-10.2958
▁떨어지고	-10.296
▁한편의	-10.2964
▁재미없어서	-10.2965
이여	-10.2967
▁곧	-10.2969
▁수작이다	-10.2972
▁연기자	-10.2977
신이	-10.298
쳤다	-10.2981
▁괜찮았다	-10.2982
해야지	-10.2985
▁=	-10.2987
▁시청률이	-10.2993
▁[	-10.2996
톤	-10.2996
씀	-10.2999
▁부모님	-10.3003
▁희망을	-10.3009
▁엄마가	-10.3013
▁줍니다	-10.3017
▁으리	-10.3018
만들었	-10.3019
텔	-10.3021
▁아니지	-10.3029
ᅲᅮ	-10.303
찰	-10.3035
빛	-10.3036
▁않아서	-10.3037
마음	-10.3041
화이팅	-10.3042
차이	-10.3043
▁인간들	-10.3045
▁놓고	-10.3047
랩	-10.3049
▁가벼운	-10.3049
셋	-10.3049
▁반드시	-10.3049
▁교과서	-10.3049
▁of	-10.3049
▁내생에	-10.3049
▁근래	-10.3053
치고는	-10.3053
본사람	-10.3055
▁재능	-10.3056
▁두번째	-10.3057
▁O	-10.3062
▁그야말로	-10.3062
▁개노잼	-10.3064
극장에서	-10.3064
▁잘못된	-10.3066
▁이딴걸	-10.3066
▁하나로	-10.3066
▁그립다	-10.3081
▁명장면	-10.3083
▁난잡	-10.3084
▁콩	-10.3085
끌	-10.3087
것처럼	-10.3091
..^^	-10.3091
▁충분	-10.3093
▁돋보이는	-10.3097
▁방법	-10.3101
▁소재도	-10.3102
만하다	-10.3102
얘	-10.3104
존나	-10.3106
▁싶었	-10.3109
▁이상의	-10.3111
했으나	-10.3114
▁사용	-10.3115
턴	-10.3115
▁실수	-10.3117
▁업	-10.3117
그만	-10.3119
영화라	-10.312
부분이	-10.3121
지지	-10.3126
는구나	-10.3131
아들	-10.3131
▁배우들은	-10.3132
▁음식	-10.3134
▁할아버지	-10.3134
▁매니아	-10.3144
▁이런건	-10.3145
사를	-10.3145
물을	-10.315
▁봐야하는	-10.3152
▁다시는	-10.3153
▁있네	-10.3157
▁혹시	-10.3159
▁보다니	-10.3159
▁명작을	-10.3168
▁아까울	-10.3173
▁아역	-10.3173
▁강한	-10.3174
있습니다	-10.3174
▁있다고	-10.3175
느라	-10.3176
▁빌	-10.3178
못하고	-10.3178
▁삶이	-10.3179
▁버리	-10.318
▁이용	-10.3182
▁곳	-10.3183
▁불쌍한	-10.3185
▁캬	-10.3188
메이	-10.3188
걍	-10.3191
▁엘	-10.3193
▁소년	-10.3194
▁모른다	-10.3195
▁이상하고	-10.3198
▁이끌어	-10.3199
▁언제봐도	-10.32
학생	-10.32
었을	-10.3202
▁생긴	-10.3204
행복	-10.3206
에대해	-10.3208
▁들었	-10.3209
▁의문	-10.3209
스토리가	-10.3212
▁봐도봐도	-10.3215
▁독일	-10.3215
받았	-10.3217
▁검색	-10.3223
▁러닝타임	-10.3223
▁포인트	-10.3227
▁점수는	-10.3227
곳	-10.3231
중국	-10.3233
▁내용과	-10.3236
▁따뜻하고	-10.3242
▁가정	-10.3252
더라면	-10.3253
▁살리	-10.3256
▁장면도	-10.326
▁받은	-10.326
▁맹	-10.3261
▁장면을	-10.3261
일듯	-10.3263
▁짜증이	-10.3266
▁갔다	-10.3268
▁첫사랑	-10.3269
보소	-10.3276
▁머리가	-10.3279
▁아깝고	-10.3281
든다	-10.3289
▁잼있음	-10.3291
▁커	-10.3292
긴하지만	-10.3293
게하는	-10.3295
게임	-10.3297
례	-10.3304
▁한국의	-10.3305
▁불편한	-10.3305
겠음	-10.3306
▁안봐도	-10.3314
in	-10.332
▁주제가	-10.3327
▁잊고	-10.3331
기까지	-10.3331
▁로버트	-10.3341
럭	-10.3341
쿵	-10.3341
▁떨어짐	-10.3341
코믹	-10.3342
▁아까웠다	-10.3342
털	-10.3344
▁여러번	-10.3346
▁적어도	-10.3347
▁공감할	-10.3348
발연기	-10.335
웃김	-10.335
▁괜찮음	-10.3353
▁60	-10.3355
전혀	-10.3359
▁피해	-10.3361
▁케이블에서	-10.3366
▁장면들	-10.3369
듯하다	-10.3375
▁없었음	-10.3375
▁그것도	-10.3376
먹은	-10.3377
▁시간만	-10.3377
▁부부	-10.3382
▁새벽에	-10.3385
▁짜임새	-10.3389
▁터미네이터	-10.3389
▁대통령	-10.3393
▁심형래	-10.3393
▁여자주인공	-10.3393
▁어색하고	-10.3393
보인다	-10.3395
▁비슷	-10.3396
검	-10.3399
짜리	-10.3404
셈	-10.3407
▁손에	-10.3411
▁멋있는	-10.3411
▁맞춰	-10.3412
원이	-10.3412
뭐냐	-10.3415
▁당신	-10.3415
버릴	-10.3421
않는	-10.3423
▁태어나서	-10.3424
▁소재와	-10.3426
▁관점	-10.3428
▁않았지만	-10.343
연기는	-10.3433
신고	-10.3435
▁타고	-10.3448
▁목적	-10.3449
▁가족이	-10.3456
▁얼굴이	-10.3464
▁쓰고	-10.347
▁마지막장면	-10.3472
▁삼류영화	-10.3476
지요	-10.3477
▁영화라니	-10.3478
▁아픔	-10.348
▁생생	-10.3483
불쌍	-10.3486
납	-10.3489
닫	-10.3489
뎅	-10.349
뭘	-10.3496
려나	-10.3502
▁들고	-10.3503
▁절정	-10.3506
st	-10.3512
주제	-10.3515
▁영화인지	-10.3515
보긴	-10.3518
▁없게	-10.3519
▁보러	-10.3523
안됨	-10.3524
▁배트맨	-10.3525
하지마라	-10.3527
너무너무	-10.3527
▁뱀파이어	-10.3529
▁다르게	-10.3533
▁매일	-10.3533
고싶어	-10.3533
▁처음에	-10.3533
▁모든걸	-10.3534
▁이소룡	-10.3534
뿐이다	-10.3535
▁좋겠	-10.3537
올리	-10.3539
▁안간다	-10.3539
▁시간가는줄	-10.3544
▁끌고	-10.3545
▁헛	-10.3546
번은	-10.3548
▁가득한	-10.355
▁전투	-10.3551
▁배우는	-10.3552
▁시시	-10.3553
▁w	-10.3554
!!!!!!!!!!!!!!!!	-10.3557
▁아냐	-10.3568
▁루	-10.3569
▁최고의영화	-10.3578
▁처음에는	-10.3584
▁짜증나고	-10.3591
▁배경음악	-10.3592
▁재미로	-10.3593
▁제목만	-10.3598
▁L	-10.36
V	-10.3605
같고	-10.3606
보시길	-10.3615
▁정보	-10.3616
영화입니다	-10.3619
▁별로고	-10.3623
없는영화	-10.3624
^^*	-10.3624
있지만	-10.3626
워서	-10.3627
▁올려	-10.3627
▁거장	-10.363
어지는	-10.3632
▁배우도	-10.3636
..1	-10.3636
맞는	-10.3638
맥	-10.364
▁할리우드	-10.3642
▁제니퍼	-10.3642
에서의	-10.3644
▁you	-10.3645
이었던	-10.3646
▁인내심	-10.3647
▁괜찮았는데	-10.3649
분을	-10.365
P	-10.3652
▁마약	-10.3653
N	-10.3653
CG	-10.3653
▁해주	-10.3654
▁맛이	-10.3658
▁반담	-10.3658
▁귀엽다	-10.366
우스	-10.3661
있었다	-10.3663
목소리	-10.3667
▁높아서	-10.3668
것같	-10.3668
▁가족들	-10.367
▁정신병자	-10.3674
▁없나요	-10.3676
이후	-10.3681
▁컴퓨터	-10.3681
▁당연히	-10.3684
▁강렬한	-10.3685
▁장국영	-10.3691
▁사운드	-10.3691
▁영화인가	-10.3691
▁농	-10.3696
▁끝에	-10.3702
▁사람도	-10.3704
중에서	-10.3704
▁걱정	-10.3705
하시길	-10.3707
▁가수	-10.371
아직도	-10.3713
겼	-10.3714
▁이런영화는	-10.3714
▁이름이	-10.3719
▁사투리	-10.3719
▁싱	-10.3722
▁X	-10.3729
▁수입	-10.3734
장이	-10.3743
이긴	-10.3744
틱	-10.3745
▁초딩때	-10.3751
▁오브	-10.3753
할수가	-10.3753
▁나네요	-10.3755
글자	-10.3759
것보다	-10.3768
▁감독을	-10.377
남는	-10.377
트리	-10.3772
▁싶어요	-10.3775
▁승	-10.3782
들에	-10.3783
▁달려	-10.3783
데이	-10.3784
▁아닐	-10.379
▁깜	-10.3795
▁이토록	-10.3795
덩어리	-10.3795
▁희대의	-10.3796
▁제이슨	-10.3796
ut	-10.3796
▁이해를	-10.3799
▁없냐	-10.3799
▁알겠	-10.3801
▁디워	-10.3801
▁거북	-10.3802
▁단순히	-10.3804
덤	-10.3805
▁정신없	-10.3807
▁과정	-10.3808
▁서양	-10.3808
▁하품	-10.3809
▁아침	-10.381
우리나라	-10.3812
▁최고봉	-10.3812
관람	-10.3819
▁궁금해서	-10.3822
▁생겼	-10.3823
▁영혼	-10.3825
▁봣	-10.3825
▁영화였음	-10.3826
너무나	-10.3827
▁죽고	-10.3828
▁동성애	-10.3828
감독은	-10.383
▁떼	-10.3832
▁앞에	-10.3833
때마다	-10.3833
적이지	-10.3837
▁기대없이	-10.3837
▁반전을	-10.3838
수록	-10.3839
▁엿	-10.3842
▁당신은	-10.3847
할것	-10.3848
▁어디에	-10.3848
▁말자	-10.3849
▁받고	-10.3852
▁보라	-10.3856
사실	-10.3859
▁직	-10.3862
▁재미있을	-10.3864
▁재밋음	-10.3864
▁신비	-10.3868
▁논리	-10.3872
같은영화	-10.3872
아쉽	-10.3876
▁좋아하	-10.3876
▁아니라고	-10.3882
▁놀랍	-10.3887
▁현실적이	-10.3892
점정도	-10.3892
▁마음으로	-10.3893
▁어른들	-10.3893
▁최고로	-10.3896
▁불안	-10.3898
▁이드라마	-10.3899
▁많아서	-10.3899
▁대단하	-10.3899
▁케	-10.3903
▁현실과	-10.3904
▁작품입니다	-10.3906
▁한번쯤	-10.3915
이딴	-10.3916
▁끈	-10.3917
하지말고	-10.3919
▁같고	-10.3925
▁사랑해요	-10.3932
보이는	-10.3939
▁세상이	-10.3943
▁예능	-10.3944
않음	-10.3949
▁여주인공이	-10.3949
엽	-10.3949
▁관련	-10.3949
▁테러	-10.3951
찔	-10.3952
U	-10.3952
ᄎ	-10.3952
▁극복	-10.3957
미친	-10.3962
같아	-10.3962
▁어울리지	-10.3963
▁여자는	-10.3965
▁공짜로	-10.3966
할수있	-10.3966
▁소중함을	-10.3968
컷	-10.3969
몸	-10.3969
그렇게	-10.3973
최고다	-10.3974
어떤	-10.3977
▁아이들과	-10.3979
▁사실을	-10.398
100	-10.3982
▁재미있어	-10.3982
▁잊을수	-10.3983
분만에	-10.3984
애들이	-10.3989
▁인형	-10.3989
▁유발	-10.399
기억이	-10.3991
자고	-10.3992
▁멋지고	-10.3997
제대로	-10.3998
▁충격적이	-10.4004
▁울리는	-10.4007
해야할	-10.4011
귀신	-10.4021
▁클레멘타인	-10.4027
▁의상	-10.4028
▁심심	-10.4029
웃겨	-10.4035
하니까	-10.4035
임을	-10.4047
살인	-10.4051
하진	-10.4052
▁복잡	-10.4054
▁진부	-10.4056
▁빛	-10.4061
▁씹	-10.4065
미가	-10.4068
▁영환데	-10.4077
▁주연배우	-10.4085
▁이루	-10.4086
▁미쳤	-10.4088
▁갑니다	-10.4088
▁전개와	-10.4092
▁그것이	-10.4092
▁아쉬움이	-10.4095
엠	-10.4097
기전에	-10.4097
▁안맞	-10.4099
▁일본인	-10.4101
▁쭉	-10.4108
컬	-10.411
▁오프닝	-10.411
▁깡패	-10.411
▁명복을	-10.411
소름돋	-10.4111
▁실험	-10.4111
▁무엇인가	-10.4114
▁거품	-10.4122
분동안	-10.4123
▁보았는데	-10.4125
어이없	-10.4125
▁박수	-10.4126
▁좋지	-10.4126
▁쩔어	-10.4126
▁ᄏᄏᄏᄏᄏᄏᄏ	-10.4128
꿀잼	-10.4129
형제	-10.413
꽃	-10.4135
잊	-10.4136
▁언	-10.4136
갑니다	-10.4138
좋앗	-10.4138
▁m	-10.4138
▁혹시나	-10.414
▁그것을	-10.414
▁조니뎁	-10.4142
▁하지원	-10.4145
ᅮᅮᅮ	-10.4145
▁잼없	-10.4148
딴	-10.4148
▁배경이	-10.4148
▁시작부터	-10.4149
▁생각할	-10.415
▁숙	-10.4151
▁아놀드	-10.4157
▁믿을	-10.4157
▁숨겨진	-10.4159
▁아우	-10.4161
500	-10.4163
▁안될	-10.4165
었지	-10.4166
▁보게된	-10.4169
▁영화라는	-10.4171
▁우려먹	-10.4171
▁홍상수	-10.4172
▁지겹다	-10.4173
▁빛을	-10.4175
▁난리	-10.4175
수없는	-10.4176
▁답이	-10.4177
▁케릭터	-10.4177
까요	-10.418
▁설정이	-10.4184
▁컨셉	-10.4187
~~^^	-10.4189
▁이뻐서	-10.4189
▁언니	-10.4191
발랄	-10.4192
▁사랑한다	-10.4192
▁상대	-10.4197
▁하길래	-10.4201
▁찍고	-10.4207
▁탈출	-10.4208
▁응원	-10.4209
▁첨엔	-10.421
아라	-10.4212
♥♥♥♥	-10.4213
하거나	-10.4217
▁잡아	-10.4217
구리	-10.422
는거야	-10.4222
▁^	-10.4224
▁파괴	-10.4227
▁강렬	-10.4228
본영화중	-10.4232
▁이번에	-10.4233
닌	-10.4233
와의	-10.4234
▁만들어서	-10.4237
▁매력에	-10.4247
▁보기에	-10.4249
▁알려	-10.4252
고요	-10.4256
▁따위	-10.4258
최악의	-10.4259
▁옷	-10.426
▁재미있는데	-10.4265
스러워	-10.4266
▁여자애	-10.4267
▁본지	-10.4269
▁묻어	-10.427
▁명불허전	-10.4272
▁송강호	-10.4272
으려고	-10.4273
▁좋았을텐데	-10.4274
▁명대사	-10.4274
▁각색	-10.4275
끄러	-10.4278
▁판단	-10.4278
▁믿고보는	-10.428
▁메세지	-10.4282
▁재미없다고	-10.4283
▁주말	-10.4284
할뿐	-10.4284
▁짜증남	-10.4285
랜드	-10.4285
줄알았	-10.4288
햇는데	-10.429
하군	-10.4291
▁가능한	-10.4293
광고	-10.4295
되네요	-10.4295
▁시대에	-10.4298
앤	-10.43
틈	-10.4304
▁흘러	-10.4304
▁스토리전개	-10.4308
▁아깝네요	-10.431
뭐지	-10.4312
▁왜곡	-10.4314
내내	-10.4314
▁내게	-10.4322
▁화나	-10.4324
분의	-10.4325
▁되네요	-10.4328
▁발상	-10.4329
▁우뢰매	-10.4329
▁소화	-10.4329
▁한국영화의	-10.4331
야한다	-10.4335
▁볼만했다	-10.4335
▁스크린	-10.4335
▁부정	-10.4338
▁귀여	-10.4342
▁알겠다	-10.4342
있던	-10.4342
▁연출은	-10.4344
▁시나리오가	-10.4351
▁정도면	-10.4354
▁샤	-10.4355
하실	-10.4355
치면	-10.4357
때까지	-10.4357
여운이	-10.4359
▁어디가	-10.436
▁R	-10.4361
아니면	-10.4361
▁진수	-10.4365
▁뒤에	-10.4365
▁현실감	-10.4365
▁안볼	-10.4367
▁갖다	-10.437
왔어요	-10.4372
▁의사	-10.4374
그러나	-10.438
가면서	-10.4384
▁지루하기	-10.4385
▁다신	-10.4389
로드	-10.4392
▁샘	-10.4394
▁땜에	-10.4395
▁다시보고	-10.4396
져요	-10.4401
▁눈물나	-10.4405
▁G	-10.4407
▁좋다고	-10.4411
▁보시면	-10.4411
닐	-10.442
▁짝이	-10.4422
놈이	-10.4424
▁최소	-10.4425
섭	-10.4427
~~~~~~~	-10.4429
▁만들었나	-10.443
▁기억나는	-10.4431
▁돌리	-10.4432
▁재난	-10.4435
딘	-10.4436
▁주윤발	-10.4436
▁생각도	-10.4436
제가	-10.4437
▁고뇌	-10.4438
아까웠	-10.4443
▁제목을	-10.4444
▁만약	-10.4445
▁담긴	-10.4447
▁유쾌하게	-10.4452
류영화	-10.4453
▁톰	-10.4454
▁생각난다	-10.4455
▁어거지	-10.4455
▁치유	-10.4457
▁듣	-10.4458
▁강간	-10.4459
기도하고	-10.4461
G	-10.4468
▁땅	-10.4471
▁쓸데없는	-10.4474
갈수록	-10.4474
▁어이없	-10.4475
힘들	-10.4476
바람	-10.4477
▁느	-10.4479
재미있어요	-10.4482
▁결론은	-10.4482
노답	-10.4482
▁인터넷	-10.4484
오랜만에	-10.4485
한건지	-10.4486
주고싶	-10.4492
▁손발	-10.4494
역사	-10.4498
▁오랫만에	-10.4502
라지만	-10.4502
것같은데	-10.4504
▁자동차	-10.4504
▁내일	-10.4507
▁명연기	-10.4511
돈주고	-10.4514
▁일본은	-10.4516
▁워	-10.4518
▁목소리가	-10.4522
▁느낌은	-10.4526
▁이상해	-10.4535
▁벤	-10.4543
▁흘리	-10.4545
80	-10.4547
만은	-10.4548
▁유치해	-10.4548
▁느낌이다	-10.4548
하자면	-10.4551
렬	-10.4552
▁대신	-10.4555
다큐	-10.4556
▁의지	-10.4567
올라	-10.4567
▁일부	-10.4569
▁라이	-10.4574
▁봤는데도	-10.4575
▁포스터에	-10.4579
▁표현할	-10.4579
하던데	-10.4581
픽	-10.4598
아가	-10.46
뮤	-10.4601
▁듭니다	-10.4602
▁스티븐	-10.4602
▁아무생각없이	-10.4602
▁호기심	-10.4602
▁도무지	-10.4602
▁정우성	-10.4603
▁동시에	-10.4603
▁히어로	-10.4608
~~!!	-10.4611
▁이해불가	-10.4612
▁시대의	-10.4613
▁억지감동	-10.4615
▁마지막회	-10.4617
▁거기다	-10.4618
▁본듯	-10.4619
▁살인마	-10.462
▁사랑해	-10.462
▁마이	-10.4621
보게되	-10.4621
!!!"	-10.4622
▁우연	-10.4624
▁만들어낸	-10.4624
▁울면서	-10.4625
▁갓	-10.4625
▁먹는	-10.4626
답게	-10.4629
▁빵빵	-10.463
신선	-10.4635
▁황당한	-10.4635
▁조카	-10.4636
▁안보는게	-10.464
처리	-10.4641
▁매미	-10.4642
됐다	-10.4643
그럼	-10.4653
성에	-10.4656
▁하정우	-10.4667
▁남기	-10.4675
▁만화책	-10.4675
▁찾아서	-10.4677
제작	-10.4682
▁씁쓸	-10.4685
▁유럽	-10.4685
좋네요	-10.4688
▁돈내고	-10.4688
▁모르겠네요	-10.4689
▁뭥미	-10.4693
엇는데	-10.4694
든지	-10.4697
▁겁	-10.4698
▁싶었던	-10.4699
▁싶었다	-10.4699
점부터	-10.47
▁푸	-10.4702
▁환경	-10.4705
▁좋을듯	-10.4706
▁잇	-10.4707
▁실화를	-10.4707
▁상관없	-10.4709
▁지겹	-10.4712
▁빅	-10.4713
나도	-10.4715
▁전쟁의	-10.4719
▁한방	-10.4719
▁담은	-10.4724
려다	-10.4725
▁실망이	-10.4726
▁세번	-10.4727
이어서	-10.4738
▁p	-10.4738
싫어	-10.4738
▁나오는데	-10.474
보구	-10.4742
▁인생에	-10.4745
,,,,"	-10.4748
안돼	-10.475
▁않은데	-10.4753
▁본건데	-10.4753
육	-10.4759
▁김치	-10.4759
▁분들이	-10.4764
핑	-10.4769
▁이럴	-10.4771
▁만난	-10.4771
컨	-10.4771
랴	-10.4772
룰	-10.4772
▁빕니다	-10.4772
켄	-10.4772
▁내생애	-10.4772
▁리얼리티	-10.4772
▁기대이상	-10.4774
▁어쩌면	-10.4774
자식	-10.4775
▁장난하냐	-10.4777
▁잔잔하게	-10.4779
▁안본	-10.4782
▁심한	-10.4784
보여	-10.4784
▁모르지만	-10.479
▁놀란	-10.479
▁보았던	-10.4791
▁믿기지	-10.4792
▁서울	-10.4792
▁감흥	-10.4794
편에서	-10.4796
깔	-10.4797
놨네	-10.4799
▁사람이라면	-10.4799
▁실감	-10.4802
점주	-10.4806
▁생각나	-10.4807
궁	-10.4816
▁볼려고	-10.4817
졸작	-10.4818
L	-10.4819
기에는	-10.4819
▁그동안	-10.482
아름다운	-10.4821
싸움	-10.4821
▁사랑합니다	-10.4822
상태	-10.4823
▁허술한	-10.4831
▁힘들었	-10.4832
▁초등학교	-10.4833
▁흥	-10.4838
▁지금의	-10.4839
▁그지	-10.4839
이유	-10.4839
물론	-10.4842
라인	-10.4845
선수	-10.4848
느낌이	-10.4849
▁반전에	-10.4851
▁폭발	-10.4858
편집	-10.4859
▁액션과	-10.4861
지루하다	-10.4862
▁섬	-10.4864
▁부탁	-10.4867
▁허무한	-10.4867
념	-10.487
▁100%	-10.487
▁쿠	-10.4872
▁시간에	-10.4875
▁여러분	-10.488
모자	-10.4881
▁잔혹	-10.4886
▁멋지	-10.4886
▁과장	-10.489
▁아들이	-10.4897
▁봐야지	-10.4899
▁재미없을	-10.49
▁ᄒᄒᄒᄒ	-10.4902
▁공포를	-10.4904
▁인상적이	-10.4905
▁스릴도	-10.4908
지나	-10.4909
었네	-10.4915
해주고	-10.4919
윈	-10.493
룡	-10.4932
▁따라가	-10.4935
멸	-10.4942
찐	-10.4943
액	-10.4943
긋	-10.4944
▁왤케	-10.4944
▁웰메이드	-10.4944
▁어두운	-10.4944
▁양아치	-10.4944
▁민폐	-10.4946
▁은근히	-10.4948
▁재개봉	-10.4948
▁향수	-10.4948
▁요새	-10.4949
답니다	-10.4949
▁꿀	-10.495
▁매력적	-10.4952
▁괜찮았음	-10.4956
▁개똥	-10.4957
▁자극적인	-10.4962
▁축구	-10.4965
▁인생이	-10.4966
▁알았음	-10.4966
둥	-10.4967
▁정도가	-10.4971
▁있으	-10.4973
▁보이지	-10.4978
▁오락	-10.4978
▁아니었다	-10.4979
방식	-10.4986
▁여인	-10.499
▁진지한	-10.4994
▁반영	-10.4994
▁사람들에게	-10.4995
▁Good	-10.4995
▁그렇지만	-10.4997
맞고	-10.4998
▁기가	-10.4998
춤	-10.4998
판타지	-10.4999
롤	-10.4999
▁교훈도	-10.5
TV	-10.5
벗	-10.5
대를	-10.5002
▁:)	-10.5003
▁일본의	-10.5003
없구	-10.5004
▁느껴지	-10.5005
▁짐캐리	-10.5006
간에	-10.5006
사의	-10.5007
생각을	-10.5008
al	-10.5011
조연	-10.5012
역할	-10.5013
▁동네	-10.5014
▁액션신	-10.5015
▁이보다	-10.5015
▁나이가	-10.5016
쩐다	-10.5016
▁자극적	-10.5017
▁뛰어나	-10.5018
▁생기	-10.5021
▁배경으로	-10.5022
보내	-10.5023
▁즐기	-10.5023
있었는데	-10.5027
▁하아	-10.5029
▁빠지는	-10.5032
▁부실	-10.5035
지않아	-10.5035
험	-10.5038
할거	-10.504
▁따뜻해	-10.5041
▁감독과	-10.5047
말아먹	-10.5055
▁망할	-10.5057
▁ᅲᅲᅲᅲ	-10.5058
타고	-10.5059
능력	-10.5063
같지	-10.5064
만큼이나	-10.5065
ᄏᄏᄏᄏᄏᄏᄏᄏᄏᄏᄏᄏ	-10.5068
▁깔	-10.5076
▁편안	-10.5082
여배우	-10.5082
▁봤었	-10.5087
▁ᄃᄃᄃ	-10.5094
치기	-10.5097
▁충	-10.5098
▁베이	-10.5103
▁내리	-10.5107
일단	-10.511
▁결론	-10.5112
▁버려	-10.5115
숭	-10.512
쉐	-10.512
▁첩보	-10.512
▁러브라인	-10.512
▁비행기	-10.5121
▁전반적으로	-10.5121
▁때마다	-10.5122
▁유지	-10.5122
당신	-10.5125
▁재미있었습니다	-10.5126
스티	-10.5128
▁기존	-10.513
▁환	-10.5132
▁첨부터	-10.5134
▁마지막엔	-10.5135
않은	-10.5136
▁뭐임	-10.5139
th	-10.5148
▁신의	-10.5151
할수있는	-10.5152
▁팀	-10.5152
▁집중이	-10.5155
▁하하	-10.5156
▁류승범	-10.516
F	-10.5161
▁니들	-10.5163
▁기대이하	-10.5166
▁널	-10.5167
▁뜬금없는	-10.5168
▁쩌는	-10.5171
▁사랑스럽다	-10.5172
볼까	-10.5172
▁다행이다	-10.5173
▁유치해서	-10.5173
하지마	-10.5177
90	-10.518
탑	-10.5181
그나마	-10.5181
로맨스	-10.5182
벤	-10.5182
스톤	-10.5185
예술	-10.5186
선택	-10.5188
하기엔	-10.519
▁시작해서	-10.519
▁보는거	-10.5194
▁귀여움	-10.5195
▁내용에	-10.5196
각본	-10.5199
▁줘야	-10.5199
자신	-10.5202
▁생에	-10.5202
▁명작은	-10.521
▁찍는	-10.5212
▁밤에	-10.5217
시간동안	-10.5219
▁유덕화	-10.5222
안된다	-10.5222
▁쉽지	-10.5229
▁아깝네	-10.5229
였지	-10.5231
▁중요	-10.5232
장면은	-10.5235
▁F	-10.5237
결말이	-10.5244
▁궁	-10.5247
▁남성	-10.5249
잖아요	-10.525
지루하고	-10.5253
번에	-10.5255
▁답답하다	-10.5256
티가	-10.5257
▁아무도	-10.5257
▁P	-10.526
같아요	-10.5261
▁났	-10.5263
에비해	-10.5271
가며	-10.5272
▁ᄏᄏᄏᄏᄏᄏᄏᄏ	-10.5275
▁고어	-10.5278
▁가고	-10.5281
-_-;	-10.5291
뚝	-10.5298
뽀	-10.5298
▁빨갱이	-10.5298
▁역겨운	-10.5298
▁잃은	-10.5298
▁흡입력	-10.5298
욤	-10.5298
홈	-10.5298
▁갠적으로	-10.5298
▁하이틴	-10.5298
▁풋풋한	-10.5299
▁흑백	-10.5299
▁형제	-10.5299
▁이런류의	-10.53
▁왠만한	-10.5301
▁이것보단	-10.5301
▁역량	-10.5301
50	-10.5303
맘	-10.5305
야할	-10.5307
▁천국	-10.5308
▁전체적인	-10.5308
▁재미있었	-10.5309
▁생각해보게	-10.5309
▁있었으면	-10.531
빌	-10.531
▁진지하게	-10.5312
▁아진짜	-10.5312
였다면	-10.5312
▁뭐고	-10.5314
▁것들이	-10.5314
외엔	-10.5314
▁보고싶어	-10.5316
;"	-10.5318
▁볼만합니다	-10.5318
▁자기가	-10.5321
▁이거보다	-10.5323
▁어설프다	-10.5327
▁무섭지	-10.5328
▁빛나는	-10.5331
있으면	-10.5331
▁첨이다	-10.5332
▁기준	-10.5334
▁답답함	-10.5337
▁친구랑	-10.5337
▁빠져서	-10.5337
긴다	-10.5338
▁탄탄하고	-10.5339
▁나와야	-10.5341
▁나레이션	-10.5345
월드	-10.5347
부를	-10.535
▁아파	-10.5351
드립	-10.5352
연기를	-10.5354
▁한번더	-10.5356
▁진한	-10.5359
▁영상미가	-10.5359
▁시점	-10.536
휘	-10.5362
es	-10.5364
댓글	-10.5367
▁보아	-10.5368
▁못보겠다	-10.5369
▁녹	-10.5369
셔야	-10.5371
▁조연들	-10.5371
저런	-10.5372
▁한개도	-10.5375
셔서	-10.5377
재미있다	-10.5382
는대	-10.5392
▁무섭고	-10.5394
->	-10.5395
▁등장인물들	-10.5403
후에	-10.5404
▁볼것	-10.5406
럴	-10.5413
같네	-10.5416
▁맞나	-10.5416
애가	-10.5418
▁탄탄	-10.5428
▁폐지	-10.5431
▁허술	-10.5433
천원	-10.544
▁것만	-10.5441
▁극중	-10.5444
▁전문	-10.5447
▁막판	-10.5448
어른	-10.545
화가	-10.5451
에다가	-10.5455
▁의도가	-10.5456
꺼야	-10.5456
▁신인	-10.5458
▁들어간	-10.5462
하고싶다	-10.5462
<	-10.5463
오브	-10.5463
당하고	-10.5465
▁공감도	-10.547
짱짱	-10.5474
렷	-10.5476
측	-10.5476
▁뭐하는	-10.5477
ᅢ	-10.548
▁늦게	-10.548
렀	-10.548
▁밋밋	-10.5481
▁블랙코미디	-10.5481
▁언젠가	-10.5482
▁낫겠다	-10.5483
▁로빈	-10.5484
▁만들었을까	-10.5485
제일	-10.5485
▁만점에	-10.5487
는거지	-10.5491
믿	-10.5491
▁!!!	-10.5493
여주인공	-10.5493
▁애매	-10.5497
▁정신이	-10.55
▁마지막이	-10.55
레스	-10.5504
▁멋지게	-10.5505
▁몰라	-10.5508
▁거지같은	-10.5509
▁그들이	-10.551
▁쏘	-10.5511
▁쪽	-10.5514
트로	-10.5514
▁감동적이네요	-10.5514
▁살았	-10.5514
점만점에	-10.5518
▁영화속	-10.5518
▁괜찮게	-10.5519
터짐	-10.5521
성과	-10.5522
나보다	-10.5526
▁베드신	-10.5528
▁한국판	-10.5534
▁심각	-10.5534
재밌고	-10.5537
▁늘어	-10.5538
기술	-10.5538
▁적당한	-10.5542
▁속이	-10.5546
▁누군지	-10.5551
둔	-10.5551
▁괜찮고	-10.5553
즐	-10.5553
시청률	-10.5554
▁가히	-10.5558
겠어	-10.5561
▁최소한	-10.5571
보고나서	-10.5576
▁분량	-10.5577
▁책으로	-10.5577
ed	-10.5577
▁초반부	-10.5579
▁웃는	-10.5583
▁한다는	-10.5584
▁단편	-10.5584
▁깎	-10.5586
▁예술영화	-10.5586
브라	-10.5587
▁별로였다	-10.5591
였네요	-10.5595
▁인생은	-10.5596
편까지	-10.5597
▁소개	-10.5598
▁하나하나가	-10.56
▁슬픈영화	-10.5601
▁백인	-10.5601
▁삭제	-10.5607
했을까	-10.5609
ost	-10.5609
;;"	-10.5618
▁포스터만	-10.5618
▁나무	-10.5619
▁끝도	-10.562
▁러브	-10.5621
▁봤어	-10.5629
▁잘한다	-10.5633
였을	-10.5633
광구	-10.5634
▁보라고	-10.5635
▁인간은	-10.5638
▁완	-10.5641
▁곰	-10.5641
찾아	-10.5646
있어요	-10.5648
▁침	-10.5653
▁것에	-10.5654
낮은	-10.5663
▁기적	-10.5663
▁뭐하자는	-10.5664
▁겨울	-10.5664
틸	-10.5665
듦	-10.5665
▁가까운	-10.5665
▁소름끼치는	-10.5666
▁박보영	-10.5667
▁은근	-10.5669
▁절망	-10.5669
립니다	-10.5671
▁달달	-10.5671
▁드림	-10.5674
▁만났	-10.5674
▁던져	-10.5675
▁누나	-10.5678
▁아만다	-10.5678
▁알았네	-10.5681
부터가	-10.5684
le	-10.5689
▁보겠다	-10.569
▁주지	-10.5691
▁나을듯	-10.5694
▁안에	-10.5695
▁바뀌	-10.5697
▁언제까지	-10.5701
▁방식	-10.5702
빠져	-10.5702
▁ᄌ	-10.5703
▁안본다	-10.5708
▁날아	-10.5708
▁잠을	-10.5711
▁ᄡ	-10.5714
▁지키	-10.5716
성우	-10.5722
!!!!!!	-10.5726
흥	-10.5731
▁책임	-10.5731
아버지	-10.5732
▁생명	-10.5738
서야	-10.5738
▁드라마입니다	-10.5739
▁어이없다	-10.574
▁별하나	-10.5741
▁액션을	-10.5743
▁입장	-10.5744
▁평균	-10.5744
▁짜증나게	-10.5745
몬	-10.5745
▁읽고	-10.5745
이예요	-10.5746
섬	-10.5746
▁내용의	-10.5749
▁여배우들	-10.5751
으로만	-10.5755
▁오글오글	-10.5756
▁도시	-10.5757
자기	-10.5762
▁빼곤	-10.5763
▁및	-10.5766
▁재밌게봤어요	-10.5771
떨어진	-10.5777
▁했을까	-10.5786
도좋고	-10.5792
▁요소가	-10.5795
▁연출력이	-10.5796
델	-10.5805
▁신선함	-10.5811
▁되는데	-10.5814
수준이	-10.5814
▁ᄒᄃᄃ	-10.5816
복수	-10.5825
▁슬퍼	-10.5825
곳이	-10.5825
팬이	-10.583
▁짐	-10.583
것같네요	-10.5831
댄	-10.5834
▁아프	-10.5834
인게	-10.5845
스텝	-10.5846
받아	-10.5847
▁상어	-10.5848
낀	-10.585
랭	-10.5852
▁준비	-10.5853
ᅩ	-10.5853
갠	-10.5854
갱	-10.5854
닷	-10.5854
▁왕조현	-10.5854
▁박중훈	-10.5854
▁이병헌	-10.5854
쯧쯧	-10.5854
▁혐오	-10.5854
▁감명깊게	-10.5854
▁향연	-10.5854
▁흥미로웠	-10.5855
▁니콜	-10.5855
▁끝났	-10.5856
▁앉아	-10.5857
▁몰아	-10.5858
▁개그맨	-10.5859
▁마시길	-10.5861
장애	-10.5862
상영	-10.5862
▁했더니	-10.5863
▁느껴	-10.5864
▁못하	-10.5864
▁개콘	-10.5867
▁고독	-10.5868
▁미안하다	-10.5869
▁ᄉ	-10.5871
하하하	-10.5871
▁최고네요	-10.5873
데요	-10.5877
▁재밌었던	-10.5878
▁재미있었음	-10.5881
▁박진감	-10.5882
이었어요	-10.5883
지루한	-10.5887
▁있으나	-10.5887
▁읽는	-10.589
▁검	-10.5891
▁아까워서	-10.5891
▁연상	-10.5894
으러	-10.5895
느냐	-10.5896
▁도망	-10.5898
할줄	-10.5901
▁재밌다는	-10.5905
▁단점	-10.5905
▁절로	-10.5908
▁범죄자	-10.5909
▁방해	-10.5909
했었	-10.5912
▁그리워	-10.5916
▁장애인	-10.5916
▁적절한	-10.592
시오	-10.5924
▁뜬금없이	-10.5926
▁배급사	-10.5927
▁여신	-10.5927
▁맡은	-10.5928
▁가시	-10.593
거에요	-10.5935
▁싶어서	-10.5937
R	-10.5939
경찰	-10.5946
이랄까	-10.5948
▁새로	-10.5956
▁2000	-10.5956
▁없다고	-10.5963
하더니	-10.5966
안되고	-10.5969
어용	-10.5971
싫다	-10.5972
▁무엇	-10.5975
▁당신이	-10.5976
해지고	-10.5978
▁정도는	-10.5982
살이	-10.5985
▁잘만들었다	-10.5989
▁여친	-10.5999
아요	-10.6004
현실적	-10.6004
▁아프다	-10.6004
▁같았다	-10.6007
하지않고	-10.6008
▁요즘은	-10.6012
▁나오네	-10.6014
▁숨은	-10.6016
비추	-10.6023
▁원하는	-10.6027
았으면	-10.6029
저는	-10.6032
버전	-10.6032
인걸	-10.6033
▁당연	-10.6034
았는데	-10.6035
▁왔습니다	-10.6036
▁연기하는	-10.6038
심을	-10.604
보임	-10.6041
▁범	-10.6045
눌	-10.6046
▁깊게	-10.6046
▁무거운	-10.6046
▁무간도	-10.6047
▁새끼	-10.6047
▁둘째치고	-10.6047
▁그럴싸	-10.6048
▁도둑	-10.6048
▁그려낸	-10.6049
▁2012	-10.6049
▁상징	-10.605
▁그림체	-10.6052
남주	-10.6052
▁엄청나게	-10.6053
했을때	-10.6056
▁했음	-10.6058
▁넘어가	-10.6058
성은	-10.6063
효과	-10.6065
▁재미있었는데	-10.6066
▁한순간	-10.6066
▁울었	-10.6067
▁돼지	-10.607
▁캐릭터들이	-10.6071
▁승부	-10.6072
▁어이없음	-10.6075
비가	-10.6078
▁버리고	-10.6081
없나	-10.6082
▁깔끔한	-10.6084
▁내돈	-10.6086
▁영화예요	-10.6088
▁순수하고	-10.609
▁새벽	-10.6094
느끼	-10.6095
작이라	-10.6095
드가	-10.6099
▁끝나서	-10.6101
▁나올때	-10.6101
▁불쌍하	-10.6102
▁드디어	-10.6103
▁소장하고	-10.6107
▁나타	-10.6108
▁마리	-10.611
40	-10.6113
어진	-10.6113
시키고	-10.6113
영활	-10.6113
▁기대하지	-10.6113
▁조금은	-10.6116
드만	-10.612
▁스포츠	-10.6122
▁영화인줄	-10.6124
순위	-10.6127
▁이상하다	-10.6129
들한테	-10.613
빡	-10.6132
▁따름	-10.6137
▁보아도	-10.6138
▁재미없네요	-10.6141
▁배우들을	-10.6141
빼곤	-10.6142
▁글을	-10.6142
프로그램	-10.6143
애니메이션	-10.6143
▁알리	-10.6144
옛날	-10.6144
초딩	-10.6144
▁안나오는	-10.6149
었을까	-10.6151
▁보지마셈	-10.6153
▁돈아까워	-10.6153
▁봉	-10.6157
못한	-10.6159
▁형편없	-10.6161
▁흥미를	-10.6161
되길	-10.6165
▁있었고	-10.6168
▁휘	-10.617
............	-10.6172
▁역사에	-10.6173
오래	-10.6174
▁사람들을	-10.6175
든가	-10.6175
▁보고나니	-10.6175
▁충분한	-10.6176
▁어디로	-10.6178
▁가능성	-10.618
▁욕이	-10.6182
하나하나	-10.6185
누구	-10.6185
▁오글거리는	-10.6187
애들은	-10.6187
하러	-10.6187
▁팬들	-10.6195
▁후에	-10.6196
텐	-10.6199
보기싫	-10.62
뻐	-10.6201
▁흘러가는	-10.6201
▁g	-10.6202
▁맞추	-10.6204
▁하나님	-10.621
이었는데	-10.6211
▁길이	-10.6212
▁영상도	-10.6214
▁시키	-10.6216
▁의문이	-10.6219
하시고	-10.6219
자들이	-10.6222
잖	-10.6223
함에	-10.6224
▁무서웠	-10.6229
▁장난아니	-10.6234
am	-10.6235
▁극장에	-10.6236
벅	-10.6237
▁소재의	-10.6239
벼	-10.6242
▁살렸다	-10.6242
▁비호감	-10.6242
▁역겹다	-10.6244
▁직업	-10.6244
▁없는게	-10.6245
▁오로지	-10.6245
▁억지스럽고	-10.6246
특집	-10.6247
▁부활	-10.6247
▁파리	-10.6247
▁풀어낸	-10.6248
▁좋으나	-10.6248
중간에	-10.6249
▁살아야	-10.6251
▁부족함	-10.6251
▁못본	-10.6252
▁말아야	-10.6252
▁특별	-10.6252
몰라	-10.6253
합시다	-10.6254
▁최후	-10.6258
▁말하려는	-10.6259
▁여전	-10.6262
en	-10.6263
▁것인가	-10.6263
▁귀여워요	-10.6264
▁재방	-10.6264
▁다운받아서	-10.6265
모양	-10.6266
아까운	-10.6266
▁이름을	-10.6267
▁가짜	-10.6269
▁완벽하다	-10.6269
▁당장	-10.6269
▁웃기는	-10.6272
▁인류	-10.6273
▁조선	-10.6273
▁같지	-10.6275
▁났다	-10.6276
▁독특하고	-10.6277
잭슨	-10.6277
었는지	-10.6279
▁캐스팅이	-10.6281
▁뭐라고	-10.6281
▁이야	-10.6281
▁나열	-10.6282
▁잔인하	-10.6282
▁비쥬얼	-10.6288
▁화장실	-10.6289
겠는데	-10.6296
▁무한	-10.6296
▁자고	-10.6296
▁들게	-10.6296
▁잘해	-10.6306
보던	-10.6309
▁분장	-10.6311
▁끝을	-10.6315
▁있긴	-10.6317
됩니다	-10.632
▁줄이야	-10.6321
▁캐릭터를	-10.6324
하겠습니다	-10.6326
▁드네요	-10.6326
▁버린	-10.6329
▁없던	-10.6331
▁영원한	-10.6332
어디	-10.6337
촌	-10.6345
시킬	-10.6346
시대에	-10.6346
▁동영상	-10.6347
결혼	-10.6347
네이버	-10.6348
봐야지	-10.635
▁올라가	-10.6351
그저	-10.6361
▁장면들이	-10.6362
▁나머지는	-10.6362
▁미국의	-10.6368
▁아니잖아	-10.6374
▁과학	-10.6376
▁꼭보세요	-10.6378
여행	-10.638
▁그런거	-10.6385
있네요	-10.6394
▁진짜로	-10.6394
자꾸	-10.6396
▁두시간	-10.6396
▁;	-10.6398
▁표현이	-10.6399
아나	-10.6399
▁한시간	-10.6402
▁만들다	-10.6405
스토	-10.6406
▁짱이다	-10.641
...........	-10.6413
스럽지	-10.6413
ic	-10.6415
거라고	-10.6416
한국영화	-10.6419
까봐	-10.6427
▁똑같이	-10.6427
모를	-10.6427
▁기회	-10.6433
▁살아있는	-10.6438
▁가족의	-10.6439
곽	-10.6442
핀	-10.6442
▁아마추어	-10.6442
▁엔딩크레딧	-10.6442
▁여러모로	-10.6442
▁닥치고	-10.6442
▁워낙	-10.6443
▁킬러	-10.6443
▁케빈	-10.6444
익숙	-10.6444
▁여자친구	-10.6444
▁픽사	-10.6445
▁시험	-10.6445
▁최악의영화	-10.6447
▁늙어	-10.6448
야말로	-10.6449
▁에효	-10.645
▁애잔	-10.645
▁오랜만	-10.645
▁좋겠습니다	-10.645
재밋다	-10.645
▁되야	-10.6453
▁모욕	-10.6455
▁땡	-10.646
면에서	-10.6462
재미없어	-10.6463
▁흥분	-10.6464
라는게	-10.6464
쓰는	-10.6466
▁공유	-10.647
▁디카프리오	-10.647
수작	-10.6474
로우	-10.6479
▁선정	-10.648
▁EBS	-10.6483
ᄃᄃᄃ	-10.6483
▁기대한	-10.6483
▁위트	-10.6488
▁알파치노	-10.6489
▁김수현	-10.6489
▁다시보기	-10.6489
▁비현실적	-10.6492
▁코믹영화	-10.6492
되나	-10.6492
하길래	-10.6496
인물	-10.6497
▁가족애	-10.6498
▁강동원	-10.6501
▁높이	-10.6503
믿고	-10.6504
▁만화영화	-10.6506
▁이거보단	-10.6508
제로	-10.6508
▁임창정	-10.6514
해줘서	-10.6518
에휴	-10.652
졌음	-10.6529
으시	-10.6533
판에	-10.6537
▁잔인함	-10.6539
▁인생영화	-10.654
▁미국식	-10.6542
▁감정이입	-10.6546
▁다른영화	-10.6548
▁작가의	-10.6549
아직	-10.655
멀	-10.6551
맹	-10.6552
▁예술이	-10.6554
대단	-10.6555
▁뛰어넘	-10.656
▁어우	-10.6562
▁하다니	-10.6563
▁벨	-10.6563
▁무서움	-10.657
▁무대	-10.6571
미안	-10.6574
▁천사	-10.6575
줄거리	-10.6582
영상미	-10.6583
못함	-10.6583
▁말고는	-10.6583
버스	-10.6584
려다가	-10.6585
▁학생	-10.6588
것인가	-10.6594
진행	-10.6594
나오네	-10.6601
▁미스	-10.6605
▁보고있는데	-10.6612
막히	-10.6614
▁시도는	-10.6615
▁군인	-10.6617
▁전개는	-10.6618
▁더빙이	-10.6621
▁빈약	-10.6623
쩜	-10.6628
▁개봉했	-10.6629
▁이도저도	-10.663
멋잇	-10.663
자들의	-10.663
▁노인	-10.6631
살때	-10.6632
▁덤	-10.6633
▁H	-10.6638
▁슬펐	-10.6639
▁만들어주	-10.6639
찮	-10.664
▁형편없는	-10.6644
솜	-10.6646
▁놀랐다	-10.6646
▁시종일관	-10.6646
맷	-10.6646
☆	-10.6646
▁한효주	-10.6647
▁온갖	-10.6647
▁에라이	-10.6648
▁묘한	-10.6649
▁감동적이에요	-10.665
▁사랑하고	-10.665
▁최고라고	-10.6651
▁헬	-10.6652
▁말그대로	-10.6652
▁세계관	-10.6656
▁모자라	-10.6658
화면	-10.6662
거든	-10.6663
▁이별	-10.6663
밑에	-10.6663
▁매번	-10.6664
▁나타나	-10.6665
▁믿음	-10.6665
▁남기는	-10.6667
질질끌	-10.6667
▁필요한가	-10.6667
▁상황이	-10.6668
▁충격적인	-10.6669
▁작화	-10.667
물로	-10.6673
리스트	-10.6673
▁떡	-10.6675
▁케미	-10.6676
com	-10.6679
▁평화	-10.6681
▁기대가	-10.6681
였구나	-10.6681
▁말투	-10.6683
▁모르겠네	-10.6684
▁고문	-10.6685
▁모습은	-10.6686
!!!!!!!!!	-10.6686
▁망했	-10.669
맞음	-10.6695
▁프리	-10.6697
못해	-10.6699
ᄏᄏᄏᄏᄏᄏ	-10.6706
ch	-10.6706
▁맞다	-10.6711
더군	-10.6714
▁미스터리	-10.6717
함은	-10.6719
▁돌아보게	-10.6721
▁나음	-10.6723
▁빠른	-10.6724
투성이	-10.6725
찡	-10.6726
▁아버지의	-10.6727
▁않았던	-10.6728
볼수	-10.6728
▁못보	-10.6729
동화	-10.6734
▁링	-10.6736
미화	-10.6737
▁집중도	-10.6739
▁않으	-10.6739
▁일주일	-10.674
하고싶은	-10.6743
▁이해도	-10.6744
잘만들	-10.6744
▁죽인	-10.675
▁뛰어넘는	-10.675
▁민족	-10.6753
수밖에	-10.6753
il	-10.6754
▁됐다	-10.6755
▁프랑스영화	-10.6759
▁공포가	-10.676
그런데	-10.6761
▁믿어	-10.6766
▁뻔뻔	-10.6766
농	-10.6767
K	-10.6767
▁스릴러물	-10.6767
쩝	-10.6767
덕분에	-10.6768
형사	-10.6769
▁아이유	-10.677
오르	-10.677
▁대부	-10.6771
▁관심이	-10.6772
▁당신의	-10.6772
폭력	-10.6773
▁크리스	-10.6773
▁충격이	-10.6775
윌	-10.6776
빠진	-10.6777
▁짤	-10.6778
▁아이들의	-10.6779
▁아무튼	-10.678
멋진	-10.6784
▁조금만	-10.6785
▁역사상	-10.6785
▁후하게	-10.6786
▁개봉당시	-10.6788
할려고	-10.6789
허무	-10.6789
▁칠	-10.6792
▁욕먹	-10.6793
▁감독도	-10.6794
▁하기엔	-10.6796
별점	-10.6801
시기	-10.6802
▁작위적	-10.6807
▁흉내	-10.6809
▁정리	-10.6809
▁촌	-10.681
▁이영화에	-10.6813
▁부담	-10.6815
보신분들	-10.6816
▁부분은	-10.6818
▁하하하	-10.6821
원래	-10.6824
▁살리지	-10.6824
▁연기잘하	-10.6825
▁&	-10.6825
▁인상적인	-10.6829
생김	-10.6833
▁동심	-10.6834
괜찮은	-10.6839
▁바닥	-10.6841
▁자랑	-10.6844
▁오글	-10.6845
▁보는것	-10.6848
▁나왔던	-10.6848
낭	-10.6848
돈이	-10.6848
▁대학	-10.6852
▁폭풍	-10.6854
▁전기	-10.6855
퀸	-10.6855
▁아름다워	-10.6855
▁점수준것들	-10.6855
。	-10.6855
▁애초에	-10.6855
▁미스캐스팅	-10.6855
▁칭찬	-10.6855
▁ᄌᄂ	-10.6856
줘야지	-10.6856
▁극혐	-10.6856
▁레옹	-10.6857
^^;	-10.6858
▁4.44	-10.6859
▁방향	-10.686
▁사회적	-10.6861
▁성룡의	-10.6861
분짜리	-10.6862
▁어쩌다	-10.6863
▁말씀	-10.6863
▁알게되	-10.6863
▁코드	-10.6863
▁울었어요	-10.6864
▁개꿀잼	-10.6865
▁캐릭터도	-10.6865
▁조낸	-10.6867
▁엉망이	-10.6873
▁산만하고	-10.6873
▁뭐여	-10.6877
▁영화라서	-10.6878
▁키스	-10.6881
▁아이들에게	-10.6881
알고	-10.6885
▁네티즌	-10.6887
만듬	-10.6887
▁명성에	-10.6891
▁입장에서	-10.6892
▁참나	-10.6894
▁잼있네요	-10.6894
▁신하균	-10.6897
▁보게되는	-10.6898
어여	-10.6901
▁스타워즈	-10.6903
▁to	-10.6909
▁말밖에	-10.691
그대로	-10.691
지말자	-10.6914
▁학생들	-10.6915
▁현실적이고	-10.692
▁빠져들	-10.6921
▁품	-10.6922
▁딸이	-10.6923
▁역작	-10.6924
▁염	-10.6925
타임	-10.6926
▁멋져	-10.6927
스토리는	-10.6933
▁살다	-10.6936
▁더러워	-10.6937
▁빡	-10.6938
대체	-10.6942
▁도데체	-10.6942
▁뻥	-10.6943
▁멋짐	-10.6945
았어요	-10.6946
▁철학적	-10.6947
었구나	-10.695
▁넘어서	-10.6951
행위	-10.6956
바로	-10.6962
▁관객이	-10.6963
아오	-10.6964
소녀	-10.6967
▁추천하고	-10.6971
▁꿈과	-10.6973
안에서	-10.6976
▁아동	-10.6978
▁확실	-10.698
썼	-10.6981
개연성	-10.6983
열받	-10.6984
얼마나	-10.6986
촬영	-10.6986
un	-10.6992
▁부인	-10.6992
▁정상	-10.6993
보지마세요	-10.6993
▁버렸다	-10.7
▁보단	-10.7
▁싶습니다	-10.7008
▁신고	-10.7021
멜	-10.7023
알아	-10.7025
▁끝날	-10.7027
아니고	-10.7031
주기도	-10.7033
해져	-10.7034
▁미녀	-10.7038
여자가	-10.7038
▁의도는	-10.7039
스릴	-10.7042
영화보다	-10.7046
▁무료	-10.7049
▁말인가	-10.706
순수	-10.7061
▁뻔한스토리	-10.7061
▁늑대	-10.7065
▁중심	-10.7065
롯	-10.7067
버렸네	-10.7067
ᄁ	-10.7067
렛	-10.7067
▁뒤죽박죽	-10.7067
▁얻어	-10.7067
됫	-10.7067
띠	-10.7067
푼	-10.7067
혔	-10.7067
▁흘렸	-10.7068
뱀	-10.7068
▁펼쳐	-10.7068
▁이만한	-10.7068
▁쓸쓸	-10.7068
▁감성팔이	-10.7068
▁전성기	-10.7069
▁자연스럽게	-10.7069
▁로맨틱코미디	-10.7071
▁난해한	-10.7071
▁느낀다	-10.7071
▁여기에	-10.7072
▁오래전에	-10.7072
외에는	-10.7073
▁쿨	-10.7073
▁쉬운	-10.7074
▁재앙	-10.7074
▁충분하다	-10.708
▁공간	-10.708
▁솔직	-10.7081
떨어졌	-10.7081
▁비록	-10.7082
뻔했다	-10.7082
년대에	-10.7084
▁장난하나	-10.7086
▁나오기	-10.7087
▁기발한	-10.7089
▁커서	-10.7091
▁세월이	-10.7093
▁티비로	-10.7093
▁이제는	-10.7094
▁쩔	-10.7095
▁모방	-10.7099
▁우린	-10.7101
▁만드네	-10.7102
달라	-10.7106
▁눈으로	-10.7106
멋있	-10.7107
▁사랑스럽고	-10.7107
석이	-10.7109
▁안되네	-10.7111
회부터	-10.7114
되게	-10.7114
마저도	-10.7115
▁낚인	-10.7116
▁했습니다	-10.7116
▁수록	-10.7117
몰입도	-10.7117
▁웃을	-10.7117
...(	-10.7118
▁별거	-10.7119
▁편하게	-10.7121
▁한사람	-10.7128
▁심하다	-10.7129
▁movie	-10.713
▁다시금	-10.7131
▁연기력에	-10.7134
▁오해	-10.7135
▁신화	-10.7135
▁시리즈의	-10.7137
▁외국인	-10.714
국민	-10.7142
세상에	-10.7147
▁좋아하지만	-10.7148
▁한심하다	-10.7151
말을	-10.7154
▁재밋는	-10.7159
▁짜리	-10.7161
▁일반인	-10.7165
지면	-10.7165
▁x	-10.7166
▁추가	-10.7169
방에서	-10.7174
잡고	-10.7174
속으로	-10.7181
▁와서	-10.7181
맞추	-10.7183
▁들어서	-10.7188
▁힘들어	-10.7189
칭	-10.7191
▁앞에서	-10.7192
▁알려주는	-10.7192
▁위험	-10.7193
~~~~~	-10.7194
▁미소가	-10.7195
▁눈치	-10.72
▁전화	-10.7202
졌으면	-10.7203
붕	-10.7204
카메라	-10.7207
▁가야	-10.721
▁담고	-10.721
▁보시	-10.7213
▁폼	-10.7213
꺼면	-10.7216
하려면	-10.7216
▁그대	-10.7217
▁든	-10.7217
▁1,2	-10.7221
했어도	-10.7225
▁재밋엇	-10.723
심이	-10.7233
▁지루함을	-10.7234
곳에	-10.7239
▁구분	-10.7241
▁할때	-10.7243
▁짧	-10.7243
▁보기가	-10.7244
▁권력	-10.7244
▁가장한	-10.7246
▁선동	-10.7249
▁전율	-10.725
나왓	-10.7251
자면	-10.7253
▁하자	-10.7253
▁만들어라	-10.7259
웃긴	-10.7268
로서는	-10.7268
▁때리	-10.7274
▁시기	-10.7274
호러	-10.7278
았습니다	-10.7278
▁상황을	-10.7281
▁죄송	-10.7283
죽음	-10.7283
과정	-10.7283
▁킬링	-10.7285
덩	-10.7285
▁런닝타임	-10.7285
▁세련된	-10.7285
▁유치찬란	-10.7285
▁바탕으로	-10.7285
▁마찬가지	-10.7285
▁bad	-10.7285
▁나루토	-10.7285
▁말이필요없다	-10.7288
▁거짓	-10.729
▁억지스런	-10.729
▁속았다	-10.7292
▁될수	-10.7292
▁14	-10.7293
▁태국	-10.7294
보셈	-10.7294
▁긴장감을	-10.7294
▁여태	-10.7295
만원	-10.7296
▁웃었다	-10.7297
▁재밌었습니다	-10.7298
내려	-10.7299
▁했으나	-10.7301
작가님	-10.7303
안나	-10.7307
판이	-10.7308
마리	-10.7309
▁멜로영화	-10.731
▁당연한	-10.7313
▁받았다	-10.7314
▁괜찮네요	-10.7317
▁부산	-10.7319
▁원조	-10.7319
▁보고싶은데	-10.732
▁채워	-10.7321
모르고	-10.7321
▁웃겼다	-10.7322
▁화려하	-10.7322
▁머릿속	-10.7323
▁웃겨서	-10.7323
정도는	-10.7324
▁모습에	-10.7325
▁있겠지만	-10.7326
나면	-10.7328
학년때	-10.7329
▁화질	-10.7329
▁우선	-10.7329
▁안감	-10.733
답다	-10.7333
▁말았다	-10.7336
▁느끼고	-10.7336
구역	-10.7337
▁최대	-10.7337
좀비	-10.7338
▁니가	-10.7344
▁봐줄만	-10.7345
▁잔잔함	-10.7348
▁모든것이	-10.7348
▁클래식	-10.7349
레기	-10.7352
▁짱구	-10.7357
▁수준을	-10.7358
▁발음	-10.7359
▁기대했	-10.736
▁사람에게	-10.7362
▁느껴지지	-10.7362
▁타란티노	-10.7363
▁본능	-10.7364
차원	-10.7365
점이나	-10.7366
▁남는게	-10.7367
▁하세요	-10.7368
▁했는지	-10.7369
▁시리즈를	-10.737
▁했나	-10.7372
보려고	-10.7377
떨어지	-10.738
▁부족하고	-10.7382
▁원숭이	-10.7383
▁망쳐놓	-10.7383
▁예수	-10.7384
돋	-10.739
어색	-10.739
▁뻔하다	-10.7391
▁땐	-10.7392
▁있냐	-10.7393
▁상업영화	-10.7394
..............	-10.7395
▁잼없다	-10.7396
▁살아남	-10.74
평론가	-10.74
그녀	-10.7401
▁들지	-10.7402
▁열라	-10.7403
▁이것보다	-10.7403
▁먹어	-10.7407
▁여자를	-10.7407
▁무기	-10.7412
▁구성도	-10.7414
▁우는	-10.7414
분들은	-10.7416
긴했지만	-10.7416
해야하나	-10.7417
여운	-10.7418
▁찾기	-10.7419
▁것들	-10.742
▁될듯	-10.7428
벽	-10.7429
뉴	-10.743
▁물어	-10.7431
▁몇년	-10.7432
폴	-10.7434
철학	-10.7436
갑자기	-10.7436
더라고요	-10.7441
▁E	-10.7445
▁보여줄	-10.745
▁무협영화	-10.7451
▁넣어	-10.7453
▁대박이다	-10.7454
▁드라마다	-10.7454
▁실사	-10.7454
소름	-10.7456
들끼리	-10.7456
▁게스트	-10.7458
▁고등학교	-10.7458
▁잔잔	-10.7458
있는영화	-10.746
이후로	-10.7461
조아	-10.7464
▁오는	-10.7464
▁실망이다	-10.7465
▁안나옴	-10.7467
▁재밌지	-10.7472
▁안나온다	-10.7472
는것이	-10.7473
므	-10.7476
까지도	-10.748
프라	-10.748
▁훈훈	-10.7481
▁사실이	-10.7481
▁뻔하	-10.7482
남기	-10.7485
▁J	-10.7486
트가	-10.7487
▁영화라지만	-10.749
삭	-10.749
~♥	-10.7492
▁필요가	-10.7498
▁무엇이	-10.75
▁한가지	-10.7501
균	-10.7504
▁상업	-10.7505
▁쏟아	-10.7505
▁마냥	-10.7505
빠르	-10.7505
랍니다	-10.7506
냄	-10.7506
웟	-10.7507
램	-10.7507
ᄐ	-10.7507
▁봤고	-10.7507
▁크레딧	-10.7507
▁짬뽕	-10.7507
▁섬뜩	-10.7507
▁아기자기	-10.7507
드려요	-10.7507
▁떡밥	-10.7508
▁상큼	-10.7509
▁의해	-10.7509
▁바란다	-10.7509
티비	-10.7511
▁자연스러운	-10.7511
▁성인이	-10.7512
거같아	-10.7513
▁개나	-10.7514
▁글고	-10.7521
▁괜찮았던	-10.7523
보러	-10.7524
▁시청자들	-10.7526
좋은데	-10.7526
ᄀᄀ	-10.7527
▁소통	-10.7528
▁감정선	-10.753
▁안타까움	-10.7538
▁조잡한	-10.7539
▁배우분들	-10.7545
▁한동안	-10.7546
▁남아있	-10.7551
밖	-10.7554
▁갖게	-10.7557
이래	-10.7557
▁죽었	-10.7558
노출	-10.756
▁기타	-10.7563
▁웃음을	-10.7565
▁저리	-10.7567
▁문제를	-10.7567
▁머냐	-10.7579
▁캐릭	-10.7586
개가	-10.7587
▁수면제	-10.7588
▁대사도	-10.7589
▁빠져들게	-10.759
▁재수없	-10.7595
▁사과	-10.7598
▁17	-10.7598
줘요	-10.7599
없지	-10.76
▁최고최고	-10.7601
▁호흡	-10.7602
▁장점	-10.7603
▁연주	-10.7603
▁작품이라	-10.7606
점으로	-10.7607
▁미스테리	-10.7608
▁혁명	-10.7608
▁스타뎀	-10.7608
▁드라마로	-10.761
지않게	-10.7611
하하	-10.7611
▁좋더라	-10.7615
▁라이언	-10.7623
▁음악은	-10.763
줄은	-10.763
▁공포는	-10.7631
▁오그라들	-10.7633
▁몬	-10.7637
▁비교해	-10.7638
▁그이상	-10.7639
거보고	-10.764
.............	-10.764
><	-10.7641
▁멋있고	-10.7645
앞	-10.7645
깐	-10.7648
안하고	-10.7651
▁잘생겼	-10.7655
것들이	-10.7657
▁살아있	-10.7662
그래픽	-10.7664
리오	-10.7666
첫	-10.7666
보라	-10.767
볼때마다	-10.767
▁완성	-10.7671
병맛	-10.7672
보네요	-10.7673
없었다	-10.7673
▁할말	-10.7675
▁의한	-10.7677
▁마시	-10.7677
비스	-10.768
갈때	-10.7683
ne	-10.7683
▁잼있는	-10.7685
▁드라마에	-10.7686
엉성	-10.7687
▁두명	-10.7687
▁드러	-10.7688
평생	-10.769
▁센스	-10.7692
보지마라	-10.7696
재밌는	-10.7697
볼때	-10.7697
▁점이	-10.7698
하였다	-10.7702
▁진부하	-10.7704
▁빠졌	-10.771
▁;;;	-10.7711
▁제목에	-10.7711
▁짜증났	-10.7714
▁봐야한다	-10.7715
자와	-10.7721
게만드는	-10.7725
▁스토리로	-10.7726
▁어째	-10.7728
▁얘기를	-10.7728
같아서	-10.7732
탱	-10.7733
펜	-10.7734
▁커버	-10.7734
뜸	-10.7734
▁즐거움	-10.7734
▁호불호가	-10.7734
덴	-10.7734
****	-10.7734
깃	-10.7734
믄	-10.7734
좆	-10.7734
▁피아노	-10.7734
점주기도	-10.7735
▁오그라드는	-10.7735
▁김혜수	-10.7735
▁찬양	-10.7738
▁웃으며	-10.7739
vs	-10.7739
▁일을	-10.7741
▁느껴질	-10.7742
▁시골	-10.7742
▁로망	-10.7743
▁장진	-10.7744
▁경악	-10.7744
해줄	-10.7744
▁복선	-10.7748
▁처음본다	-10.7749
▁안보면	-10.7749
됬다	-10.775
▁우승	-10.775
▁허구	-10.7753
▁아이를	-10.7753
▁원작과	-10.7757
▁미학	-10.7758
▁채우	-10.7759
▁귀여워서	-10.776
▁해야지	-10.7761
▁가족을	-10.7761
▁레오	-10.7762
▁is	-10.7762
▁알바생	-10.7762
▁기대된다	-10.7764
▁고증	-10.7764
▁인연	-10.7766
숨	-10.7767
▁극본	-10.7769
▁나니	-10.7771
▁협	-10.7773
▁후반부에	-10.7775
▁의미있는	-10.7779
▁느껴졌다	-10.7779
지마세요	-10.7781
명을	-10.7783
▁맛있	-10.7786
▁무식	-10.779
▁있어보이	-10.7792
▁동감	-10.7794
점대가	-10.7794
▁되서	-10.7795
▁점에서	-10.7797
▁정체성	-10.7802
▁어수선	-10.7803
▁과정이	-10.7806
▁삶과	-10.7806
▁예고	-10.7809
▁낮네요	-10.7809
져야	-10.781
▁망쳐	-10.7817
▁또보고싶	-10.7819
▁머야	-10.7819
▁축	-10.7821
▁설정은	-10.7826
시장	-10.7829
슬프	-10.7831
낫다	-10.7832
▁아쉬워요	-10.7835
▁이상은	-10.7836
▁만들기	-10.7839
▁세상에서	-10.784
▁봐주	-10.784
스코	-10.7841
▁액션만	-10.7843
보여주	-10.7848
▁힘을	-10.7852
시키지	-10.7852
▁있었음	-10.7852
▁의미도	-10.7853
▁찍을	-10.7853
▁못했던	-10.7864
▁몰입도도	-10.7867
▁정부	-10.787
▁사람과	-10.7876
▁타이	-10.7879
▁광기	-10.7883
▁믿는	-10.7883
▁역사적	-10.7884
▁알아야	-10.7887
▁개념	-10.7888
▁명작임	-10.7893
낚	-10.7899
잘봤습니다	-10.7905
암튼	-10.7907
넘치는	-10.7908
▁젖	-10.7909
감성	-10.7911
성룡	-10.7911
▁이하도	-10.7911
장에서	-10.7914
▁십점	-10.7915
▁가족과	-10.792
▁도와	-10.7923
천재	-10.7926
▁조잡	-10.7927
▁기억나	-10.7929
재밋음	-10.7932
미치	-10.7933
▁감안	-10.7936
하구만	-10.7936
주려고	-10.794
될까	-10.7947
하나요	-10.7948
재미없는	-10.7959
▁털	-10.7963
그림	-10.7965
닭	-10.7967
쟈	-10.7967
▁2.22	-10.7967
▁고등학생	-10.7967
▁껐다	-10.7967
▁봤나	-10.7967
꽁	-10.7967
쇠	-10.7967
쭈	-10.7967
▁엄정화	-10.7967
▁어딘가	-10.7967
▁오페라	-10.7967
▁완젼	-10.7967
▁건가	-10.7967
▁두고두고	-10.7968
부리	-10.7973
▁간직	-10.7974
▁공주	-10.7974
할수없는	-10.7974
▁흥미롭지	-10.7975
▁않으면	-10.7976
▁본듯한	-10.7976
▁자아	-10.7978
▁감동적입니다	-10.7978
▁소품	-10.7979
▁의견	-10.7979
▁치밀	-10.798
▁아깝습니다	-10.798
▁또라이	-10.7981
▁구조	-10.7982
▁쫓	-10.7982
▁일찍	-10.7982
▁지옥	-10.7983
▁마블	-10.7983
▁되었습니다	-10.7984
▁감동적이었다	-10.7989
▁족	-10.7991
▁애정	-10.7991
▁언어	-10.7993
▁즐겨	-10.7997
마음이	-10.8
▁구경	-10.8001
쟁	-10.8001
▁법정	-10.8003
▁왔는데	-10.8006
▁듣는	-10.8006
▁스필버그	-10.8007
▁쓰러	-10.8007
맞아	-10.8015
▁감성을	-10.8015
▁보여줬	-10.8016
▁흉내내	-10.8019
사라지	-10.8019
▁편인데	-10.8022
공부	-10.8022
▁전율이	-10.8022
▁행복하게	-10.8024
▁생각은	-10.8027
▁본건	-10.8027
us	-10.8028
▁지경	-10.8029
로서의	-10.803
팔이	-10.8031
돌려	-10.8031
▁무섭게	-10.8034
▁생각만	-10.8034
▁현실은	-10.8038
▁기대했던	-10.8038
▁제대로된	-10.8039
만들엇	-10.804
▁오글거림	-10.8043
▁잊지못할	-10.8043
▁지겨워	-10.8044
▁벽	-10.8046
▁니들이	-10.8048
▁안봐서	-10.805
id	-10.8052
앉	-10.8052
할정도로	-10.8054
본거	-10.8055
죽는	-10.8056
누가	-10.8057
삼류	-10.8058
▁길을	-10.8061
감상	-10.8061
▁섬세한	-10.8063
잘못	-10.8063
더스	-10.8064
▁떨어져	-10.8072
▁손가락	-10.8073
잇엇	-10.808
▁형식	-10.808
▁당황	-10.8081
포인트	-10.8084
▁가슴아프	-10.8085
▁다시봤는데	-10.8089
▁루즈	-10.809
자연	-10.8092
ᄏᄏᄏᄏᄏᄏᄏ	-10.8092
▁남아있는	-10.8093
▁감독에게	-10.8099
들이나	-10.8102
였네	-10.8104
걸작	-10.8106
여야	-10.8109
▁너무하네	-10.8111
▁탐	-10.8111
법한	-10.8113
▁이딴영화	-10.8118
같애	-10.8119
▁하도	-10.8123
▁받아야	-10.8124
▁졸잼	-10.8125
습니까	-10.8126
나올때	-10.8127
▁안가는	-10.8129
▁평을	-10.8131
까지만	-10.8133
▁면에서	-10.8134
▁아니라면	-10.8136
수없다	-10.8138
취향	-10.8141
70	-10.8142
▁스포	-10.8143
감은	-10.8144
▁싫어하는	-10.8147
떼	-10.8148
▁넘넘	-10.815
▁대사와	-10.8151
분도	-10.8155
▁산만	-10.8156
▁본방	-10.8157
올려	-10.8158
영웅	-10.8158
내용을	-10.8159
▁표정이	-10.8165
한마디로	-10.8167
앞에서	-10.8173
▁밑	-10.8178
아닌데	-10.8179
▁벌어	-10.8179
왔던	-10.8181
▁잡는	-10.8185
주인공이	-10.8185
~~"	-10.8192
▁허허	-10.8194
▁답답해	-10.8195
흡	-10.8196
있다면	-10.8197
아쉬웠	-10.8203
▁비해서	-10.8203
뜬	-10.8203
옳	-10.8204
앨	-10.8205
▁데이빗	-10.8205
▁박찬욱	-10.8205
쩍	-10.8205
츄	-10.8205
▁손예진	-10.8205
▁화끈한	-10.8205
▁늙은	-10.8206
▁스파이	-10.8206
▁빠질	-10.8207
느껴	-10.8208
▁생존	-10.8209
▁보낸다	-10.821
▁저평가	-10.821
▁중년	-10.821
▁한글	-10.821
▁재탕	-10.8212
▁사이코	-10.8213
▁환장	-10.8213
▁국산	-10.8213
▁삐	-10.8217
시네	-10.8219
▁모순	-10.822
▁회사	-10.8221
:)	-10.8225
▁히어로물	-10.8225
▁못하겠다	-10.8225
▁해외	-10.8225
자막	-10.8226
▁러닝타임이	-10.8227
잔잔한	-10.8227
▁끔	-10.8227
▁괴수	-10.8233
▁결국엔	-10.8234
▁이루어	-10.8234
하는듯	-10.8236
he	-10.8237
▁강추합니다	-10.8237
드립니다	-10.8239
▁없애	-10.8239
ma	-10.824
▁믿을게	-10.8241
▁않습니다	-10.8243
▁약한	-10.8244
▁하며	-10.8244
▁알려주	-10.8246
없었	-10.8246
▁이런식으로	-10.8247
▁현실에	-10.8249
개는	-10.8251
끝나고	-10.8252
▁옛날영화	-10.8254
▁밋밋한	-10.8256
주네	-10.8257
같은데	-10.8257
▁주세요	-10.8258
▁테이큰	-10.8261
▁만든건지	-10.8265
▁이영화의	-10.8265
▁훈훈하고	-10.8266
모델	-10.8267
는것을	-10.8267
▁애니매이션	-10.8268
▁김희선	-10.8268
▁여주인공의	-10.8269
▁막상	-10.8272
▁좋아했던	-10.8272
▁화가나	-10.8277
▁만들었으면	-10.8278
놈은	-10.8279
▁걸작이다	-10.8285
▁불가	-10.8286
보려	-10.8289
뛰	-10.829
▁첨으로	-10.8291
▁알지	-10.8292
▁자위	-10.8294
▁명배우	-10.8299
▁나오네요	-10.8308
▁ᄏᄏᄏᄏᄏᄏᄏᄏᄏᄏᄏ	-10.8308
▁매주	-10.8309
▁전편보다	-10.8312
분들께	-10.8313
▁뺏	-10.8313
▁영화인것	-10.8313
따구	-10.8316
▁즐길	-10.8318
▁나한테	-10.8318
▁세대	-10.8323
lo	-10.8326
▁그럴듯	-10.8326
▁최고인듯	-10.8328
▁오지	-10.8329
구먼	-10.8331
같기도	-10.8332
▁시대적	-10.8342
▁소재만	-10.8342
▁조용	-10.8345
▁되면	-10.8345
민호	-10.8347
▁창피	-10.8349
▁이야기의	-10.8353
▁액션물	-10.8356
▁영화보다가	-10.8358
▁즐거웠	-10.836
▁참여	-10.8363
신부	-10.8364
▁이딴게	-10.8365
▁필요하다	-10.8368
거같네요	-10.8371
▁아무나	-10.8374
▁쌍	-10.8374
네유	-10.8375
▁독립	-10.8377
▁아기	-10.8379
▁영상미도	-10.8389
무서운	-10.8398
싶은데	-10.84
누님	-10.8402
분정도	-10.8402
마무리	-10.8403
뒤에	-10.8406
▁절대로	-10.8406
둥이	-10.8412
▁아오이	-10.8412
▁분위기는	-10.8412
있었던	-10.8413
닿	-10.8416
▁상식	-10.8418
▁t	-10.8419
소재는	-10.8419
훌륭한	-10.8424
감동도	-10.8424
▁오랜	-10.8424
엇음	-10.8425
버린다	-10.8425
먹었	-10.8427
▁다행이	-10.8429
▁쓰지	-10.843
보기엔	-10.8432
영화관에서	-10.8432
뷰	-10.8434
설마	-10.8435
▁그립	-10.8437
끝내	-10.8437
▁괜찮아	-10.8441
▁굿굿굿	-10.8445
보여서	-10.8446
▁시대가	-10.8448
뚱	-10.8448
▁군더더기	-10.8449
▁뒤늦게	-10.8449
▁봤는지	-10.8449
▁오랫동안	-10.8449
륵	-10.8449
삘	-10.8449
▁스페인	-10.8449
▁정주행	-10.8449
▁원피스	-10.8449
▁멘탈	-10.8449
▁아바타	-10.8449
▁컬트	-10.8449
▁총체적	-10.845
▁유행	-10.845
▁잘했다	-10.8451
▁남자는	-10.8451
땜시	-10.8451
▁날리	-10.8455
▁애국심	-10.8456
분들이	-10.8457
▁열광	-10.8457
▁저급	-10.8458
아무	-10.8459
▁믿지	-10.846
▁공허	-10.846
▁심각하게	-10.8461
-.-	-10.8462
▁웃다가	-10.8465
▁멋져요	-10.8467
▁감동적임	-10.8467
입장	-10.8467
▁개인적인	-10.8468
▁동화같은	-10.8468
▁만들었냐	-10.8471
▁인간적으로	-10.8475
▁자세	-10.8476
▁오직	-10.8479
▁낮은지	-10.8481
▁살인자	-10.8482
아침	-10.8483
95	-10.8483
포드	-10.8483
▁불쌍해서	-10.8483
▁ᄏᄏᄏᄏᄏᄏᄏᄏᄏ	-10.8484
▁만들어야	-10.8484
▁주온	-10.8485
▁여유	-10.8486
▁신경쓰	-10.8488
▁많음	-10.8489
▁완성도가	-10.849
▁몰입하게	-10.8497
▁에로물	-10.8497
▁주고싶다	-10.8504
CGV	-10.8505
▁메세지를	-10.8505
▁별점이	-10.8505
▁욕을	-10.8508
▁니네	-10.8512
▁뉴	-10.8516
▁지금보면	-10.8517
▁타임	-10.8519
▁음악을	-10.8519
▁락	-10.8522
▁데려다	-10.8524
▁h	-10.853
꺼라	-10.8532
▁거기	-10.8533
▁나면	-10.8533
▁난해하	-10.8536
▁아닌것	-10.8537
하겠지만	-10.8539
▁다름	-10.854
▁영상미와	-10.854
입니까	-10.8541
▁틈	-10.8541
▁이어지	-10.8542
▁스파이더맨	-10.8544
▁힘들었다	-10.8544
미스	-10.8545
▁바라는	-10.8546
▁쩌네	-10.8547
▁차승원	-10.8552
▁픽션	-10.8552
▁이렇게까지	-10.8555
▁진부하다	-10.8555
▁자체로	-10.8555
주고싶다	-10.8555
▁말라	-10.8556
▁만날	-10.8558
▁감이	-10.8559
▁별로네요	-10.8561
▁높지	-10.8561
그때	-10.8563
마치	-10.8564
하는건지	-10.8564
▁걸로	-10.8565
편과	-10.8568
▁밝혀	-10.8569
▁와닿지	-10.857
▁허접하고	-10.857
큼	-10.8572
높아	-10.8574
잔잔	-10.8575
달라고	-10.8576
하기는	-10.8577
이러니	-10.8577
년동안	-10.8578
▁안봄	-10.8584
▁연습	-10.8588
앞으로	-10.8596
기법	-10.8603
▁일본에서	-10.8609
▁유사	-10.861
싶어서	-10.8614
▁싶다면	-10.8615
말고는	-10.8615
없는데	-10.8616
평점을	-10.8617
▁당시엔	-10.8617
▁면이	-10.8619
없어요	-10.8623
▁흑	-10.8624
▁신이	-10.8627
▁장르를	-10.8628
▁벗어	-10.863
른다	-10.8631
▁강력	-10.8631
▁나올까	-10.8631
말이필요없	-10.8633
▁심장이	-10.8636
▁ᅲᅮ	-10.8638
▁긴장감과	-10.8641
으세요	-10.8641
것같아	-10.8642
협	-10.8643
사극	-10.8648
▁많네	-10.8652
저도	-10.8653
▁불쌍해	-10.8653
▁결국은	-10.8653
무서워	-10.8654
▁한다고	-10.8654
▁여운도	-10.8654
▁남았	-10.8655
▁볼만했	-10.8655
쫌	-10.8655
▁정체	-10.8656
진정한	-10.8657
ᄉᄇ	-10.8658
냄새	-10.8659
cg	-10.8659
▁스토리나	-10.866
할수없	-10.866
재미있음	-10.8662
▁제작비가	-10.8664
란다	-10.8665
야겠다	-10.8665
▁설명이	-10.8666
▁보지도	-10.8667
다시봐도	-10.8667
▁달리는	-10.867
재밋어요	-10.8673
▁배꼽	-10.8675
▁내시간	-10.8676
드네요	-10.8676
▁예측	-10.8679
▁go	-10.8682
후반	-10.8682
껀	-10.8682
유머	-10.8683
보였다	-10.8683
조차도	-10.8684
남녀	-10.8687
▁못만들	-10.8689
듣고	-10.8694
어느	-10.8696
풋	-10.8699
ᄊ	-10.8699
▁기다렸	-10.8699
▁닮았	-10.8699
▁엉망진창	-10.8699
캠	-10.8699
▁가볍지	-10.8699
▁구혜선	-10.8699
▁국어책	-10.8699
▁설경구	-10.8699
넓	-10.8699
얄	-10.8699
▁그냥저냥	-10.8699
▁외로움	-10.8699
▁나머진	-10.8699
▁심리묘사	-10.87
▁드라마중	-10.87
▁갖춘	-10.87
▁흥미롭게	-10.87
▁후속편	-10.8701
▁죽음을	-10.8701
게다가	-10.8701
▁색채	-10.8702
▁퇴보	-10.8703
▁2015	-10.8703
▁시간아까워	-10.8703
▁이딴거	-10.8704
▁새삼	-10.8704
▁허탈	-10.8705
▁피곤	-10.8706
위한	-10.8707
▁반응	-10.8708
▁주인공들이	-10.8708
▁우울한	-10.8708
▁모독	-10.8709
▁번역	-10.8711
▁재미없었음	-10.8712
▁인생에서	-10.8713
▁뭐랄까	-10.8714
▁쥬	-10.8714
떨어지는	-10.8715
평점은	-10.8719
▁잘하네요	-10.8719
▁이기적인	-10.8719
▁재밋어	-10.872
▁알게된	-10.872
▁성형	-10.8721
다는걸	-10.8723
▁시체	-10.8725
▁로마	-10.8727
안녕	-10.8728
▁배울	-10.873
▁공연	-10.8731
▁최고에요	-10.8731
표정	-10.8732
▁"1,2	-10.8734
▁완벽하게	-10.8737
▁다섯	-10.8737
▁두개	-10.8739
많고	-10.874
▁아버지가	-10.874
▁정석	-10.8741
▁겨울왕국	-10.8742
약간	-10.8745
▁포함	-10.8746
되네	-10.8748
▁줘	-10.8753
▁부분에서	-10.8753
▁까는	-10.8754
et	-10.8755
여기	-10.8757
▁끄는	-10.8759
▁전개에	-10.8759
▁좋구	-10.876
나이트	-10.8761
▁영환	-10.8763
▁활	-10.8764
이젠	-10.8769
ᄏᄏᄏᄏᄏᄏᄏᄏᄏ	-10.877
▁천만	-10.877
▁환상적	-10.8774
아까운영화	-10.8779
집에서	-10.8779
▁엔딩은	-10.8785
▁보구	-10.8785
▁어쨌든	-10.8789
▁권상우	-10.8789
편으로	-10.879
▁본격	-10.8792
▁후반부로	-10.8794
▁상처를	-10.8794
▁녹아	-10.8797
▁청년	-10.88
▁검색해	-10.8801
▁스릴감	-10.8805
다보니	-10.8805
▁이어지는	-10.8806
듣	-10.8816
▁걸까	-10.8817
ᄒᄒᄒᄒ	-10.8818
▁지금이나	-10.8818
▁공룡	-10.8823
▁울어	-10.8824
주었다	-10.883
달리	-10.8833
눈물이	-10.8836
하잖아	-10.884
▁만드냐	-10.8844
▁긴장감은	-10.8847
▁세월	-10.8847
세여	-10.8849
났음	-10.885
▁안나오고	-10.8854
거니	-10.8855
▁한국어	-10.8855
▁중독	-10.8858
25	-10.886
▁여배우의	-10.8861
18	-10.8864
프리	-10.8864
▁반감	-10.8865
▁않아요	-10.8866
▁보이고	-10.8868
▁여자들이	-10.887
▁모르겟	-10.8874
▁가져다	-10.8874
억울	-10.8877
▁불가능	-10.8878
가슴이	-10.8879
머니	-10.8883
▁인물들의	-10.8883
영화제	-10.8885
않았다	-10.8887
▁할말없	-10.8889
ve	-10.889
▁기억을	-10.8896
!!!!!!!!	-10.8898
▁상상력이	-10.8899
▁대결	-10.8905
▁캐릭터는	-10.8906
하루	-10.8908
▁돋보이	-10.8909
렵	-10.8911
▁가상	-10.8914
▁인권	-10.8915
특유의	-10.8919
불륜	-10.892
▁징	-10.8922
유쾌	-10.8925
모르겠다	-10.8925
▁허나	-10.8925
!!!!!!!	-10.8929
같은거	-10.893
거랑	-10.8934
이기도	-10.8934
스탈	-10.8934
지않나	-10.8939
▁미쳐	-10.894
▁이것은	-10.8941
줄알았는데	-10.8943
▁연기력과	-10.8943
▁진실을	-10.8945
▁아리	-10.8947
날려	-10.8947
컴	-10.8954
스러울	-10.8955
▁소피마르소	-10.8955
▁송승헌	-10.8955
▁트랜스포머	-10.8955
졋	-10.8955
줫	-10.8955
팩	-10.8955
▁간간히	-10.8955
▁다이하드	-10.8955
▁원주율	-10.8955
▁팝콘	-10.8955
▁김명민	-10.8955
▁드니로	-10.8956
▁강아지	-10.8956
▁가슴아픈	-10.8957
▁가까이	-10.8957
▁사라진	-10.8957
▁말아먹은	-10.8958
▁낚여서	-10.8958
▁람보	-10.8958
▁슈퍼맨	-10.8958
▁뛰	-10.8958
▁첫번째	-10.8959
▁욕나온다	-10.8959
▁패션	-10.896
▁미친듯이	-10.896
▁꺼져	-10.8961
▁영화였는데	-10.8963
▁재방송	-10.8965
▁음향	-10.8967
▁지루했음	-10.8968
▁기억난다	-10.8971
▁백배	-10.8971
▁거기서	-10.8971
▁경계	-10.8971
▁깨달음	-10.8972
▁흘러가	-10.8972
▁뉴스	-10.8973
▁선생	-10.8973
▁부각	-10.8973
▁러브스토리	-10.8973
▁어울리	-10.8974
시간을	-10.8975
▁느껴졌	-10.8978
60	-10.8981
▁처음이네	-10.8982
▁하던데	-10.8982
다운받	-10.8983
▁더욱더	-10.8983
▁귀신이	-10.8985
▁중국영화	-10.8986
▁굉장한	-10.8987
▁대사들	-10.899
▁숲	-10.8991
▁알바가	-10.8992
스카	-10.8992
▁순진	-10.8994
▁영향을	-10.8994
▁아름답	-10.8999
이란게	-10.8999
한텐	-10.8999
▁경우	-10.9001
▁때는	-10.9003
▁영원	-10.9004
선생님	-10.9004
▁간지	-10.9008
▁빠지게	-10.9009
▁슬펐다	-10.9013
씨도	-10.9014
ri	-10.9015
▁다크	-10.9017
ter	-10.9018
▁시간과	-10.902
코드	-10.9022
▁어차피	-10.9023
▁한석규	-10.9023
▁가관	-10.9024
▁태어나	-10.9026
▁고작	-10.9026
장님	-10.9026
▁남의	-10.9027
▁인식	-10.9038
▁"3	-10.9039
▁강하게	-10.9051
▁윌	-10.9053
▁한계를	-10.9055
▁의도를	-10.9068
▁대역	-10.907
▁밀어	-10.9077
▁영화중에서	-10.9077
▁싸우	-10.908
▁이영화보고	-10.908
신분	-10.9082
▁나온거	-10.9086
▁한개	-10.9088
▁심오한	-10.9089
▁불쾌한	-10.9089
▁제작자	-10.909
▁내놓	-10.9102
▁식상하다	-10.9102
▁젊	-10.9104
반전이	-10.9106
▁말아	-10.9106
▁모여	-10.9107
▁최악임	-10.9108
▁통쾌한	-10.911
▁아직까지도	-10.9114
대중	-10.9116
▁결과는	-10.9116
▁대표	-10.9119
▁삶은	-10.9124
▁싶었는데	-10.9124
▁님들	-10.9125
▁없으니	-10.9127
민주	-10.9128
▁이런것도	-10.9132
▁심오	-10.9134
▁혼란	-10.9135
하는것도	-10.9138
▁반갑	-10.9144
▁장르의	-10.9144
것도아니고	-10.9148
질러	-10.9153
▁마음속에	-10.9154
▁보진	-10.9158
으리	-10.9165
▁선택한	-10.9166
▁강제	-10.9168
아까워	-10.9171
▁없어도	-10.9173
▁낮추	-10.9173
▁끝은	-10.9173
▁기사	-10.9182
▁흥미진진한	-10.9183
▁죽일	-10.9184
장면에서	-10.9185
▁한숨	-10.9185
▁재밋고	-10.9185
잭	-10.9187
날때	-10.9187
되요	-10.9188
그렇지	-10.9188
비행	-10.9189
히어로	-10.9189
톰	-10.9189
코메디	-10.9191
▁되어야	-10.9193
준거	-10.9195
▁해준다	-10.9196
부분은	-10.9197
▁플	-10.9199
▁텐데	-10.9208
▁등장하는	-10.9209
▁잊혀	-10.9213
혐	-10.9217
▁취향이	-10.9217
밍	-10.9218
썸	-10.9218
▁매끄럽지	-10.9219
▁섞어	-10.9219
▁싸이코패스	-10.9219
▁어설퍼	-10.9219
▁엑스맨	-10.9219
▁영웅본색	-10.9219
▁인상깊게	-10.9219
▁박평식	-10.9219
▁더더욱	-10.9219
▁멈추	-10.9219
http	-10.9219
▁색깔	-10.9219
▁농담	-10.9222
년간	-10.9223
정보	-10.9223
▁장혁	-10.9223
내서	-10.9223
▁커피	-10.9224
▁실패작	-10.9226
▁아침드라마	-10.9227
▁여태까지	-10.9229
▁학살	-10.923
▁존잼	-10.923
▁예뻐서	-10.9231
▁좋아하지	-10.9236
액션이	-10.9236
하죠	-10.9236
와이프	-10.9237
▁적극	-10.9237
▁탁월한	-10.9239
▁있었습니다	-10.9239
▁좋아하시는	-10.9241
장군	-10.9241
▁제왕	-10.9243
아시아	-10.9243
▁성경	-10.9245
▁초반부터	-10.9246
▁성적	-10.9246
▁이따구로	-10.9251
대장	-10.9254
▁사람만	-10.9255
돈으로	-10.9256
▁돌아오	-10.9257
▁대학생	-10.9258
▁멋진영화	-10.9258
▁마무리가	-10.9259
▁우디	-10.9259
빡치	-10.9261
찍는	-10.9264
▁다보고	-10.9264
나오면	-10.9266
▁어디까지	-10.9267
▁작품중	-10.9269
▁죽는다	-10.9269
개를	-10.9271
▁이것저것	-10.9272
졌던	-10.9272
▁이따위로	-10.9278
새롭	-10.9279
아닌가	-10.9279
▁-_-;;	-10.928
▁주인공들의	-10.928
▁영화같다	-10.9281
넘치고	-10.9285
▁"10	-10.9285
라는데	-10.9285
▁그시절	-10.9286
▁욕만	-10.9288
▁유치하기	-10.9289
▁지들	-10.929
혀서	-10.929
as	-10.9291
▁어린아이	-10.9291
작렬	-10.9296
▁쏴	-10.9297
▁우리에게	-10.9298
▁낚였네	-10.9302
편부터	-10.9304
▁풀어내	-10.9306
여러	-10.9307
금지	-10.9307
이라는게	-10.931
▁통해서	-10.9313
할수도	-10.9314
▁제목은	-10.9315
▁혼자서	-10.9316
잇고	-10.9319
끼고	-10.932
줄알았다	-10.9322
있을까	-10.9324
라곤	-10.9324
▁최고인	-10.9325
재미는	-10.9326
▁뜬금없	-10.9327
보니깐	-10.9327
▁전설이	-10.9328
▁아니네	-10.9331
▁제시카	-10.9331
같네요	-10.9336
겠는가	-10.9337
▁마니	-10.9337
▁명작이라고	-10.9337
▁메세지가	-10.9341
나무	-10.9342
지않을	-10.935
▁크다	-10.9354
▁단역	-10.9357
못하겠	-10.9358
▁성의	-10.9361
▁캐스팅은	-10.9363
▁말은	-10.9366
▁못해서	-10.9373
시면	-10.9382
▁제외	-10.9383
▁부자	-10.9385
▁아류	-10.9389
▁버전	-10.9392
▁감동이다	-10.9394
▁어색함	-10.9399
▁노래는	-10.9399
뿐인	-10.94
▁길다	-10.9401
기준	-10.9403
▁무난	-10.9404
▁만세	-10.9407
▁흐르	-10.9409
is	-10.9414
▁영상은	-10.9418
▁OOOO	-10.9425
▁시리즈가	-10.9427
▁재미만	-10.9428
중에서도	-10.943
이영화는	-10.9431
신분들	-10.9441
▁소재에	-10.9444
판을	-10.9453
▁씁쓸하	-10.9453
▁재밌게본	-10.9454
뇌	-10.9456
▁싶음	-10.9456
멍	-10.9457
위에	-10.9457
지루해	-10.946
죽이고	-10.9461
낭비	-10.9462
▁하고싶은	-10.9463
▁적은	-10.9464
옷	-10.9465
땡	-10.9465
▁힘들게	-10.9465
귀여워	-10.9466
▁흐름이	-10.9467
▁분위기를	-10.9469
간지	-10.9471
아이돌	-10.9477
▁깨닫	-10.948
걷	-10.9481
▁최하	-10.9484
▁남긴	-10.9485
▁굳굳	-10.9485
읍	-10.9487
겄	-10.9489
▁아이언맨	-10.9489
▁에드워드	-10.9489
▁찢어	-10.9489
▁흐지부지	-10.9489
잣	-10.9489
▁신세경	-10.9489
▁오우삼	-10.9489
그나저나	-10.9489
▁미안해	-10.9489
▁커녕	-10.9489
▁아쉬웠지만	-10.9489
▁냉정	-10.9489
▁윌리스	-10.9489
▁전도연	-10.949
스피드	-10.949
▁절묘	-10.949
▁보여줌	-10.949
▁경의를	-10.9491
://	-10.9492
▁문득	-10.9492
밖엔	-10.9493
2005	-10.9493
단순	-10.9494
▁향한	-10.9495
▁훈훈하	-10.9496
▁신세계	-10.9497
▁치료	-10.9497
▁이따구	-10.9497
▁터지	-10.95
▁중반부터	-10.9501
▁미술	-10.9501
▁울었습니다	-10.9502
이기에	-10.9502
▁듣기	-10.9502
▁많은것을	-10.9504
▁돈벌	-10.9506
▁말해	-10.9508
만든다	-10.9509
▁어설프게	-10.9509
▁소중하	-10.951
심리	-10.9511
▁향기	-10.9512
▁의미없는	-10.9512
▁한번씩	-10.9512
▁적당하다	-10.9513
힘든	-10.9515
▁정말정말	-10.9517
▁하던가	-10.9517
13	-10.9518
돌이	-10.9518
▁무슨말이	-10.9521
될듯	-10.9525
타령	-10.9525
▁끝남	-10.9525
PD	-10.9528
▁왔다	-10.9532
▁웃기지	-10.9532
하기까지	-10.9533
▁못하네	-10.9543
▁변신	-10.9543
겼다	-10.9544
점주고	-10.9544
매우	-10.9545
소년	-10.9546
▁약하다	-10.9552
▁장소	-10.9552
▁하니	-10.9553
▁생각나게	-10.9553
▁추천한다	-10.9554
▁재밋네요	-10.9558
▁최민식	-10.9561
▁지배	-10.9565
이유는	-10.9569
▁베일	-10.9569
이였음	-10.9572
▁오글거려서	-10.9573
ck	-10.9577
▁어이없고	-10.9578
오글	-10.9578
설명	-10.9578
▁정신병	-10.9579
av	-10.9581
아쉽다	-10.9584
▁허무함	-10.959
▁놈들	-10.959
▁도움이	-10.9592
▁데뷔작	-10.9593
▁줘도	-10.9596
▁듬	-10.9597
99	-10.9599
▁주먹	-10.96
좋겠다	-10.9601
던영화	-10.9616
들이랑	-10.9616
▁공포감	-10.9617
일때	-10.962
▁저러	-10.9621
받아서	-10.9621
▁된다는	-10.9623
었다고	-10.9624
빼고는	-10.9638
▁떠오르는	-10.9641
스틴	-10.9643
▁웃겼	-10.9648
ᄒᄒᄒᄒᄒ	-10.9649
▁반도	-10.9652
▁범인이	-10.9657
▁캐리	-10.966
내리	-10.9666
▁보고싶네요	-10.9667
▁공감대	-10.9667
▁킬링타임용으로도	-10.9668
▁드러나	-10.9671
▁했어요	-10.9672
귀여웠	-10.9676
▁남친	-10.9676
▁설정과	-10.9677
음악도	-10.9682
겠고	-10.9682
▁쓰레기네	-10.9684
▁조폭영화	-10.9686
▁생각했던	-10.9688
▁발연기에	-10.9689
▁다른건	-10.9694
▁곱	-10.9697
점만점	-10.9697
▁내용전개	-10.9712
았지만	-10.9713
▁주려	-10.9715
▁애니는	-10.9717
아이가	-10.9722
▁라스트	-10.9722
▁담아	-10.9725
▁데이	-10.9726
▁추천해	-10.9726
▁따뜻	-10.9727
전체	-10.9727
▁신선하	-10.9728
▁남자들	-10.9728
것같습니다	-10.9731
▁하는건	-10.9732
▁이전	-10.9733
▁컷	-10.9735
▁한줄	-10.9735
▁좋아한다	-10.9735
▁냄새	-10.9735
맘에	-10.9736
시대를	-10.9745
▁짜증나네	-10.9747
▁애절	-10.9749
쥬	-10.975
할정도	-10.9751
꿀	-10.9751
잔인하	-10.9752
▁아쉬워	-10.9753
삐	-10.9753
액션영화	-10.9754
필름	-10.9754
즌	-10.9755
▁감성이	-10.9756
tv	-10.9757
랏	-10.9757
춰	-10.976
싼	-10.9763
뢰	-10.9764
랍	-10.9764
▁그들을	-10.9765
▁이상으로	-10.9766
퓨	-10.9766
쯔	-10.9766
끓	-10.9767
뚜	-10.9767
킥	-10.9767
드래곤	-10.9767
^_^	-10.9767
▁very	-10.9767
▁톰크루즈	-10.9767
펴	-10.9767
▁MBC	-10.9767
▁사무라이	-10.9767
▁지극히	-10.9767
▁장동건	-10.9767
▁임청하	-10.9767
▁모성애	-10.9767
▁함부로	-10.9767
▁손색이	-10.9767
▁흑역사	-10.9767
▁일어날	-10.9767
▁색다르	-10.9767
▁모자란	-10.9767
▁타이틀	-10.9768
나쁜	-10.9769
▁깜놀	-10.9769
▁자체도	-10.977
▁절제된	-10.977
▁몰락	-10.977
창있네	-10.9771
▁조아	-10.9771
▁장면만	-10.9771
▁이민기	-10.9772
▁접근	-10.9772
▁사라졌	-10.9772
▁지나친	-10.9772
보영	-10.9773
▁빨간	-10.9775
전개가	-10.9776
▁제정신	-10.9776
▁복수극	-10.9776
▁안타깝네요	-10.9776
▁드문	-10.9779
▁야하지도	-10.978
▁대표적인	-10.9781
노동자	-10.9781
▁안보는	-10.9781
▁있겠지	-10.9781
셨다	-10.9783
▁초반엔	-10.9784
▁직장	-10.9785
봣어요	-10.9785
▁나올수	-10.9786
▁몰랐는데	-10.9787
▁깔끔	-10.979
▁임신	-10.9792
▁드물	-10.9794
▁다시보게	-10.9794
▁재미있네	-10.9794
▁잼없음	-10.9794
척하는	-10.9794
인간의	-10.9795
활동	-10.9796
▁99	-10.9797
할텐데	-10.9797
▁택시	-10.9797
▁안된	-10.9798
▁보는동안	-10.9802
다시보고싶	-10.9802
▁어케	-10.9802
▁신데렐라	-10.9806
우드	-10.9808
▁진행되는	-10.9809
▁에러	-10.9809
▁잼나요	-10.981
었을텐데	-10.981
▁높은지	-10.9815
▁피식	-10.9816
나봐요	-10.9816
이유가	-10.9817
▁사망	-10.9818
▁곡	-10.9818
▁의외의	-10.9818
▁감명	-10.9818
▁세상의	-10.9819
지금까지	-10.982
장면도	-10.9821
▁답답해서	-10.9822
▁재밋는데	-10.9822
▁도라에몽	-10.9823
▁항	-10.9823
▁보게되었	-10.9824
것같음	-10.9825
▁최초의	-10.9831
▁놓은	-10.9835
▁촌스럽	-10.9837
▁전반	-10.9837
줘도	-10.9838
▁것과	-10.9839
▁있나요	-10.9839
묘사	-10.9841
▁끊어	-10.9844
▁기법	-10.9844
▁만들었네	-10.9852
▁아련한	-10.9854
시네요	-10.9856
▁아름다웠다	-10.9859
분명	-10.9861
어야지	-10.9861
▁바라보는	-10.9863
감동받	-10.9863
▁장난감	-10.9864
당하는	-10.9864
▁영화제목	-10.9865
▁옆에	-10.9868
▁잔인하고	-10.9873
▁재밌게봤는데	-10.9879
연애	-10.988
넘어	-10.9881
▁환상적인	-10.9883
▁추억을	-10.9883
▁아픔을	-10.9884
▁메리	-10.9884
▁K	-10.9885
왓	-10.9887
▁개소리	-10.9889
▁틈이	-10.9889
▁다른사람	-10.989
▁편견을	-10.9892
▁비교하면	-10.9893
▁클라라	-10.9893
sh	-10.9894
드리고	-10.9895
▁졸작이다	-10.9895
베리	-10.9897
김혜	-10.9899
▁재미없었	-10.99
▁웃음과	-10.9902
▁재밌었고	-10.9902
▁남는건	-10.9902
영화였다	-10.9904
▁드라마라고	-10.9905
만해도	-10.9909
▁없을까	-10.9912
▁미래를	-10.9913
▁배경과	-10.9918
므로	-10.992
▁될것	-10.9922
쩔	-10.9923
알바들	-10.9927
▁운동	-10.993
▁존스	-10.9932
▁시간은	-10.9935
21	-10.9936
때메	-10.9938
지마시길	-10.9941
▁쪼	-10.9943
▁관심을	-10.9947
▁감동입니다	-10.9947
해야하는	-10.9953
▁메시지가	-10.9954
▁영화내내	-10.9954
한건가	-10.9955
셧	-10.9957
깜	-10.996
▁끔찍	-10.9963
사와	-10.9966
▁재주	-10.9973
▁밝	-10.9975
것일까	-10.9976
버그	-10.9977
▁마법	-10.9979
겐	-10.998
▁소리만	-10.9982
들어서	-10.9984
▁날라	-10.9987
▁애들도	-10.9988
▁아름다웠	-10.9988
▁돈과	-10.9989
▁가치도	-10.9989
여성	-10.9989
▁머리를	-10.9992
부분도	-10.9995
갖	-10.9996
▁비하	-10.9996
중딩	-11.0001
▁또봐도	-11.0002
▁본적이	-11.0005
불가	-11.0009
▁우리나라에서	-11.001
했더니	-11.0013
▁출신	-11.0016
▁교회	-11.0017
보아	-11.0018
▁인도영화	-11.002
엿다	-11.0021
▁지우	-11.0021
▁지가	-11.0023
인것같다	-11.0027
▁N	-11.0029
▁실화라는	-11.0033
▁쓰레기임	-11.0033
공주	-11.0033
▁벗어나	-11.0035
ᄃᄃᄃᄃ	-11.0039
▁않아도	-11.0042
실화	-11.0043
영환	-11.0044
쿨	-11.0045
번이나	-11.0045
밧	-11.0045
핵	-11.0045
풋풋	-11.0048
부끄럽	-11.0048
▁남기고	-11.0051
예고편	-11.0052
흉	-11.0052
▁끝판왕	-11.0052
▁드림웍스	-11.0052
▁정확히	-11.0052
▁팀버튼	-11.0052
벙	-11.0052
펠	-11.0052
▁김민종	-11.0052
▁미장센	-11.0052
▁서프라이즈	-11.0052
▁송혜교	-11.0052
▁힙합	-11.0052
썬	-11.0052
▁뚝뚝	-11.0052
▁뮤직비디오	-11.0052
▁웬만하면	-11.0052
▁키아누	-11.0052
습니당	-11.0052
▁드래곤볼	-11.0052
▁지저분	-11.0052
▁어떠한	-11.0052
▁한쿡영화	-11.0052
▁2003	-11.0053
▁전지현	-11.0053
▁스킵	-11.0053
파이팅	-11.0053
▁뉴욕	-11.0054
▁모티브	-11.0054
▁관람객	-11.0054
▁사라져	-11.0055
ᄂᄂ	-11.0055
▁죽기전에	-11.0055
▁성찰	-11.0056
▁바꾼	-11.0057
▁지브리	-11.0057
평범	-11.0057
였으나	-11.0057
헌터	-11.0058
존재	-11.0058
펙트	-11.0059
꼬라지	-11.006
▁과장된	-11.0061
▁노튼	-11.0061
▁극찬	-11.0062
▁태양	-11.0062
티비에서	-11.0063
▁괜	-11.0063
▁주관적	-11.0063
점대라니	-11.0064
▁하지마라	-11.0064
▁쏘우	-11.0065
▁몇번이나	-11.0066
▁유령	-11.0067
▁필요없음	-11.0068
▁우왕	-11.0069
점도아깝다	-11.0069
▁분명히	-11.007
▁괴롭	-11.007
▁얘들	-11.0071
▁고인의	-11.0071
사장	-11.0072
▁카피	-11.0072
▁현실적으로	-11.0075
▁재미나게	-11.0076
▁산다	-11.0076
기만하고	-11.0077
싫	-11.0079
제작비	-11.0079
▁건강	-11.008
겠냐	-11.0081
▁볼만했는데	-11.0082
▁도중에	-11.0083
전달	-11.0085
시원	-11.0086
▁앞서	-11.0087
▁싶으면	-11.009
▁선사	-11.0092
해야한다	-11.0094
▁이은주	-11.0097
▁안되나	-11.0097
봣다	-11.0098
▁정점	-11.0098
유발	-11.01
▁새록새록	-11.0102
겁니까	-11.0103
좋아서	-11.0104
▁재미있어서	-11.0105
▁머리에	-11.0108
▁부디	-11.011
▁유리	-11.011
▁해피	-11.0113
▁오글거리	-11.0115
▁졸음	-11.0115
▁더럽다	-11.0118
하라는	-11.0121
것들은	-11.0122
▁이쁘게	-11.0122
▁so	-11.0124
▁보일	-11.0124
▁조기종영	-11.0128
▁왕가위	-11.0129
▁무리수	-11.013
▁멀리	-11.0131
▁웃긴다	-11.0132
▁아닌지	-11.0135
▁틀리	-11.0137
▁전라도	-11.0144
▁울음	-11.0149
▁스타일이	-11.0152
가아니라	-11.0159
▁여배우가	-11.0163
▁k	-11.0164
많다	-11.0169
제국	-11.0174
▁잡고	-11.0176
▁진정성	-11.0179
▁즉	-11.0182
▁이상함	-11.0183
▁시사	-11.0184
▁뽑아	-11.0184
▁네이버평점	-11.0185
액션은	-11.0188
재미있는	-11.0196
기대하고	-11.0198
▁나왔을	-11.0201
▁부르는	-11.0203
▁결말까지	-11.0203
▁제시	-11.0206
▁강시	-11.0206
있냐	-11.0207
동물	-11.0212
▁존재한다	-11.0219
▁당시에는	-11.022
황당	-11.0222
▁우리나라에	-11.023
▁이성	-11.0233
▁수사	-11.0234
▁이유로	-11.0235
주의자	-11.0239
이건뭐	-11.0245
▁호감	-11.0247
▁안좋은	-11.0247
▁나와도	-11.0249
말로	-11.0252
▁고수	-11.0252
최고의영화	-11.0253
▁만나는	-11.026
▁따뜻함	-11.0261
▁사랑스럽	-11.0264
▁택	-11.0264
▁기억남	-11.027
하지않은	-11.0272
하던지	-11.0274
▁퀄리티가	-11.0275
▁영화라는게	-11.028
디스	-11.0284
남편	-11.0287
▁개봉을	-11.0293
들리	-11.0294
▁회상	-11.0294
앞에	-11.03
볼려고	-11.0303
저리	-11.0312
▁원작은	-11.0316
겠다고	-11.0317
실화라	-11.0321
▁아니냐	-11.0322
▁애니를	-11.0323
▁예고편이	-11.0324
▁아이들은	-11.0326
저질	-11.0326
▁극단적	-11.0329
▁주연의	-11.0331
하시네요	-11.0331
▁스릴이	-11.0331
졌습니다	-11.0332
닼	-11.0334
▁힘내	-11.0336
▁않네	-11.0337
▁아니네요	-11.0338
▁불과	-11.0338
▁틀어주	-11.034
▁이준	-11.0343
콤	-11.0345
무엇	-11.0345
Y	-11.0346
넷	-11.0346
꺄	-11.0346
쩡	-11.0346
↓	-11.0346
▁아프리카	-11.0346
▁찝찝한	-11.0346
▁학창시절	-11.0346
▁홧팅	-11.0346
넬	-11.0346
룸	-11.0346
▁어둡고	-11.0346
▁주상욱	-11.0346
▁두려움	-11.0346
▁고마운	-11.0346
▁ᄇᄉ	-11.0346
▁엽문	-11.0347
▁다니엘	-11.0347
▁거슬리	-11.0347
▁The	-11.0347
▁니콜라스	-11.0347
▁16	-11.0348
아줌마	-11.0348
▁놀랬	-11.0348
▁눈요기	-11.0348
낙	-11.0349
▁2013	-11.0349
프랑스	-11.035
쭉	-11.035
▁외국영화	-11.0351
▁춤추	-11.0351
▁담겨	-11.0351
▁황금	-11.0352
베르	-11.0353
짧	-11.0353
왜이래	-11.0353
▁못생겼	-11.0355
▁성숙	-11.0355
▁말았어야	-11.0356
▁요약	-11.0357
슬퍼	-11.0357
좋았어요	-11.0359
▁안남	-11.036
▁넘어선	-11.0361
▁25	-11.0361
ll	-11.0361
▁불행	-11.0361
▁영광	-11.0361
▁설정에	-11.0363
▁표현해	-11.0363
▁편의	-11.0364
▁일탈	-11.0364
괜찬	-11.0364
▁웃기네	-11.0364
▁먹먹하다	-11.0365
먼저	-11.0365
▁돈아깝다	-11.0366
차별	-11.0366
▁예술가	-11.0367
▁슬퍼요	-11.0369
▁가라	-11.0371
▁남자라면	-11.0372
▁없군	-11.0373
▁이뻐	-11.0375
이해가	-11.0376
테러	-11.0376
▁타인	-11.0377
▁울었던	-11.0378
▁터지는	-11.0379
▁정통	-11.0381
▁다음편	-11.0381
▁슬프네요	-11.0383
▁상당한	-11.0383
▁없었는데	-11.0384
▁개독	-11.0385
줬으면	-11.0385
▁심히	-11.0386
▁찍지	-11.0387
충격	-11.0387
▁부럽다	-11.0388
하더라도	-11.0389
▁전락	-11.039
▁강조	-11.0391
역겹	-11.0392
겨울	-11.0392
▁최고였습니다	-11.0393
▁킹	-11.0394
실력	-11.0396
하느라	-11.0401
▁불륜을	-11.0404
▁처음이네요	-11.0406
▁예쁘게	-11.0406
▁잔잔하면서도	-11.0406
예전에	-11.0409
어이없네	-11.041
▁속은	-11.0412
▁버릴	-11.0414
소장	-11.0415
갔으면	-11.0417
▁아빠가	-11.0417
▁향해	-11.042
▁김태희	-11.0426
▁폰	-11.0428
▁끝날때	-11.0428
▁좋아하고	-11.0428
▁같지만	-11.0429
시티	-11.0429
▁그지같은	-11.043
▁봐줄	-11.0431
▁만화를	-11.0432
▁할말을	-11.0441
▁붕	-11.0445
▁꿈꾸는	-11.0447
▁밑도	-11.0448
▁나참	-11.0452
엇어요	-11.0453
▁이혼	-11.0454
▁그런건	-11.0455
만족	-11.0456
예상	-11.0458
▁꺼내	-11.0461
▁와닿는	-11.0462
▁현실에서	-11.0462
~~~~~~	-11.0464
하곤	-11.0465
▁정화	-11.0466
내놔	-11.0471
▁배려	-11.0475
나옵니다	-11.0475
▁자유를	-11.048
▁엉성함	-11.048
이아니라	-11.0485
▁낯	-11.0485
▁허무하게	-11.0487
▁허접하다	-11.0487
▁다른거	-11.0488
조작	-11.0488
점정도가	-11.049
▁모르나	-11.0491
-_	-11.0492
▁희망이	-11.0499
달까	-11.0499
때리고	-11.05
▁저주	-11.0506
▁첨에	-11.0506
▁그런영화	-11.0509
▁마구	-11.0512
▁아담	-11.0515
▁광팬	-11.0515
▁나고	-11.0516
▁헉	-11.0518
하겠지	-11.0518
▁만화가	-11.0522
▁충실	-11.0524
▁돈으로	-11.0526
봣습니다	-11.0529
▁둔	-11.053
▁이후에	-11.0534
▁역할을	-11.0534
▁빨아	-11.0539
▁사회의	-11.054
▁나오는거	-11.0541
겠군	-11.0547
▁보물	-11.0548
▁대사를	-11.0549
시죠	-11.0552
▁집어	-11.0552
끼들	-11.0553
▁찾아볼	-11.0554
▁과거를	-11.0555
▁정치적	-11.0555
▁먹을	-11.056
님은	-11.0562
▁잠들	-11.0563
▁몸이	-11.0565
.,.,	-11.0566
▁안했는데	-11.0583
▁댄스	-11.0583
▁재치	-11.0588
▁마음의	-11.0589
▁캐릭터와	-11.0591
▁등록	-11.0591
▁짜릿	-11.0593
▁그지같	-11.0595
▁좋았어	-11.0597
씩이나	-11.0607
▁노력한	-11.0608
▁저거	-11.0611
▁감흥이	-11.0612
▁상실	-11.0613
▁나왔음	-11.0616
▁게임을	-11.0627
▁in	-11.0632
▁모아	-11.0633
▁찾을	-11.0635
뜬금	-11.0635
▁맘이	-11.064
▁개같은	-11.064
▁참고로	-11.0647
▁성룡영화	-11.0648
쉴	-11.0649
펑	-11.0649
쯧	-11.0649
밉	-11.0649
셜	-11.0649
깡	-11.0649
▁튀어	-11.0649
앜	-11.0649
▁똑바로	-11.0649
▁부끄러운	-11.0649
▁서스펜스	-11.0649
▁엉터리	-11.0649
▁파워레인저	-11.0649
둬	-11.0649
빤	-11.0649
콕	-11.0649
▁자본주의	-11.0649
▁정당화	-11.0649
▁정신나간	-11.0649
▁최민수	-11.0649
▁끝난다	-11.065
▁완죤	-11.065
▁보고싶어요	-11.065
▁증명	-11.065
▁찬사를	-11.065
래야	-11.065
▁클라스	-11.0651
▁사기꾼	-11.0651
▁8.5	-11.0651
▁오르	-11.0652
▁증거	-11.0653
▁초능력	-11.0653
▁비싼	-11.0653
▁돈낭비	-11.0654
▁알았더니	-11.0654
▁억지설정	-11.0656
마인드	-11.0656
▁절반	-11.0656
▁추락	-11.0657
▁출현	-11.0657
▁출발	-11.0658
모습이	-11.0659
썩	-11.0659
▁지났지만	-11.066
묵	-11.066
▁젊음	-11.066
캬	-11.0661
H	-11.0662
홍콩	-11.0662
▁질문	-11.0662
어설픈	-11.0663
더럽게	-11.0663
괜히	-11.0663
▁불법	-11.0664
▁왓	-11.0664
확실	-11.0664
▁총알	-11.0665
느와르	-11.0665
이런거	-11.0666
부턴	-11.0666
▁무어	-11.0666
▁대실망	-11.0667
▁궁금해	-11.0667
▁어렸을적	-11.0668
▁스토리라인	-11.0669
▁좋아한다면	-11.0669
▁평가를	-11.0669
▁돈만	-11.0672
▁볼만해요	-11.0672
▁말이필요없는	-11.0673
▁서극	-11.0673
따윈	-11.0674
▁재밌는영화	-11.0676
마냥	-11.0677
▁남자배우	-11.0678
▁재현	-11.0679
▁겉멋만	-11.0679
▁몰입되	-11.0679
▁안좋아	-11.068
파리	-11.0682
▁없구나	-11.0683
▁실소	-11.0683
관련	-11.0684
지않는다	-11.0684
▁몸을	-11.0685
▁아니라서	-11.0686
▁상영시간	-11.0687
▁재밌기만	-11.0689
▁작가는	-11.069
감동적인	-11.069
▁남발	-11.0691
▁알겠지만	-11.0691
셨어요	-11.0692
초반에	-11.0693
짓거리	-11.0695
▁아이고	-11.0696
이쁘고	-11.0697
같았음	-11.0698
▁뻔해서	-11.0701
▁남고	-11.0703
돌리	-11.0705
▁소유	-11.0706
▁명성을	-11.0709
▁차마	-11.0709
지역	-11.0711
▁인간적인	-11.0713
▁만든것	-11.0714
이란걸	-11.0715
세대	-11.0716
▁욕하는	-11.0717
생겼	-11.0719
합니까	-11.0719
▁미국판	-11.072
▁존경합니다	-11.072
▁나온다는	-11.0723
슬프다	-11.0723
이었고	-11.0724
▁물건	-11.0724
같습니다	-11.0733
▁화려	-11.0736
▁후반에	-11.0738
올린	-11.074
▁김구라	-11.0741
▁한대	-11.0745
▁장면과	-11.0746
▁한번쯤은	-11.0749
▁인디	-11.0749
▁되어서	-11.0753
영화자체	-11.0754
▁확실한	-11.0755
▁팍팍	-11.0759
▁소지섭	-11.0759
▁무서울	-11.0759
▁무서웠다	-11.076
▁가치를	-11.0761
▁예뻐	-11.0761
▁보셈	-11.0762
▁코드가	-11.0763
▁번을	-11.0763
쓴다	-11.0766
▁안되서	-11.0767
광수	-11.0767
녀석들	-11.0767
소리가	-11.077
▁심심한	-11.0771
▁지났	-11.0778
▁매력적이다	-11.078
▁불편함	-11.0786
지경	-11.0787
자들은	-11.0787
▁만듬	-11.0788
▁나은듯	-11.0789
▁더럽고	-11.079
보며	-11.079
▁첨이네	-11.0792
생각해	-11.0793
▁내인생최고의	-11.0798
만들지	-11.0799
미래	-11.0801
재미없고	-11.0813
▁예고편만	-11.0817
▁캐스팅도	-11.0818
▁해주세요	-11.0818
▁매력있는	-11.0819
▁일본판	-11.0822
▁그래픽이	-11.0825
인척	-11.0825
최악의영화	-11.0826
▁달아	-11.0828
갔는데	-11.0835
▁뿌리	-11.0839
▁깍	-11.084
볼만한	-11.0843
▁터져	-11.0851
만든영화	-11.0856
▁매력은	-11.0856
해가는	-11.086
123	-11.0863
▁소리가	-11.0864
▁시나리오도	-11.0865
싶네요	-11.0866
였다니	-11.0869
▁줄거리가	-11.087
▁재밌게봤다	-11.0871
음악이	-11.0881
▁않았나	-11.0883
▁달콤	-11.0894
▁보러가	-11.0904
하군요	-11.0905
찍은	-11.0909
친구들	-11.0912
때문	-11.0914
▁소수	-11.0919
했었다	-11.0919
거예요	-11.0921
▁뭉	-11.0922
▁비극적	-11.0923
빼	-11.0924
▁ᄍ	-11.0925
눈에	-11.0927
▁표정연기	-11.0928
되니	-11.093
했냐	-11.0931
혹시	-11.0933
▁제목과	-11.0937
▁중학교	-11.0939
▁기괴	-11.0942
ᄍ	-11.0943
쪽으로	-11.0943
년후	-11.0943
▁노력이	-11.0948
▁빛이	-11.0948
원작을	-11.095
둑	-11.0957
역으로	-11.096
▁주제도	-11.096
쿡	-11.0961
쇄	-11.0961
뱅	-11.0962
퉤	-11.0962
렴	-11.0962
▁ebs	-11.0962
▁묻혀	-11.0962
긔	-11.0962
파라노말	-11.0962
▁고스란히	-11.0962
▁양동근	-11.0962
▁용두사미	-11.0962
▁잃어버린	-11.0962
긍	-11.0962
윽	-11.0962
핳	-11.0962
▁어우러진	-11.0962
식스센스	-11.0962
▁나쁘진	-11.0962
▁뜨거운	-11.0962
▁여기저기	-11.0962
▁인종차별	-11.0962
▁잠수함	-11.0962
▁다크나이트	-11.0962
▁세련되	-11.0962
▁납치	-11.0962
키스	-11.0962
▁이정재	-11.0962
▁best	-11.0962
▁일베충	-11.0963
▁이범수	-11.0963
앵글	-11.0963
▁퍼즐	-11.0963
▁무너지	-11.0963
▁힘내세요	-11.0963
▁증말	-11.0963
언젠	-11.0963
귀요미	-11.0963
▁플레이	-11.0963
▁안성기	-11.0965
▁짐승	-11.0965
배속으로	-11.0965
▁은퇴	-11.0966
▁조용히	-11.0967
▁에릭	-11.0968
▁기대됩니다	-11.0969
▁역쉬	-11.0969
페이스	-11.097
▁고딩	-11.097
▁지루했어요	-11.0971
▁고찰	-11.0972
▁생각한	-11.0974
▁토끼	-11.0974
▁않았을까	-11.0974
▁늙었	-11.0975
▁어이없어서	-11.0975
랬는데	-11.0975
▁물씬	-11.0975
▁해도해도	-11.0976
개인적으론	-11.0978
▁가르쳐	-11.0978
▁여왕	-11.0978
▁대단히	-11.0979
▁중간부터	-11.098
▁나누	-11.0983
흐름	-11.0983
씬에서	-11.0985
꽝	-11.0985
▁깔끔하고	-11.0985
▁알려준	-11.0987
▁도통	-11.0987
▁정도다	-11.0987
▁사람마다	-11.0987
감사합니다	-11.0988
섹스	-11.0988
시간낭비	-11.0988
등급	-11.0989
▁받아들이	-11.0991
▁애국	-11.0991
▁돋보인다	-11.0991
▁됐는데	-11.0992
▁않았음	-11.0992
▁예산	-11.0993
로봇	-11.0995
▁자격	-11.0995
▁경제	-11.0996
▁어이가없	-11.0996
▁주목	-11.0997
그자체	-11.0997
▁좋아해요	-11.0997
결론	-11.0998
▁허술하고	-11.0998
▁봤었다	-11.0999
▁슬프지만	-11.0999
▁"[	-11.1002
쳐먹	-11.1002
▁별로였음	-11.1003
▁훌륭함	-11.1003
45	-11.1005
▁감동도없고	-11.1006
▁.....	-11.1008
▁외치	-11.1009
인간들	-11.101
▁담아내	-11.1013
보느니	-11.1019
▁잘표현	-11.1019
▁초등학교때	-11.102
▁명작이라	-11.1025
홍보	-11.1031
▁빌리	-11.1034
▁황정민	-11.1036
▁죽을때	-11.1037
조각	-11.1039
회를	-11.1041
졌어요	-11.1042
재밌는데	-11.1043
▁공중파	-11.1045
▁감수성	-11.1046
테니	-11.1047
하듯	-11.105
현재	-11.1051
▁명작이네요	-11.1052
▁선동영화	-11.1053
▁이탈리아	-11.1055
▁몫	-11.1055
▁킬링타임용도	-11.1057
▁훌륭하고	-11.1057
▁많지만	-11.1058
▁기대되는	-11.1059
마음에	-11.1059
▁존재하는	-11.106
▁토니	-11.1061
달아	-11.1061
스틱	-11.1064
▁하는것	-11.1067
▁웃게	-11.1068
▁구원	-11.1069
배우님	-11.1069
▁높네	-11.107
▁칭	-11.1072
폭탄	-11.1073
▁난국	-11.1078
▁먹먹한	-11.1079
작전	-11.108
▁던지는	-11.1081
등등	-11.1083
▁압도	-11.1083
♡♡	-11.1084
▁다시보고싶은	-11.1084
▁강력추천	-11.1089
멋졌	-11.109
보는거	-11.109
▁일본영화는	-11.109
▁철학적인	-11.109
▁최대의	-11.1091
▁보는사람	-11.1093
러스	-11.1093
▁싹	-11.1095
▁짱짱맨	-11.11
▁성유리	-11.1105
▁떠오르	-11.1107
위에서	-11.1114
낸다	-11.1115
스턴	-11.1115
▁싶지만	-11.1117
▁무게	-11.1119
써서	-11.1119
▁배우와	-11.1122
우울	-11.1124
보길	-11.1124
▁감동적으로	-11.1125
▁마르	-11.1127
▁빈약한	-11.1128
▁공감을	-11.113
겨서	-11.1132
▁죽인다	-11.1134
▁잼씀	-11.1135
▁기억될	-11.1136
▁수애	-11.1141
죽이는	-11.1143
▁머가	-11.1143
몇번	-11.1146
위를	-11.1152
▁안봤다	-11.1153
▁행복을	-11.1159
▁대비	-11.1159
▁엘리	-11.116
▁모습과	-11.1162
해줘	-11.1162
ᄏᄏᄏᄏᄏᄏᄏᄏᄏᄏᄏ	-11.1162
▁중국인	-11.1169
▁짱임	-11.1169
▁인물의	-11.1171
▁후기	-11.1172
▁들어오	-11.1172
▁행복해	-11.1174
▁엮	-11.1178
▁시간아깝	-11.118
왔습니다	-11.1191
▁ᄏᄏᄏᄏᄏᄏᄏᄏᄏᄏᄏᄏᄏᄏᄏ	-11.1193
--;	-11.1193
일수도	-11.1194
어진다	-11.1195
배우들도	-11.1196
▁시끄럽	-11.1196
▁것들을	-11.1196
끝에	-11.1197
▁어른들이	-11.1202
▁상관	-11.1202
▁만들어준	-11.1203
▁되나	-11.1203
하고픈	-11.1207
곳에서	-11.121
▁중후반	-11.1215
영화보면서	-11.1215
▁잇는	-11.1217
파트	-11.1218
▁별루다	-11.1221
부부	-11.1221
께서	-11.1221
▁따라한	-11.1222
부대	-11.1232
는것은	-11.1233
크로	-11.1235
네용	-11.1236
▁있어도	-11.1236
성공	-11.1237
않는다	-11.1241
녕	-11.1247
오래전	-11.1249
영환줄	-11.125
하나로	-11.1251
잡히	-11.1256
▁전쟁을	-11.1258
섯	-11.1265
▁오글거려	-11.127
켓	-11.127
▁묵	-11.1272
▁얘기가	-11.1272
▁보여주지	-11.1272
재미잇	-11.1279
▁어설프	-11.128
▁아쉬울	-11.128
▁피터	-11.1281
되었던	-11.1281
팍	-11.1284
핫	-11.1284
멈	-11.1284
ᅦ	-11.1284
mbc	-11.1284
넼	-11.1284
▁인터뷰	-11.1285
▁펭귄	-11.1285
댐	-11.1285
쌀	-11.1285
팽	-11.1285
핏	-11.1285
▁맙시다	-11.1285
▁차태현	-11.1285
▁홍금보	-11.1285
뱉	-11.1285
▁김강우	-11.1285
▁태어난	-11.1285
▁오인혜	-11.1285
▁ᄅᄋ	-11.1285
▁레이첼	-11.1285
▁혹평	-11.1285
▁솔까	-11.1285
▁구역질	-11.1285
▁콜린	-11.1285
▁불후의	-11.1285
▁일요일	-11.1285
▁엠마	-11.1285
▁어울려	-11.1285
▁어쩌라고	-11.1285
▁웅장	-11.1285
▁귀찮	-11.1285
▁다운로드	-11.1285
▁관람불가	-11.1286
▁싫은	-11.1286
▁일깨워주는	-11.1286
▁이해안가	-11.1287
▁지나서	-11.1287
▁묻어나는	-11.1288
▁스토리지만	-11.1289
자마자	-11.1289
기때문에	-11.1289
보냐	-11.1289
▁잔잔하지만	-11.129
▁신념	-11.129
▁친절	-11.129
볼걸	-11.1291
▁그럼에도	-11.1293
▁타락	-11.1294
▁예술성	-11.1296
▁우익	-11.1298
봣음	-11.1299
▁차별	-11.1301
▁뻔히	-11.1303
▁모르겠는데	-11.1304
▁종영	-11.1305
헤헤	-11.1307
거든요	-11.1308
▁기록	-11.1308
▁중반부	-11.1309
느니	-11.1309
▁우아	-11.131
▁만들려고	-11.1311
▁울림	-11.1311
▁몽환적인	-11.1314
▁나오다니	-11.1314
▁볼만했음	-11.1315
같지만	-11.1315
J	-11.1316
▁별점을	-11.1316
▁들어도	-11.1316
▁많지	-11.1317
웬	-11.1317
▁관객에게	-11.132
원주고	-11.1322
▁최고였어요	-11.1323
▁진작	-11.1324
독립영화	-11.1327
주신	-11.1327
▁재밌당	-11.1328
▁누워	-11.1329
▁연장	-11.1329
▁안타깝고	-11.133
▁지식	-11.133
바닥	-11.1331
▁아쉽긴	-11.1331
예능	-11.1333
극장판	-11.1333
동네	-11.1333
▁않았으면	-11.1335
▁오글거리고	-11.1335
롭게	-11.134
▁경기	-11.1342
▁검사	-11.1343
어디서	-11.1343
▁기독교인	-11.1344
별루	-11.1346
▁두배우	-11.1346
▁기차	-11.1347
▁조심	-11.1348
▁아까워요	-11.1349
▁포켓몬	-11.135
▁씨네	-11.135
▁묶	-11.135
▁전투씬	-11.1352
▁엄마랑	-11.1354
처음부터	-11.1354
하지마세요	-11.1354
분만	-11.1355
시대의	-11.1356
▁남자와	-11.1358
이쁘다	-11.1359
▁오락성	-11.1359
▁강지환	-11.1361
▁일생	-11.1361
연기자	-11.1361
▁아니죠	-11.1365
▁고발	-11.1366
▁시나리오를	-11.1366
▁각자의	-11.137
▁애가	-11.1371
▁환타지	-11.1371
▁수치	-11.1373
▁못된다	-11.1373
▁긴박감	-11.1374
▁전부다	-11.1377
▁솔직한	-11.138
▁후회함	-11.1381
▁목숨	-11.1385
빠짐	-11.1387
▁너무좋아	-11.139
라기보다	-11.139
그것도	-11.1391
▁즐겁고	-11.1391
바보	-11.1396
▁노래를	-11.1397
▁의식	-11.1403
▁재미있다고	-11.1406
▁연기까지	-11.1411
▁조금씩	-11.1412
만들고	-11.1413
스크	-11.1416
야되는데	-11.1416
▁볼만한데	-11.1417
▁뚫	-11.1422
▁위험한	-11.1426
▁me	-11.1426
▁분위기와	-11.1427
▁나빠	-11.1431
▁안타깝	-11.1431
시리즈중	-11.1432
▁않았고	-11.1435
▁무겁지	-11.1435
▁똑같다	-11.1443
▁똥을	-11.145
웃기고	-11.1454
데이트	-11.1455
박사	-11.1456
녀석	-11.1458
▁아쉽고	-11.1461
▁뻔해	-11.1462
▁산만한	-11.1462
맥스	-11.1464
▁배경도	-11.1466
▁비교가	-11.1467
▁멋있어	-11.1472
음에도	-11.1472
▁봐야겠다	-11.1475
해놓고	-11.1477
▁졸려	-11.148
▁동정	-11.148
▁하드	-11.1481
▁한장면	-11.1482
▁조지	-11.1483
▁뭔데	-11.1484
▁저게	-11.1484
▁ᄏᄏᄏᄏᄏᄏᄏᄏᄏᄏ	-11.1486
재미있어	-11.1488
▁실패한	-11.1489
찾기	-11.149
▁보기에도	-11.149
▁괜찮네	-11.149
▁섹시한	-11.1492
▁비중	-11.1496
▁아프고	-11.1496
la	-11.1496
▁어색하	-11.1501
▁말았	-11.1502
▁개발	-11.1503
▁다니는	-11.1507
▁주제에	-11.1507
▁꿈꾸	-11.1508
10000	-11.1508
▁복수를	-11.151
그릇	-11.1511
올림	-11.1513
같으니	-11.1514
모습을	-11.1514
▁사랑으로	-11.1515
▁놈이	-11.1518
▁시간대	-11.1526
▁반전영화	-11.1527
▁뗄	-11.1528
▁뭐든	-11.1528
▁불만	-11.153
▁어린이들	-11.1531
보느라	-11.1531
없으면	-11.1533
▁웃음만	-11.1536
▁개잼	-11.1536
▁비현실적인	-11.1537
싶을때	-11.1554
포스	-11.1556
죽임	-11.156
▁아닌거	-11.1565
▁가자	-11.1566
▁평소	-11.1569
▁조조	-11.157
▁이해하지	-11.1574
스럽네	-11.1581
▁대상	-11.1583
▁겉멋	-11.1587
▁부분을	-11.1589
▁암울	-11.1589
▁나온다고	-11.1589
▁이연걸의	-11.1595
▁가식	-11.1596
▁같네	-11.16
▁공짜	-11.1602
일세	-11.1609
▁느끼지	-11.1609
▁리메이크작	-11.161
▁지루하네	-11.1611
ᄏᄏᄏᄏᄏᄏᄏᄏᄏᄏ	-11.1612
▁엽기	-11.1613
뭔지	-11.1614
셉	-11.1615
첩	-11.1616
키워	-11.1617
늬	-11.1617
퀄	-11.1618
똘	-11.1618
뎁	-11.1618
q	-11.1618
▁미야자키	-11.1618
▁오리지널	-11.1618
▁허무맹랑	-11.1618
▁혹성탈출	-11.1618
人	-11.1618
꾹	-11.1618
뒀	-11.1618
딕	-11.1618
쌈	-11.1618
웰	-11.1618
재밌게봤습니다	-11.1618
톨	-11.1618
▁ocn	-11.1618
▁뭡니까	-11.1618
▁송지효	-11.1618
팡	-11.1618
▁어울린다	-11.1618
프레데터	-11.1618
▁탕웨이	-11.1618
▁하이킥	-11.1618
떄문에	-11.1618
▁큐브	-11.1618
▁엉엉	-11.1618
▁임수정	-11.1618
▁이연희	-11.1618
씨리즈	-11.1618
▁러셀	-11.1618
▁흡사	-11.1618
▁암걸리	-11.1618
▁위대함	-11.1619
▁묘하게	-11.1619
▁흥미롭고	-11.1619
ᅩᅩ	-11.1619
▁유아인	-11.1619
▁새롭게	-11.162
▁별한개도	-11.162
▁미치도록	-11.162
찍으	-11.162
▁갔는데	-11.1621
▁깨알	-11.1621
▁가끔씩	-11.1621
나왔다	-11.1621
▁때우기	-11.1622
▁움직이는	-11.1622
▁재평가	-11.1623
▁빠져드는	-11.1623
▁감옥	-11.1623
▁가해자	-11.1623
▁집어넣	-11.1623
▁끼워	-11.1624
▁중학생	-11.1625
▁꼭봐야	-11.1625
▁주인	-11.1625
▁남자를	-11.1625
▁가치관	-11.1626
▁울게	-11.1626
▁말할것도	-11.1626
▁간절	-11.1629
▁재료	-11.1629
▁시간아까움	-11.163
▁언급	-11.163
동아리	-11.163
▁스릴있고	-11.1631
▁팬이라면	-11.1632
▁걸린	-11.1633
▁모든것을	-11.1634
▁심심해서	-11.1636
▁소름돋았	-11.1636
▁집단	-11.1637
▁만들었어	-11.1638
라이브	-11.164
▁낚이지	-11.1641
▁맛에	-11.1641
▁유혹	-11.1641
▁짱나	-11.1641
▁헛웃음만	-11.1644
▁때문이다	-11.1645
▁졸면서	-11.1648
▁공감가는	-11.1649
▁나타내	-11.165
▁헐크	-11.1652
나왔으면	-11.1653
▁생각나네요	-11.1654
▁중학교때	-11.1655
▁짧게	-11.1656
꼽	-11.1657
▁어린이용	-11.1658
▁느리고	-11.1659
▁무서워서	-11.1659
뭉	-11.166
깍	-11.1661
곰	-11.1661
깎	-11.1661
OST	-11.1663
▁구려	-11.1663
▁호소	-11.1663
▁꼽을	-11.1664
흥행	-11.1664
마누라	-11.1665
▁다세포소녀	-11.1665
▁다큐를	-11.1666
왜이리	-11.1666
▁재회	-11.1666
슬픈	-11.1667
블랙	-11.1668
▁되었는데	-11.1669
▁나왔는데	-11.1671
▁힘든데	-11.1672
▁작품성이	-11.1673
빼면	-11.1674
엉망	-11.1675
▁28	-11.1678
▁잃었다	-11.1679
있을때	-11.1679
항상	-11.1679
▁모르겟다	-11.168
▁총질	-11.1683
▁시선으로	-11.1684
▁좋아하네요	-11.1687
▁화려함	-11.1688
▁달콤한	-11.1692
만드네	-11.1693
애기	-11.1693
채널에서	-11.1693
▁뭔가요	-11.1695
▁볼거없	-11.1696
▁작위적인	-11.1697
▁고맙습니다	-11.1697
▁열정이	-11.1697
▁받아서	-11.1699
▁올드	-11.1699
▁보는줄	-11.17
▁거울	-11.17
못했다	-11.1701
▁건질	-11.1707
▁시원한	-11.1707
▁신민아	-11.1708
▁성우들	-11.1709
▁최저	-11.171
▁떨어진	-11.171
▁상영관이	-11.1715
남매	-11.1717
▁보는듯	-11.1718
▁웃겼음	-11.1718
▁출연자	-11.1719
▁낭만	-11.1721
▁히로	-11.1721
▁없는듯	-11.1722
▁환자	-11.1723
▁사이에서	-11.1723
▁중반까지	-11.1726
▁메시지를	-11.173
하시면	-11.1733
▁무언가를	-11.1734
▁나가는	-11.1735
▁요소를	-11.1736
▁잔혹한	-11.1736
변화	-11.1738
▁지적	-11.1738
▁맺	-11.1739
▁부른	-11.1741
▁베리	-11.1742
▁생각하지	-11.1743
▁수백	-11.1746
▁재밌지도	-11.1746
낚였	-11.1747
▁아침에	-11.1748
▁300	-11.1749
▁재미있었던	-11.1752
oo	-11.1755
▁취향은	-11.1757
▁과정을	-11.1759
사진	-11.1761
▁조정	-11.1763
지못한	-11.1765
쩔어	-11.1765
▁성우가	-11.1766
진실	-11.1767
▁조명	-11.1771
▁쓰렉	-11.1775
▁제목부터	-11.1777
▁진부함	-11.1778
교육	-11.1779
▁잊을수가	-11.1781
▁여정	-11.1781
▁없었고	-11.1783
시킨다	-11.1784
이었다면	-11.1792
버려서	-11.1796
▁심리를	-11.1796
▁남았다	-11.1797
▁안좋	-11.1799
▁특이한	-11.1804
▁잠자	-11.1808
추격	-11.1814
▁옆	-11.1814
놈들은	-11.1815
▁구성과	-11.1816
같았	-11.1816
때문이	-11.1818
▁실망스럽	-11.182
▁슬픔이	-11.1822
버렸음	-11.1824
되면서	-11.1825
▁상황에서	-11.1826
▁가려	-11.1829
▁마크	-11.184
▁차이가	-11.184
▁계시	-11.1841
꺼다	-11.1843
▁할배	-11.1845
▁낫지	-11.1847
▁롤	-11.1853
▁결론이	-11.1853
바래	-11.1853
해지네요	-11.1858
마디	-11.1859
하라고	-11.186
▁되돌아	-11.1862
할뻔	-11.1867
▁제작사	-11.1871
있어야	-11.1873
놀래	-11.1876
재밋게	-11.1879
▁살기	-11.1882
▁내용으로	-11.1883
방울	-11.1884
▁위기	-11.1884
▁보다보다	-11.1885
비판	-11.1886
크리	-11.1886
▁평론	-11.1889
▁더럽	-11.1894
▁가르	-11.1897
겟네	-11.1898
걸까요	-11.19
의미로	-11.1904
ᄍᄍᄍ	-11.1904
▁지지	-11.1906
▁스케일이	-11.1907
!!!!!!!!!!!!	-11.191
▁초반에는	-11.1916
▁인상깊었	-11.1917
▁썼다	-11.192
▁영화계의	-11.1923
뤄	-11.1925
▁대단했	-11.1926
▁욕나오	-11.1926
▁장애	-11.1929
▁주원	-11.1934
▁보고있어요	-11.1935
▁전작의	-11.1936
하지않는	-11.1938
▁보느니	-11.1938
▁예술적	-11.1943
신기	-11.1947
▁현실성이	-11.1951
해줌	-11.1952
▁달고	-11.1959
댓	-11.196
▁각자	-11.196
률	-11.1962
썰	-11.1962
▁클리셰	-11.1963
댈	-11.1963
듀	-11.1963
횽	-11.1963
▁오타쿠	-11.1963
▁웹툰	-11.1963
▁이스트우드	-11.1963
▁클린트	-11.1963
▁홍진호	-11.1963
냅	-11.1963
췄	-11.1963
칩	-11.1963
컨저링	-11.1963
▁조승우	-11.1963
▁멘붕	-11.1963
#	-11.1963
▁놀래키	-11.1963
▁이동욱	-11.1963
▁스텝업	-11.1963
▁특징	-11.1963
윤계상	-11.1963
▁사로잡	-11.1963
▁비정상	-11.1963
문근영	-11.1963
▁2004	-11.1963
▁오그라든다	-11.1963
▁닥터	-11.1963
▁사다코	-11.1963
▁침묵	-11.1963
▁묘미	-11.1964
▁담아낸	-11.1964
▁특수	-11.1964
▁크리스찬	-11.1964
▁온몸	-11.1964
▁맛깔	-11.1965
▁기분좋게	-11.1965
▁꺼버렸다	-11.1965
▁갖추	-11.1966
▁과잉	-11.1966
▁대표작	-11.1967
▁분위기도	-11.1967
▁환불	-11.1967
▁감동적이었습니다	-11.1967
▁웬만한	-11.1967
▁졸았다	-11.1969
▁no	-11.1969
▁전편의	-11.1969
▁와이어	-11.197
▁응원합니다	-11.197
▁활용	-11.197
주말	-11.1971
▁악플	-11.1971
인거같다	-11.1971
▁마틴	-11.1971
▁지들끼리	-11.1972
▁동료	-11.1973
▁신나게	-11.1976
▁잘생기고	-11.1977
▁우습	-11.1977
▁무얼	-11.1978
▁치열	-11.1979
▁허술하다	-11.1979
▁잼있었다	-11.1981
▁없었으면	-11.1981
▁사랑스런	-11.1983
▁아이러니	-11.1983
▁내보내	-11.1986
아깝네	-11.1986
▁제외하고	-11.1989
▁병원	-11.199
▁웃길	-11.1991
▁미국에서	-11.1992
선생	-11.1995
▁놈들은	-11.1995
▁알게해준	-11.1996
▁일베	-11.1997
볼수있	-11.1998
▁수준이하	-11.1998
▁마초	-11.1999
▁싶은건지	-11.2
▁고향	-11.2
수술	-11.2001
▁발레	-11.2002
써요	-11.2003
▁2010	-11.2004
▁떠들	-11.2005
▁아동용	-11.2007
▁남편이	-11.2008
▁원인	-11.2009
해주길래	-11.201
▁쏙	-11.2012
▁사실적으로	-11.2014
▁다문화	-11.2014
▁뭐하냐	-11.2015
▁제작한	-11.2018
뮤지컬	-11.202
드럽게	-11.202
오히려	-11.202
새로운	-11.2021
별로다	-11.2021
▁구성은	-11.2022
▁앞부분	-11.2022
찍었	-11.2022
▁낮음	-11.2022
훨씬	-11.2022
▁보고있는	-11.2023
▁실망스럽다	-11.2024
장난치	-11.2026
▁망쳤다	-11.2026
교훈	-11.2027
▁전개되는	-11.2028
▁그만좀	-11.2028
▁돋보였	-11.2029
▁당하는	-11.2029
햇던	-11.203
29	-11.2032
보고있어요	-11.2032
▁뼈	-11.2033
구조	-11.2035
▁계기가	-11.2036
▁저것도	-11.2037
중요한	-11.2039
▁청춘의	-11.204
▁존중	-11.2042
보았습니다	-11.2042
▁말이필요	-11.2043
할수밖에	-11.2043
▁수작입니다	-11.2044
▁몇개	-11.2044
느님	-11.2044
▁안봐	-11.2048
▁대사들이	-11.2053
▁일본식	-11.2054
▁씁쓸한	-11.2054
▁검은	-11.2056
▁명성	-11.2056
▁화려하고	-11.2057
▁충격을	-11.2058
▁먹먹해	-11.2061
▁평소에	-11.2061
하더군요	-11.2062
해줬으면	-11.2063
▁집중력	-11.2067
▁시청자를	-11.2068
같았는데	-11.207
▁충실한	-11.207
아놔	-11.207
▁교감	-11.2071
▁감당	-11.2072
망작	-11.2072
▁비중이	-11.2073
▁나이에	-11.2078
데다가	-11.2078
없지만	-11.2078
▁영상미는	-11.2081
▁진화	-11.2082
등장	-11.2084
을위해	-11.2086
스러웠다	-11.2086
중간	-11.2086
작가가	-11.2087
▁마마	-11.2087
해버린	-11.209
▁기회가	-11.2091
▁신기한	-11.2093
▁썩은	-11.2093
▁복잡한	-11.2095
한것도	-11.2096
▁주제로	-11.2097
대작	-11.2103
▁거부감이	-11.2103
▁으아	-11.2104
▁기분만	-11.2106
후반부	-11.2107
중반	-11.2107
▁되기	-11.2109
▁표현했다	-11.211
▁의미는	-11.2111
▁방법이	-11.2117
줬는데	-11.2118
▁초중반	-11.212
좋게	-11.2121
▁밴드	-11.2121
을까요	-11.2124
▁구멍	-11.2124
▁너무재밌어요	-11.2125
▁안되는데	-11.2126
졸라	-11.2128
▁뗄수	-11.2128
▁메인	-11.2129
▁지루하기만	-11.2132
▁이정도로	-11.2132
▁메세지도	-11.2134
▁신선하다	-11.2135
아아아	-11.2139
보고싶어요	-11.214
보다니	-11.2143
돼지	-11.2144
브리	-11.2145
▁모야	-11.2149
▁찾고	-11.2149
공간	-11.2156
▁연관	-11.2159
▁보이지만	-11.216
▁중세	-11.2164
▁질리	-11.2165
모르는	-11.2166
▁예수님	-11.2166
▁지내	-11.2169
▁오오	-11.2179
▁보여줬다	-11.2179
페이지	-11.2185
▁해적	-11.2187
드릴	-11.2188
▁누구도	-11.2193
▁세상은	-11.2194
▁현실이다	-11.2198
▁죽을뻔	-11.22
▁상황에	-11.2201
러브	-11.2201
▁수위	-11.2206
▁놔	-11.2209
▁지원	-11.2213
▁잼있어	-11.2214
▁거대	-11.222
늙	-11.2225
▁남긴다	-11.2226
▁싶네	-11.2226
▁하는건지	-11.2227
▁개인의	-11.2229
▁인간들이	-11.2229
바른	-11.223
▁놈들이	-11.2232
리언	-11.2235
ᄏᄏᄏᄏᄏᄏᄏᄏ	-11.2242
보았	-11.2243
▁안보이	-11.2246
정돈	-11.2247
▁파격적	-11.2248
재밋엇	-11.2254
▁보여주려	-11.2254
으라고	-11.2254
▁단편영화	-11.2256
진부	-11.2258
▁않는데	-11.2258
▁또보고	-11.226
▁주제는	-11.2266
유키	-11.2268
▁도망가	-11.2271
해졌다	-11.2272
▁우리네	-11.2273
▁영상으로	-11.228
▁방황	-11.2281
▁부럽	-11.2282
▁달달한	-11.2283
▁소름돋는	-11.2285
▁처절	-11.2285
심정	-11.2287
▁떠난	-11.2289
찍어	-11.229
▁블루	-11.2293
▁아닌가요	-11.2295
▁없더라	-11.2302
▁마음속	-11.2303
달러	-11.2304
느껴지	-11.2305
▁걸어	-11.2306
▁있었나	-11.2308
아아아아	-11.2308
릴수	-11.2309
▁위에	-11.2309
븐	-11.2317
죤	-11.232
둡	-11.232
샹	-11.232
샀	-11.232
▁두근두근	-11.232
▁보냅니다	-11.232
▁스탤론	-11.232
▁크리스토퍼	-11.232
뉘	-11.232
댕	-11.232
▁쏠쏠	-11.232
▁채플린	-11.232
▁베트남	-11.232
▁어려울	-11.232
▁로드무비	-11.232
▁알맹이	-11.232
▁섭외	-11.232
줄리엣	-11.232
▁해놓고	-11.232
▁저절로	-11.232
스캔들	-11.232
▁콤비	-11.232
▁에이리언	-11.232
▁아까웠던	-11.232
▁몬스터	-11.232
씁니다	-11.2321
^.^	-11.2321
▁어려웠	-11.2321
▁프레디	-11.2322
▁높은거	-11.2322
▁둘째	-11.2322
▁패턴	-11.2322
뮤직	-11.2322
▁결합	-11.2322
▁No	-11.2322
▁저녁	-11.2322
▁용가리	-11.2323
점드림	-11.2323
▁가득찬	-11.2323
▁덮	-11.2323
▁적절히	-11.2323
▁이름값	-11.2324
▁맞춘	-11.2324
▁유지태	-11.2325
▁억지스러움	-11.2325
아무래도	-11.2325
▁자세히	-11.2326
▁괜찮을	-11.2327
▁놓친	-11.2328
▁정도껏	-11.2328
▁언제쯤	-11.2329
▁여튼	-11.233
▁속아서	-11.2331
▁평점조절	-11.2331
▁느꼈습니다	-11.2332
▁봤었던	-11.2332
▁씨발	-11.2333
▁끝내주는	-11.2333
▁내겐	-11.2334
▁만들어주세요	-11.2334
붕괴	-11.2334
▁느낌이랄까	-11.2334
버젼	-11.2335
▁몰입하면서	-11.2335
▁낚이	-11.2337
▁중요하다	-11.2338
별한개	-11.2338
▁암이	-11.234
▁많았던	-11.234
내용도없고	-11.234
▁이번엔	-11.2342
▁생생하게	-11.2343
조선족	-11.2343
▁98	-11.2348
▁비참	-11.2349
▁파워	-11.235
해낸	-11.235
▁재미있지	-11.235
▁재밌게봤음	-11.2351
됬는데	-11.2352
았어	-11.2352
▁극장판은	-11.2352
점준것중에	-11.2353
▁곳에서	-11.2353
▁말해주는	-11.2353
▁젊은이들	-11.2354
▁신나는	-11.2356
▁마녀	-11.2356
▁내스타일	-11.2356
▁상상을	-11.2358
▁아이와	-11.2358
▁불편하다	-11.2361
▁재밌긴	-11.2364
ᄋᄋᄋ	-11.2364
▁막장으로	-11.2364
만들어도	-11.2365
▁동호	-11.2366
▁분명하다	-11.2367
쩌네	-11.2367
▁예상치	-11.2367
▁짝이없	-11.2367
연결	-11.2367
▁삼가	-11.2369
▁저급한	-11.237
상실	-11.237
▁공감되는	-11.237
▁재미가없다	-11.2371
▁무료로	-11.2372
▁실화라니	-11.2374
▁훌륭했다	-11.2375
찾았	-11.238
▁안타까워	-11.2382
▁드러내	-11.2384
녹	-11.2385
끊	-11.2386
안타깝	-11.2387
저예산	-11.2387
아름답	-11.2388
▁믿을수	-11.2389
넘들	-11.2389
▁보석	-11.2389
저렇게	-11.239
대한민국	-11.2391
굉장히	-11.2391
꽤	-11.2391
화려한	-11.2393
▁상영관	-11.2394
▁선전	-11.2394
▁식의	-11.2396
젊	-11.2397
▁약해	-11.2398
엿음	-11.2402
▁장근석	-11.2404
어릴때	-11.2405
▁지워	-11.2405
▁그들은	-11.2405
▁군대에서	-11.2407
예전	-11.2408
▁고래	-11.2413
감동적이고	-11.2413
시켜서	-11.2415
▁깍아	-11.2415
▁많네요	-11.2417
▁미소를	-11.2422
▁저희	-11.2422
던데요	-11.2425
▁카메론	-11.2427
▁평정	-11.2428
▁더빙판	-11.2429
좋았음	-11.2429
때문인지	-11.2432
▁당신들	-11.2436
▁당할	-11.2437
▁윤아	-11.2439
시민	-11.2455
▁케이	-11.2457
▁낳은	-11.2458
▁바뀌는	-11.2459
슬프고	-11.2461
▁어느것	-11.2473
▁생각해볼	-11.2474
▁한숨만	-11.2475
▁다음으로	-11.2477
▁안난다	-11.2481
▁머지	-11.2485
▁메세지는	-11.2488
전기세	-11.2488
▁봣다	-11.2491
영환지	-11.2498
아닌듯	-11.2501
해놓은	-11.2506
▁아카데미	-11.2507
앞으로도	-11.2508
▁후회하지	-11.2514
▁것인지	-11.2514
▁보러갔	-11.2517
밥먹	-11.2519
▁밀려	-11.2523
▁출연하는	-11.2525
인권	-11.2525
▁안하는데	-11.2525
보여주는	-11.2527
하우스	-11.2528
▁악평	-11.253
비슷한	-11.2536
▁바랬	-11.2536
▁밀라	-11.2539
▁파일	-11.2543
웠던	-11.2543
됐음	-11.2549
▁모냐	-11.2553
신듯	-11.2554
▁수준급	-11.2554
▁있다는게	-11.2556
재밋게봣	-11.2557
▁알수가	-11.2558
재미업	-11.2559
▁끝나지	-11.2559
▁그외	-11.256
▁없기	-11.2561
▁요소들	-11.2567
▁처음임	-11.2569
▁읽은	-11.2575
▁심각한	-11.2576
▁동급	-11.2576
mo	-11.2578
범인	-11.2579
▁전작에	-11.2583
▁나오게	-11.2587
▁시간때우기	-11.2591
▁진보	-11.2593
부모	-11.2593
사냥	-11.2594
▁사회에	-11.2607
▁반개	-11.261
출신	-11.261
세우	-11.2613
▁볼거리가	-11.2622
▁그랬다	-11.2622
▁맞지않	-11.2623
들었다	-11.2625
▁장편	-11.2629
▁분노가	-11.2636
▁마누라	-11.2638
거리고	-11.2638
▁아쉽네	-11.2639
▁몇년이	-11.2639
▁웃기기	-11.2639
▁먼지	-11.264
▁일상을	-11.2647
여자들	-11.2654
심장	-11.2656
▁내취향	-11.2659
났던	-11.2667
▁미국영화	-11.267
라이트	-11.2674
▁길고	-11.2675
▁생각해서	-11.268
괴물	-11.268
죽는줄	-11.2684
밋	-11.2685
시청	-11.2686
감사	-11.2687
쎄	-11.2687
▁깊이가	-11.2688
찜찜	-11.2689
줍	-11.2689
뻑	-11.2689
훔	-11.269
헝	-11.269
훼	-11.269
니콜키드먼	-11.269
왠만해선	-11.269
Z	-11.269
▁내러티브	-11.269
▁리암니슨	-11.269
▁에일리언	-11.269
▁역사왜곡	-11.269
▁인상깊은	-11.269
▁임권택	-11.269
▁후덜덜	-11.269
뺀	-11.269
엌	-11.269
쫙	-11.269
ᄑ	-11.269
▁듣보잡	-11.269
▁엉덩이	-11.269
▁엑소시스트	-11.269
▁원맨쇼	-11.269
▁웨슬리	-11.269
▁콘서트	-11.269
▁화끈하게	-11.269
▁황비홍	-11.269
왈	-11.269
▁신현준	-11.269
▁양조위	-11.269
샷	-11.269
▁흘렀	-11.269
▁불면증	-11.269
▁어떨까	-11.269
▁나발이고	-11.269
naver	-11.269
▁부자연스럽	-11.269
▁and	-11.269
tion	-11.269
▁매트릭스	-11.2691
▁전문성우	-11.2691
바이러스	-11.2691
▁어려워	-11.2691
▁어쩌라는	-11.2691
▁빵터짐	-11.2691
▁매튜	-11.2691
▁루이스	-11.2691
▁팔아먹	-11.2691
▁과도한	-11.2692
▁에로틱	-11.2692
▁재발견	-11.2692
▁스콧	-11.2692
▁7.5	-11.2692
▁꺼버림	-11.2692
▁어둠	-11.2692
변호사	-11.2692
▁이승기	-11.2692
▁촌스러운	-11.2692
▁했어야	-11.2693
▁실컷	-11.2693
▁오싹	-11.2693
▁고질라	-11.2694
▁언론	-11.2694
▁이성재	-11.2695
▁화가난다	-11.2695
▁영화자체는	-11.2695
▁첨본다	-11.2695
▁명곡	-11.2696
▁찾았다	-11.2697
▁적응	-11.2698
▁아니겠지	-11.2699
할게요	-11.27
▁공존	-11.2701
▁교차	-11.2701
▁완소	-11.2701
▁졸업	-11.2701
▁승화	-11.2703
▁따뜻하게	-11.2703
▁깔끔하게	-11.2703
▁찬란	-11.2704
▁멋있었다	-11.2704
▁말해서	-11.2704
▁잔인하기만	-11.2706
▁도덕	-11.2706
닼ᄏᄏᄏ	-11.2706
▁객관적으로	-11.2708
▁예뻐요	-11.2708
▁묵직한	-11.2709
▁생각나네	-11.271
▁양산	-11.271
▁장나라	-11.271
▁아니란	-11.2711
▁전세계	-11.2712
▁빠져들어	-11.2713
▁딱딱	-11.2713
▁이나영	-11.2714
▁슴가	-11.2714
▁차원이	-11.2714
▁어째서	-11.2714
▁대책	-11.2715
▁파악	-11.2715
▁미칠	-11.2716
▁do	-11.2718
▁+1	-11.2721
▁가졌	-11.2722
▁볼만하네요	-11.2723
▁멋있어요	-11.2724
▁재미없습니다	-11.2724
▁제작된	-11.2724
▁잘생김	-11.2725
▁느꼈던	-11.2726
것인지	-11.2727
▁브래드피트	-11.2731
▁기준으로	-11.2733
다음주	-11.2735
▁안든다	-11.2735
▁만들겠다	-11.2739
완벽	-11.274
낮아서	-11.2743
▁좋아지는	-11.2745
햇음	-11.2745
보지말	-11.2748
▁존내	-11.2749
▁외화	-11.2751
줍니다	-11.2753
▁어떻게든	-11.2755
보이고	-11.2755
▁다루는	-11.2755
▁글쎄요	-11.2757
햇지만	-11.2757
▁생각하며	-11.2758
▁섹	-11.2759
▁해피엔딩이	-11.276
▁목숨을	-11.2763
▁필수	-11.2764
호텔	-11.2764
▁재미있던데	-11.2765
▁지대로	-11.2767
청춘	-11.2774
▁만나서	-11.2774
▁찾아볼수	-11.2775
SF	-11.2777
로인해	-11.2777
▁런닝맨	-11.2778
▁강혜정	-11.2778
▁코스프레	-11.2778
몸매	-11.2779
▁돌려줘	-11.2781
어버린	-11.2782
▁케이지	-11.2783
보드	-11.2784
등록	-11.2784
정권	-11.2785
만들기	-11.2786
▁기억하는	-11.2787
▁마케팅	-11.279
대단하다	-11.279
▁치우	-11.2792
▁안본사람	-11.2793
외국	-11.2793
▁생각했다	-11.2793
출연진	-11.2798
방법	-11.2799
충격적	-11.28
화신	-11.28
좋아하는데	-11.2801
▁어색하다	-11.2801
▁안쓰는데	-11.2802
▁각인	-11.2802
부분에서	-11.2803
▁있겠다	-11.2804
재밌었다	-11.2807
고양이	-11.2808
▁난해하다	-11.2811
웠음	-11.2811
왠지	-11.2811
▁생각하는데	-11.2811
댄스	-11.2811
교회	-11.2812
▁꼬맹이	-11.2813
새기	-11.2814
싸우	-11.2818
▁말할수	-11.2819
▁장미	-11.282
밝히	-11.2823
▁차지	-11.2824
어렵	-11.2826
그려	-11.2826
▁만나고	-11.2828
같았다	-11.2829
▁못보고	-11.2831
▁없었다면	-11.2834
▁하셨	-11.2834
못한다	-11.2835
▁오로라	-11.2836
▁끝날때까지	-11.2839
권력	-11.2843
▁끼어	-11.2847
▁데드	-11.2847
진부한	-11.2848
▁별반개도	-11.285
젠	-11.2857
▁깨어	-11.286
▁찌질한	-11.2862
뒤로	-11.2863
뭐니	-11.2866
▁죽이네	-11.2867
재밌네요	-11.2868
▁너네	-11.2871
▁작품인데	-11.2872
모르게	-11.2872
리얼	-11.2875
!!!!!!!!!!!!!!	-11.2878
▁일일	-11.2879
▁있는것	-11.2885
▁안타까웠	-11.2887
▁다같이	-11.2888
롭다	-11.2888
좋아해서	-11.289
▁브레	-11.2894
실제	-11.2899
아니야	-11.2902
▁난감	-11.2902
했던거	-11.2902
▁성장영화	-11.2904
▁취급	-11.2907
진영	-11.2909
▁140	-11.2911
▁집안	-11.2912
줄알고	-11.2913
▁맞추기	-11.2914
▁잘하네	-11.2915
▁여자와	-11.2917
▁끌려	-11.2917
▁기분좋은	-11.2923
▁탄탄하	-11.2927
▁시선을	-11.2929
▁압도적	-11.2934
▁끝났다	-11.2937
보고나면	-11.294
있으면서	-11.2943
▁가질	-11.2947
▁없다는게	-11.2951
팬으로서	-11.2951
ul	-11.2953
▁도움	-11.2956
▁마주	-11.2957
ap	-11.2958
▁서사	-11.296
▁애인	-11.2966
dd	-11.2969
▁23	-11.2972
▁최초	-11.2973
▁세계를	-11.2974
▁말하지	-11.2975
미소	-11.2976
▁한없이	-11.2978
▁있겠	-11.2982
▁크고	-11.2987
▁갈아	-11.2988
▁계기	-11.2989
▁말한다	-11.2995
여름	-11.2998
▁개봉하는	-11.2999
▁넘쳐	-11.3
할수록	-11.3006
▁사랑이란	-11.3009
준사람들	-11.3011
▁지리	-11.3015
▁전국	-11.3019
찍고	-11.3022
▁싸우고	-11.3024
▁나쁜놈	-11.3025
▁어정쩡	-11.3029
▁이건머	-11.3029
▁지루하지만	-11.303
▁민망한	-11.3034
▁적절	-11.3046
▁인기가	-11.3052
었죠	-11.3055
▁신기할	-11.3057
▁우려	-11.3063
▁유머가	-11.3065
444	-11.3066
기분이	-11.3067
륜	-11.307
퀴	-11.3071
들에겐	-11.3075
훗	-11.3075
▁KBS	-11.3075
▁가볍고	-11.3075
▁리즈시절	-11.3075
▁안봤지만	-11.3075
▁어벤져스	-11.3075
▁인터스텔라	-11.3075
▁찝찝함	-11.3075
뇨	-11.3075
렐	-11.3075
뺨	-11.3075
샌	-11.3075
쏠	-11.3075
젓	-11.3075
천녀유혼	-11.3075
켈	-11.3075
쿄	-11.3075
▁소름끼친다	-11.3075
▁어설픔	-11.3075
쌩	-11.3075
탔	-11.3075
▁박신양	-11.3075
▁적나라하게	-11.3075
흙	-11.3075
▁지하철	-11.3075
▁무슨내용인지	-11.3075
-0-	-11.3075
봅시다	-11.3075
▁못미치는	-11.3075
▁피라냐	-11.3075
▁왕자	-11.3075
▁빅뱅	-11.3075
▁유오성	-11.3075
▁흔히	-11.3075
▁록키	-11.3075
▁2001	-11.3075
▁유아용	-11.3075
▁효민	-11.3075
▁체험	-11.3076
▁촬영기법	-11.3076
뿐더러	-11.3076
▁조인성	-11.3076
▁0.5	-11.3076
▁새롭고	-11.3077
▁구라	-11.3077
▁쌍욕	-11.3077
▁황홀	-11.3077
버리네	-11.3077
▁흔적이	-11.3077
▁끝내준다	-11.3079
▁케이트	-11.308
▁당최	-11.308
▁종합	-11.308
▁미흡	-11.308
▁신파극	-11.3081
▁깨알같은	-11.3081
▁미쳤다	-11.3082
▁원작소설	-11.3082
▁위하여	-11.3082
▁엔딩곡	-11.3082
▁저평가된	-11.3083
▁출연료	-11.3083
ᅲᅲᅲᅲᅲ	-11.3083
적으론	-11.3084
▁뇌리에	-11.3084
▁놀라울	-11.3085
끌고	-11.3086
▁느리	-11.3087
▁다를게	-11.3088
▁지났는데	-11.3088
▁올레티비	-11.3088
▁무척이나	-11.309
▁골때리	-11.3091
▁원표	-11.3093
▁않았습니다	-11.3093
▁원빈	-11.3093
▁대변	-11.3095
▁황제	-11.3096
▁더럽게없다	-11.3096
▁알수없는	-11.3097
▁졸려서	-11.3098
▁된다고	-11.3098
▁풀었	-11.3098
▁미션	-11.3098
▁완벽히	-11.3099
재미없네	-11.3101
▁않았는데	-11.3103
▁허무하다	-11.3103
▁잡았	-11.3104
▁별다른	-11.3104
놨다	-11.3105
▁동참	-11.3105
▁슬퍼서	-11.3105
▁노예	-11.3106
▁비추천	-11.3107
▁가는줄	-11.3107
▁뛰어나다	-11.3108
거림	-11.3108
▁대형	-11.3109
▁엉성하다	-11.3109
인줄알았는데	-11.311
▁몰라서	-11.3112
▁못봐주겠다	-11.3113
▁뻔하지만	-11.3114
할때마다	-11.3114
▁배웠	-11.3116
▁구매	-11.3117
▁발생	-11.3117
▁리얼하게	-11.3118
놔서	-11.3118
▁이준기	-11.3119
▁사나이	-11.3125
▁결과물	-11.3125
▁없었지만	-11.3128
▁살아있다	-11.3129
해준다	-11.3131
cgv	-11.3131
주지훈	-11.3132
클럽	-11.3134
▁좀비물	-11.3136
▁말아라	-11.3136
▁유치하지만	-11.3138
▁만드나	-11.314
▁만드네요	-11.3141
▁샤론스톤	-11.3142
▁웃겨요	-11.3142
▁극적인	-11.3143
▁매회	-11.3144
▁여자들의	-11.315
▁이모양	-11.315
▁안나와서	-11.3152
▁김하늘	-11.3154
▁매년	-11.3155
▁관점에서	-11.3155
보겠다	-11.3157
▁후회할	-11.3157
▁잠든	-11.3157
▁기어	-11.316
▁남주인공	-11.3162
▁호러물	-11.3162
여년전	-11.3163
▁납득이	-11.3163
채널	-11.3164
▁구할	-11.3166
▁안가고	-11.3167
^^;;	-11.3168
▁우리들의	-11.3168
줬음	-11.3171
샘	-11.3171
▁봐야함	-11.3171
대충	-11.3172
곱	-11.3172
젖	-11.3173
하네여	-11.3173
▁드라마에요	-11.3174
낳	-11.3174
뽑	-11.3174
케이블	-11.3175
따뜻한	-11.3175
▁죽었다	-11.3176
▁주변에	-11.3177
슈퍼	-11.3179
▁냄새가	-11.3183
▁맞은	-11.3184
만드나	-11.3185
▁촌스럽지	-11.3185
▁내용전개가	-11.3185
▁비유	-11.3186
뻔한스토리	-11.3189
▁쉣	-11.3191
▁진주	-11.3191
▁우리집	-11.3195
영환데	-11.3195
▁무서운거	-11.3197
재미있고	-11.32
조절	-11.32
작품성	-11.3201
▁영구	-11.3201
▁난무	-11.3204
▁인한	-11.3205
co	-11.3208
보게됨	-11.3209
놈들아	-11.3214
▁못잡	-11.3215
두번	-11.3218
것같아서	-11.3222
전설	-11.3222
해짐	-11.3224
▁살릴	-11.3232
▁있을지	-11.3236
▁주말에	-11.3236
나잇	-11.3238
▁관리	-11.324
▁빠순이들	-11.3244
▁두분	-11.3247
▁이걸보고	-11.325
하다못해	-11.3251
▁과장되	-11.3252
▁인간들은	-11.326
▁서부영화	-11.3261
마음을	-11.3264
보고싶은	-11.3264
게끔	-11.3264
잇어요	-11.3269
듣는	-11.3271
미녀	-11.3272
▁감정이입이	-11.3275
▁현장	-11.3281
흔한	-11.3285
▁되는거	-11.329
▁보장	-11.3292
▁허접함	-11.3293
▁사형	-11.3294
▁코믹물	-11.3302
▁발견한	-11.3309
▁고르	-11.331
이런걸	-11.3312
▁부여	-11.3313
▁거부감	-11.3314
▁관계를	-11.3315
놔	-11.3316
▁좋아하게	-11.3318
▁긴장을	-11.3321
▁맞게	-11.3326
▁성공한	-11.3328
▁그것은	-11.3329
착한	-11.3333
16	-11.3336
싶을정도	-11.3337
시리	-11.3338
▁흑흑	-11.3339
▁시간아까운	-11.3344
되야	-11.3344
▁제작진들	-11.3344
el	-11.3349
박스	-11.3354
▁썩어	-11.3355
사랑해	-11.3362
▁나라를	-11.3362
▁작품성은	-11.3369
라기엔	-11.3369
밑	-11.3375
▁건진	-11.3376
대결	-11.3377
못할	-11.3382
쉽게	-11.3383
▁한계가	-11.3383
위주	-11.3384
▁유쾌함	-11.3384
고싶지	-11.3384
▁서우	-11.3385
▁이전에	-11.3388
소재로	-11.339
▁잔잔하면서	-11.3398
▁돌아간	-11.3402
▁정성	-11.3402
비슷	-11.3412
▁웃어야	-11.3423
▁표현하는	-11.3423
생긴	-11.343
하구나	-11.3445
킴	-11.3446
▁슬프게	-11.3449
돋보	-11.3457
보지마	-11.3458
▁즐겨보	-11.3462
▁느린	-11.3467
볼수없	-11.3469
잔아	-11.3469
뀌	-11.3473
▁많았다	-11.3475
끗	-11.3475
턱	-11.3475
▁OCN	-11.3475
궈	-11.3475
▁거슬린다	-11.3475
▁봤으니	-11.3475
▁안봤으면	-11.3475
▁얻었	-11.3475
▁옴니버스	-11.3475
▁유치뽕짝	-11.3475
갸	-11.3475
꿋	-11.3475
썽	-11.3475
욧	-11.3475
쪄	-11.3475
▁아메리칸	-11.3475
▁엑스트라	-11.3475
▁즐겁다	-11.3475
데미무어	-11.3475
흰	-11.3475
▁노무현	-11.3475
▁로렌스	-11.3475
▁뭔내용인지	-11.3475
▁뒤통수	-11.3475
▁무책임	-11.3475
▁장쯔이	-11.3475
▁강호동	-11.3475
생뚱맞	-11.3475
▁정재영	-11.3475
▁불필요한	-11.3475
▁잘만들어진	-11.3475
▁외로운	-11.3475
▁중딩때	-11.3475
▁믿겨지지	-11.3475
▁훈련	-11.3475
▁에너지	-11.3475
오디션	-11.3475
김남길	-11.3476
▁단체로	-11.3476
▁그들만의	-11.3476
랍시고	-11.3476
▁돋보임	-11.3476
▁슈렉	-11.3476
▁간첩	-11.3476
▁일어난	-11.3476
bbbb	-11.3476
서인국	-11.3477
▁쾌감	-11.3477
▁스티브	-11.3477
▁푸른	-11.3477
▁아쉬웠다	-11.3477
▁뛰쳐	-11.3478
▁my	-11.3478
연기너무잘	-11.3478
▁보면볼수록	-11.3479
▁악몽	-11.348
▁회복	-11.3481
@@	-11.3481
▁반성해라	-11.3481
▁실존	-11.3481
▁독백	-11.3481
▁태권	-11.3482
▁예매	-11.3482
▁투표	-11.3482
▁현빈	-11.3483
▁못생긴	-11.3483
▁담담하게	-11.3483
▁반지의	-11.3483
▁녹화	-11.3485
▁사랑스러워	-11.3485
▁몇번이고	-11.3486
▁행복했습니다	-11.3486
▁문학	-11.3486
어이상실	-11.3486
▁미치겠다	-11.3486
▁몰래	-11.3487
▁급전개	-11.3488
▁창작	-11.3488
▁행복해지는	-11.349
▁창조	-11.349
▁호평	-11.3491
▁실종	-11.3491
▁의존	-11.3491
14	-11.3491
께요	-11.3493
▁신앙	-11.3493
▁사실적	-11.3494
▁잘생긴	-11.3494
▁이뻐요	-11.3495
▁지금껏	-11.3495
▁알고보니	-11.3495
▁암살	-11.3497
하는건데	-11.3497
▁아니에요	-11.3498
▁능가하는	-11.3498
▁떠올리게	-11.3499
▁표본	-11.3499
▁재미없었던	-11.3499
▁장인	-11.35
연기자들	-11.3502
▁멋지네요	-11.3502
볼꺼	-11.3503
시킴	-11.3504
▁코엔	-11.3504
▁인종	-11.3504
▁울었네요	-11.3505
▁시원하게	-11.3505
▁최초로	-11.3507
싶으면	-11.3509
▁울었음	-11.3509
▁그리운	-11.351
▁건너	-11.3512
ᅲᅲᅲᅲᅲᅲᅲᅲ	-11.3512
흐흐	-11.3515
▁이뤄	-11.3519
▁미치는	-11.352
▁영화관에	-11.352
▁나았다	-11.3521
이라는거	-11.3521
▁전환	-11.3522
▁작정	-11.3522
▁무게감	-11.3523
▁깨우	-11.3524
▁보았지만	-11.3526
▁멋있음	-11.3527
▁가리	-11.3529
집어	-11.353
▁숀	-11.3532
게아니라	-11.3532
▁심사위원	-11.3532
▁중독성	-11.3537
▁함정	-11.3544
▁확신	-11.3549
부분만	-11.3551
▁잔인하게	-11.3553
▁참신하고	-11.3553
▁시바	-11.3553
▁티나	-11.356
▁설레임	-11.3564
▁이념	-11.3565
▁찍어라	-11.3568
▁음모	-11.3568
ha	-11.3572
▁생각지도	-11.3573
▁엉망이고	-11.3574
폐지	-11.3577
▁한표	-11.3579
;;;;;;	-11.3579
▁재미있었고	-11.358
▁강요	-11.358
▁있었다니	-11.358
▁수준이다	-11.3582
▁자제	-11.3583
쌍	-11.3585
짠	-11.3585
▁실망했다	-11.3587
▁즐기는	-11.3588
씹	-11.3589
넌	-11.3591
퀄리티	-11.3591
짝퉁	-11.3592
▁당한	-11.3595
통쾌	-11.3595
최강	-11.3595
▁기대합니다	-11.3596
무협	-11.3598
중간중간	-11.3599
개념	-11.3599
한마디	-11.3601
실패	-11.3603
들어가	-11.3603
그럴	-11.3603
▁도박	-11.3604
▁어린애들	-11.3604
제작진	-11.3607
▁니들은	-11.361
▁망상	-11.3611
▁인상적이다	-11.3613
▁대단함	-11.3614
▁실망시키지	-11.3619
27	-11.3619
▁옛다	-11.3619
설레	-11.362
▁나오니	-11.362
처음엔	-11.3623
그닥	-11.3624
내인생	-11.3624
갔던	-11.3624
기다리	-11.3625
▁보자고	-11.3626
▁말하면	-11.3627
▁어찌나	-11.3628
왜케	-11.3632
거라곤	-11.3633
회사	-11.3638
십니다	-11.3639
▁따라서	-11.3642
게스트	-11.3642
▁본후	-11.3642
아픈	-11.3646
티비로	-11.3646
▁만들기도	-11.3647
짜증난다	-11.3648
될수	-11.365
갖고	-11.3655
▁처음입니다	-11.3656
▁한달	-11.3656
▁죽기	-11.3658
▁고통을	-11.3659
ig	-11.3661
싶음	-11.3667
▁망치는	-11.3668
▁지루할수	-11.3671
여친	-11.3671
▁고급	-11.3672
▁엄마와	-11.3672
시사회	-11.3677
자리에	-11.3677
▁흘러도	-11.368
▁명배우들	-11.3682
▁역할이	-11.3685
수있을까	-11.3692
▁합쳐	-11.3693
쳤던	-11.37
▁통한	-11.3703
▁후에도	-11.3708
▁있는것도	-11.3708
▁상업적	-11.3709
na	-11.3712
▁각본과	-11.3715
나오는거	-11.3719
환상	-11.3721
▁울뻔	-11.3723
회장	-11.3723
런지	-11.3724
죽이기	-11.3728
88	-11.3729
▁욕구	-11.3731
옆에서	-11.3733
▁진지함	-11.3733
마른	-11.374
ᅮᅮᅮᅮ	-11.3742
▁아들과	-11.3745
▁터졌	-11.3746
▁찡한	-11.3748
▁못하지만	-11.3749
마져	-11.3749
잘생겼다	-11.3751
억지스럽	-11.3756
자극	-11.3757
번씩	-11.3761
▁안들어	-11.3765
파괴	-11.377
보는것	-11.3773
▁미화하는	-11.3773
▁소리지르	-11.3774
하셔서	-11.3778
▁그래픽은	-11.3783
▁보신	-11.3788
▁되냐	-11.3798
▁웃어	-11.3807
분간	-11.3808
gt	-11.3816
me	-11.3818
재미가없	-11.3826
했으니	-11.3833
▁굉장	-11.3836
▁밑에분	-11.3838
것같고	-11.3839
▁건물	-11.3839
▁영향	-11.384
지마요	-11.385
엇던	-11.3853
점이면	-11.3854
▁페이크다큐	-11.3858
▁탁월	-11.3858
이라지만	-11.3863
버렸어	-11.3863
▁아역배우	-11.3864
▁잼써	-11.3871
좋겟다	-11.3871
▁객관적	-11.3872
▁미리	-11.3873
▁전작들	-11.388
바리	-11.389
도그렇고	-11.3891
▁핸드폰	-11.3891
씽	-11.3891
쨩	-11.3891
▁Very	-11.3891
▁ever	-11.3891
▁뚜렷	-11.3891
▁멜깁슨	-11.3891
▁아팠다	-11.3891
▁최곱니다	-11.3891
쑤	-11.3891
엎	-11.3891
짖	-11.3891
▁love	-11.3891
▁브래드	-11.3891
▁크루즈	-11.3891
꽂	-11.3891
밭	-11.3891
씌	-11.3891
욜	-11.3891
판타스틱	-11.3891
프로젝트	-11.3891
▁어려움	-11.3891
▁후유증	-11.3891
▁충무로	-11.3891
▁다녀온	-11.3891
▁유역비	-11.3892
▁어리석	-11.3892
지맙시다	-11.3892
▁2008	-11.3892
▁마피아	-11.3892
▁가깝다	-11.3892
▁금요일	-11.3892
▁박해일	-11.3892
▁압박	-11.3892
▁한정된	-11.3892
▁옹호	-11.3892
클래스	-11.3892
▁왜이럼	-11.3892
▁깨달았다	-11.3892
▁토이스토리	-11.3892
▁가면갈수록	-11.3892
▁똥폼	-11.3893
▁어렷을	-11.3893
▁짧아서	-11.3893
▁뒤집어	-11.3893
▁레이싱	-11.3893
▁잔잔하니	-11.3893
▁멋집니다	-11.3893
▁서부극	-11.3893
감우성	-11.3894
▁졸업작품	-11.3894
▁자칫	-11.3894
무리	-11.3894
▁느껴짐	-11.3895
보고난후	-11.3895
▁하얀	-11.3895
▁줄리아	-11.3897
▁얼른	-11.3897
▁일대기	-11.3897
▁구리다	-11.3898
▁리암	-11.3898
도입부	-11.3898
▁먹먹해지는	-11.3898
▁껏다	-11.3898
테이프	-11.3899
▁습작	-11.3899
▁개봉했을때	-11.39
쌍둥이	-11.39
▁너무좋아요	-11.39
▁리플	-11.3901
▁어느새	-11.3902
▁괴작	-11.3902
▁대략	-11.3903
▁생겨	-11.3903
▁올레	-11.3904
▁벌어지는	-11.3904
▁추잡	-11.3904
▁따뜻하다	-11.3904
▁질투	-11.3905
▁사람으로서	-11.3906
▁대가리	-11.3906
▁억지스럽다	-11.3906
▁금방	-11.3907
▁생겨서	-11.3908
죽겠다	-11.3908
▁바람피	-11.3909
▁히트	-11.3909
▁알면서도	-11.3909
▁솔직하게	-11.391
였는지	-11.3911
하셨습니다	-11.3911
▁대단합니다	-11.3911
▁늘어지는	-11.3913
▁절제	-11.3913
▁오랜만이다	-11.3914
▁아니었으면	-11.3915
▁그래두	-11.3917
▁물론이고	-11.3918
▁틀림없다	-11.3918
▁극단적인	-11.3918
▁없구만	-11.392
껀데	-11.392
▁조직	-11.3921
▁있었어요	-11.3921
▁무의미한	-11.3922
▁아니었음	-11.3925
탐정	-11.3925
하겠네	-11.3926
▁이름만	-11.3927
▁못하나	-11.3927
허허허	-11.3929
▁언더	-11.3932
▁고백	-11.3933
▁깨달	-11.3935
을위한	-11.3939
▁꼭봐라	-11.3939
▁허준	-11.394
▁사막	-11.3941
잡아먹	-11.3941
▁소문	-11.3941
▁높냐	-11.3944
▁애절한	-11.3945
▁암울한	-11.3947
▁좋아했는데	-11.3947
▁넘겨	-11.3948
▁돌아가는	-11.3949
all	-11.3949
않아서	-11.395
누르	-11.3955
▁만들었는데	-11.3956
▁최대한	-11.3956
▁와닿는다	-11.3958
돼서	-11.3958
▁절라	-11.3961
▁아버지와	-11.3963
하는걸	-11.3965
▁죽어서	-11.3967
1,2	-11.3967
▁방식이	-11.3967
▁변명	-11.3969
▁백미	-11.3971
▁끝나기	-11.3973
▁전형	-11.3974
▁전통	-11.3974
▁욕나오는	-11.3977
▁생각밖에	-11.3977
▁만들었던	-11.3977
라길래	-11.3978
훌륭	-11.3982
▁킬링타임으로	-11.3982
▁지루하네요	-11.3984
▁곁에	-11.3984
▁벗기	-11.3985
▁빛나	-11.3985
▁좋아하면	-11.3986
▁요구	-11.3987
주시길	-11.399
▁아쉽게	-11.3992
▁공식	-11.3993
▁돈아까운	-11.3995
▁구하기	-11.3998
▁따른	-11.4004
▁첫장면	-11.4006
▁따듯하	-11.4007
▁피트	-11.4011
▁맞았	-11.4013
▁영상물	-11.4013
탐	-11.4013
▁내눈	-11.4015
슬픔	-11.4021
으려나	-11.4022
완성도	-11.4022
▁불가능한	-11.4024
▁비난	-11.4024
누군가	-11.4025
전문가	-11.4025
스케일	-11.4025
메세지	-11.4025
우연히	-11.4027
프트	-11.4028
힐링	-11.4029
▁토르	-11.403
▁멋있게	-11.4032
▁죄를	-11.4032
최근	-11.4033
▁말이죠	-11.4034
▁한편으로	-11.4037
할머니	-11.4039
살짝	-11.4043
종교	-11.4046
▁그땐	-11.4047
▁안맞고	-11.4052
▁지구를	-11.4054
안나온다	-11.4055
당함	-11.4056
삭제	-11.4058
했기에	-11.406
▁끝나네	-11.406
신다면	-11.4062
그렇다고	-11.4063
▁고려	-11.4064
앗는데	-11.4064
완벽한	-11.4066
주변	-11.4067
산업	-11.4067
파티	-11.4067
▁오류	-11.4068
중독	-11.407
희망	-11.407
▁한국드라마	-11.4076
▁당신을	-11.4078
생각보다	-11.4079
릴때	-11.4084
생각하게	-11.4085
볼수있는	-11.4085
▁평론가들은	-11.4086
▁자극하는	-11.4089
▁졸린	-11.4093
▁이랬	-11.4099
졸립	-11.4101
▁돌리도	-11.4103
▁망한영화	-11.4104
연관성	-11.4109
꼬마	-11.411
▁남자들이	-11.4113
결제	-11.4118
▁남자들의	-11.4122
▁머리속에	-11.4124
▁나오던	-11.4129
▁정서에	-11.4133
많아	-11.4137
이쁘	-11.4141
▁시나리오와	-11.4142
▁좋아했	-11.4146
모토	-11.4149
▁잘어울리	-11.4153
낮게	-11.4157
▁잼났	-11.4163
싶었다	-11.4168
▁못볼	-11.4172
▁작품이라고	-11.4172
센스	-11.4176
보여준	-11.419
▁일드	-11.4195
▁두사람	-11.4197
▁잊어	-11.42
▁조용한	-11.42
ain	-11.42
▁서부	-11.4212
줘라	-11.4216
▁포기한	-11.4218
▁주체	-11.4228
곁	-11.423
▁장치	-11.4238
읽어	-11.4238
스트라	-11.424
▁광주	-11.4244
▁말하기	-11.4246
▁잃었	-11.4247
▁짠한	-11.4262
▁욕할	-11.4264
먹었다	-11.4266
▁최악이네	-11.4274
호구	-11.4286
▁198	-11.429
▁일깨워	-11.4293
일지도	-11.43
검사	-11.4302
▁울리	-11.4305
▁어딜	-11.4306
젼	-11.4307
행동	-11.4309
▁슬래셔	-11.4313
밴	-11.4318
lt	-11.432
됐지만	-11.432
믹	-11.4323
보낸	-11.4324
낌	-11.4325
랙	-11.4325
렘	-11.4325
맙	-11.4326
엣	-11.4326
▁kbs	-11.4326
▁선입견	-11.4326
▁아날로그	-11.4326
▁어땠을까	-11.4326
▁초콜릿	-11.4326
▁폴워커	-11.4326
괘	-11.4326
붓	-11.4326
시켰다	-11.4326
얹	-11.4326
펄	-11.4326
▁스타일리쉬	-11.4326
▁시스템	-11.4326
▁하루종일	-11.4326
▁휴머니즘	-11.4326
▁자존심	-11.4326
반지의제왕	-11.4326
▁덴젤	-11.4326
▁신비로운	-11.4326
쨌	-11.4326
▁재해석	-11.4326
▁추악한	-11.4326
▁좌절	-11.4326
▁눈뜨고	-11.4326
▁손꼽히는	-11.4326
▁고현정	-11.4327
▁디자인	-11.4327
▁옹박	-11.4327
ᅲᅲᅲᅲᅲᅲᅲᅲᅲᅲᅲᅲᅲᅲᅲᅲ	-11.4327
▁어디선가	-11.4327
▁빨리감기	-11.4327
▁나쁘다	-11.4327
▁엑소	-11.4327
▁테론	-11.4327
▁가만히	-11.4327
▁괜춘	-11.4327
▁설렘	-11.4327
▁안무섭다	-11.4327
▁능가	-11.4327
▁근육	-11.4328
▁아키라	-11.4328
기대안했는데	-11.4328
uck	-11.4328
▁최진실	-11.4328
▁씹노잼	-11.4328
▁베낀	-11.4328
▁탐욕	-11.4329
▁흥해라	-11.433
▁사소한	-11.433
▁감정들	-11.433
▁발휘	-11.4331
▁역부족	-11.4331
▁어쩌고	-11.4332
▁감동적이었어요	-11.4332
▁나중엔	-11.4334
▁짐작	-11.4334
비됴	-11.4334
▁시간여행	-11.4337
▁할말이없다	-11.4337
▁좋아할만한	-11.4339
▁팬티	-11.4343
▁의심스럽다	-11.4344
▁정답	-11.4344
▁벌레	-11.4345
▁풀어가는	-11.4345
▁화난다	-11.4346
▁어려서	-11.4346
없냐	-11.4347
▁어깨	-11.4348
▁하기에는	-11.4348
▁작작	-11.4348
전투	-11.4349
단체	-11.4349
▁하필	-11.435
주인공들	-11.4351
▁넘친다	-11.4352
점줍니다	-11.4352
▁관대하다	-11.4352
주는것도	-11.4354
▁실망스러운	-11.4355
▁연민	-11.4355
▁짱이에요	-11.4356
▁알았어	-11.4357
▁이룬	-11.4359
▁선배	-11.4361
엠씨	-11.4362
▁원망	-11.4364
▁동경	-11.4364
▁나왔습니다	-11.4364
▁신기하다	-11.4366
▁유쾌하다	-11.4366
망신	-11.437
▁실화라고	-11.437
하시는분들	-11.4372
말곤	-11.4373
▁120	-11.4375
▁뿐이고	-11.4375
▁서기	-11.4376
영화에요	-11.4377
▁기대이상으로	-11.4378
▁해학	-11.4381
▁2%	-11.4381
▁근거	-11.4381
▁재밌겠다	-11.4382
했는가	-11.4389
▁치밀한	-11.439
▁소피	-11.4391
▁경쟁	-11.4392
▁걸려	-11.4392
▁촌스럽고	-11.4394
지마시고	-11.4396
▁배운	-11.4396
▁밝고	-11.4397
▁미키	-11.4398
▁높네요	-11.4402
▁어색하지	-11.4403
개월	-11.4404
해야만	-11.4404
▁있었을까	-11.4408
추천합니다	-11.4413
▁미이라	-11.4415
▁다가오는	-11.4416
▁강추입니다	-11.4417
▁만들었네요	-11.4419
▁짧고	-11.442
▁불편하고	-11.4421
▁감동감동	-11.4421
답지	-11.4424
▁보시는	-11.4426
박수	-11.4426
▁개봉하지	-11.443
▁사실적인	-11.443
재밌는영화	-11.4433
▁그러면	-11.4434
▁하차	-11.4434
▁못했지만	-11.4434
편보고	-11.4438
왠	-11.4438
▁기억속에	-11.4442
▁망함	-11.4445
▁심했다	-11.4445
▁동기	-11.4445
편보단	-11.4448
▁알아서	-11.4453
▁끔찍한	-11.4453
▁된다면	-11.4454
▁속상	-11.4458
▁한국식	-11.446
▁미군	-11.4461
▁개망	-11.4462
안나오나	-11.4463
▁사연	-11.4464
▁동심을	-11.4465
▁흥미진진하고	-11.4466
스포	-11.4467
▁괜찮았고	-11.4467
▁보이네요	-11.4468
기억에남는	-11.447
떠나	-11.4472
폼	-11.4472
▁써라	-11.4479
쓰래기	-11.4479
매니아	-11.448
열심히	-11.4481
빅	-11.4482
▁칼로	-11.4482
▁이름으로	-11.4487
끝났으면	-11.4487
▁저때	-11.4488
였군	-11.4491
▁보호	-11.4491
▁낫네	-11.4492
굿굿	-11.4496
▁공개	-11.4496
재밌었는데	-11.4497
잼있어요	-11.4498
▁이루어진	-11.4498
▁리얼한	-11.4499
▁모두에게	-11.4499
승리	-11.4505
▁화해	-11.4508
▁영혼을	-11.4508
▁최고작	-11.4508
보고있는데	-11.4514
안나옴	-11.4515
워크	-11.4516
맨날	-11.4517
▁청춘들	-11.4522
▁담담	-11.4523
▁드러난	-11.4523
▁반전까지	-11.4524
명이서	-11.4524
▁쩔었	-11.4524
▁이쁘네	-11.4532
▁웃기긴	-11.4541
▁높고	-11.4544
▁드라마였다	-11.4547
▁실망스러웠	-11.4549
ec	-11.4554
▁끝나면	-11.4557
연출력	-11.4558
▁붙여	-11.4564
▁나갈	-11.457
▁과한	-11.4571
어찌	-11.4572
배역	-11.4595
전작	-11.4602
든데	-11.4604
▁웃기기도	-11.4606
▁그시대	-11.4607
잼잇	-11.4615
▁놓치지	-11.4616
억지로	-11.4619
개판	-11.4627
었더라면	-11.4629
점드립니다	-11.463
게이트	-11.4634
일본영화	-11.4636
▁잼없어	-11.4637
▁나오지만	-11.4641
▁이끌	-11.4645
▁납득	-11.4677
굿굿굿	-11.4678
▁너희들	-11.4683
▁보기전	-11.4695
티브	-11.4701
▁실망감	-11.4704
쁜	-11.4704
▁귀한	-11.4705
▁우롱	-11.4707
어야할	-11.4714
막장드라마	-11.4714
야겠다는	-11.473
내시간	-11.4733
▁비슷하	-11.4739
중심	-11.4742
▁무의미	-11.4749
뻔했네	-11.4751
보았다	-11.4755
가능한	-11.4756
▁미스터	-11.4761
▁지금보니	-11.4766
▁호러영화	-11.477
터지고	-11.4771
거리며	-11.4775
딜	-11.4777
시기를	-11.4777
▁개봉작	-11.4778
뜩	-11.4779
퉁	-11.478
캡	-11.478
개드림	-11.4781
▁다세포	-11.4781
·	-11.4781
릉	-11.4781
셰	-11.4781
▁까메오	-11.4781
▁떠오른다	-11.4781
▁로멘틱	-11.4781
▁로보캅	-11.4781
▁빈디젤	-11.4781
▁쌍팔년도	-11.4781
▁엄태웅	-11.4781
▁정신건강에	-11.4781
▁히틀러	-11.4781
댔	-11.4781
쉰	-11.4781
퍽	-11.4781
햐	-11.4781
훅	-11.4781
▁철저히	-11.4781
▁어중간한	-11.4781
▁유치원생	-11.4781
▁일으키	-11.4781
▁조재현	-11.4781
▁훼손	-11.4781
▁긍정적	-11.4781
▁약빨고	-11.4781
▁어떨지	-11.4781
▁지상파	-11.4781
▁버무려	-11.4781
▁시끄러워	-11.4781
▁서서히	-11.4781
▁느꼇	-11.4781
▁2009	-11.4781
▁즐거워	-11.4781
▁2006	-11.4781
▁좌파	-11.4781
▁신은경	-11.4781
▁최선을	-11.4781
▁맥라이언	-11.4781
테잎	-11.4781
허니잼	-11.4781
▁으리으리	-11.4781
▁테러리스트	-11.4782
점준거중	-11.4782
▁빡쳐서	-11.4782
아일랜드	-11.4782
▁다가온다	-11.4782
▁훈남	-11.4782
▁스탭	-11.4782
▁한지민	-11.4782
▁뒤로갈수록	-11.4782
▁장난해	-11.4782
▁ᄌᄅ	-11.4782
김래원	-11.4782
▁빠르게	-11.4782
해리슨	-11.4782
*^^*	-11.4783
단막극	-11.4783
▁이민정	-11.4783
라기보단	-11.4783
▁빠져든다	-11.4783
▁활약	-11.4783
▁자연스럽고	-11.4783
좌빨	-11.4784
▁오래오래	-11.4784
▁통찰	-11.4784
▁시청율	-11.4784
▁흔하디	-11.4784
▁모르겠으나	-11.4785
▁피터팬	-11.4785
EC	-11.4785
▁본질을	-11.4786
▁MC	-11.4786
▁왜이러냐	-11.4786
노력	-11.4786
▁상쾌	-11.4786
▁애썼	-11.4786
▁있었으나	-11.4787
▁한결같	-11.4787
▁불꽃	-11.4787
▁무표정	-11.4787
▁발톱	-11.4787
▁낯선	-11.4788
▁엽기적인	-11.4788
▁돋보였던	-11.4789
▁아이리스	-11.4789
▁힘듬	-11.4789
▁목사님	-11.479
▁반항	-11.4791
▁성괴	-11.4791
▁열받아서	-11.4792
▁괜찮았어요	-11.4793
▁없으며	-11.4793
할수있다	-11.4793
▁고마워요	-11.4794
▁타짜	-11.4794
xx	-11.4794
▁아름다웠던	-11.4796
▁수십	-11.4796
▁미안하지만	-11.4797
▁여자친구랑	-11.4798
▁초등학생때	-11.4799
▁질질끄는	-11.48
▁평점테러	-11.48
▁싶어지는	-11.4801
▁린치	-11.4802
했었던	-11.4802
▁몰려	-11.4803
▁최종	-11.4804
▁농구	-11.4805
▁일본애니	-11.4807
흘리	-11.4808
했을텐데	-11.481
▁구리고	-11.481
▁터질	-11.4811
▁없었습니다	-11.4812
▁심해	-11.4813
▁조커	-11.4813
▁조아요	-11.4814
▁지성	-11.4817
▁금치	-11.4819
▁치밀하고	-11.4821
?????????	-11.4822
▁괜찮던데	-11.4824
▁거대한	-11.4826
▁싫음	-11.4827
▁97	-11.4827
생명체	-11.4829
거아닌가	-11.4829
▁기괴한	-11.483
▁대단하네요	-11.4832
▁밋밋하고	-11.4833
▁엉망인	-11.4833
▁개실망	-11.4834
▁정글	-11.4834
▁때론	-11.4835
▁계신	-11.4839
▁압권이다	-11.484
▁소름돋는다	-11.484
▁최악이었다	-11.484
▁산만함	-11.4841
대단한	-11.4841
▁인상깊었다	-11.4842
▁알았지만	-11.4844
▁김태	-11.4849
▁잔인하지도	-11.485
▁느껴야	-11.4851
▁걸레	-11.4851
ent	-11.4852
▁먹먹하고	-11.4852
흥미롭	-11.4854
▁광해	-11.4858
이럴수가	-11.4864
▁부재	-11.4865
▁보다보면	-11.4867
▁엉뚱한	-11.4869
▁극장서	-11.4869
▁보실	-11.4872
▁암시	-11.4872
▁잊혀지지않는	-11.4872
▁후반으로	-11.4873
▁별반	-11.488
▁조금더	-11.4886
▁노리	-11.4886
▁연구	-11.4891
▁바뀌고	-11.4892
▁나왔다는	-11.4894
▁1%	-11.4895
[	-11.4895
▁망쳐놨	-11.4897
▁성질	-11.4898
▁안듬	-11.4898
▁황당함	-11.4902
운동	-11.4903
▁안되요	-11.4905
되기	-11.4908
▁내평점	-11.4908
하더만	-11.4911
▁충격적이다	-11.4921
▁통일	-11.4921
▁못봤다	-11.4922
▁안나와	-11.4928
▁믿기	-11.493
▁난무하는	-11.493
▁진구	-11.4931
▁변하는	-11.4934
▁보는듯한	-11.4934
줄께	-11.4935
무서움	-11.4939
흑흑	-11.494
괜찮았	-11.4941
▁욕하면서	-11.4946
▁억울하	-11.4947
78	-11.495
▁기다리고	-11.495
짤	-11.4952
▁지루해요	-11.4954
쪼	-11.4954
아무튼	-11.4957
예쁘고	-11.4957
이연걸	-11.4958
▁타임용	-11.4958
기대안하고	-11.4959
이정도면	-11.496
▁대박입니다	-11.496
개뿔	-11.496
씁쓸	-11.4961
▁형성	-11.4963
2011	-11.4963
졸잼	-11.4963
과함께	-11.497
▁당황스럽	-11.4971
▁몇일	-11.4973
지금봐도	-11.4977
재미도없고	-11.4977
심은하	-11.4977
▁짱입니다	-11.4978
풍경	-11.4978
▁이러한	-11.498
나오더라	-11.4981
어머니	-11.4981
▁생각해요	-11.4982
하겠는데	-11.4983
▁좋아함	-11.4984
무엇보다	-11.4987
남친	-11.4989
▁남음	-11.499
▁시시한	-11.499
▁수작임	-11.4992
▁생각했	-11.4996
목사	-11.4997
▁있었지	-11.4999
약함	-11.5
귀엽고	-11.5001
마지막회	-11.5006
▁못봐주겠	-11.5007
▁재밌었어	-11.501
▁중요한건	-11.5013
▁처음보는	-11.5014
상처	-11.5017
더이상	-11.5022
▁감동적이였	-11.5042
했더라면	-11.5042
▁흔하	-11.5043
▁참신함	-11.5045
▁감동이네요	-11.5045
몇번을	-11.505
▁미워	-11.5057
▁무난한	-11.5059
▁써야	-11.506
일까요	-11.506
▁부실한	-11.5062
▁만족스럽	-11.5062
▁잔잔하다	-11.5063
▁딴짓	-11.5065
▁넣었	-11.5067
안나오는	-11.5067
▁투자한	-11.5072
웠어요	-11.5078
▁매기	-11.5085
먹음	-11.5086
▁저버리지	-11.5087
▁갑갑	-11.5093
받아야	-11.5097
에로영화	-11.5102
나왓으면	-11.5103
▁죽여버리고	-11.5106
싶어요	-11.5107
▁찾을수	-11.5109
▁낭만적	-11.5114
멋있다	-11.5121
중엔	-11.5125
▁-1	-11.5128
하게만드는	-11.5145
▁원작보다	-11.5146
▁잠들었	-11.5151
현실성	-11.5152
,,,,,,	-11.5158
▁의외	-11.5164
듯한데	-11.5166
준비	-11.5171
▁다가오	-11.5173
▁심하네	-11.518
만들면	-11.5181
▁지친	-11.5183
▁조성	-11.5191
▁한국영화중	-11.5195
같으면	-11.5195
▁생각날	-11.5208
행님	-11.5214
▁헛웃음	-11.5222
보는사람	-11.5228
감명깊	-11.5231
▁원제	-11.5232
▁저예산영화	-11.5234
▁개인적	-11.5234
해보이는	-11.5235
기업	-11.5236
생기고	-11.5237
싶습니다	-11.5242
▁연예	-11.5247
▁골라	-11.5248
▁흠잡을	-11.5249
밨	-11.525
럿	-11.5255
쌩뚱맞	-11.5256
헨	-11.5256
났는데	-11.5257
짬	-11.5257
톡	-11.5257
ᅭ	-11.5257
뜰	-11.5257
▁스토리텔링	-11.5257
▁신동엽	-11.5257
▁안젤리나	-11.5257
▁어메이징	-11.5257
▁인상깊다	-11.5257
▁톰행크스	-11.5257
낱	-11.5257
스페셜	-11.5257
쌤	-11.5257
얌	-11.5257
촉	-11.5257
▁Bad	-11.5257
▁끊임없이	-11.5257
▁뒷통수	-11.5257
▁맥어보이	-11.5257
▁샤말란	-11.5257
▁중구난방	-11.5257
▁쿠엔틴	-11.5257
연쇄살인	-11.5257
쵸	-11.5257
트와일라잇	-11.5257
▁숨막히는	-11.5257
▁유승호	-11.5257
▁장동민	-11.5257
▁쥬라기공원	-11.5257
▁친일파	-11.5257
▁쿵푸	-11.5257
지니어스	-11.5257
▁고맙다	-11.5257
위원회	-11.5257
▁이선균	-11.5257
▁장만옥	-11.5257
▁모니터	-11.5257
▁먹칠을	-11.5257
▁사춘기	-11.5257
잘어울려	-11.5257
▁균형	-11.5257
▁배드신	-11.5257
▁배슬기	-11.5257
윤시윤	-11.5257
▁제레미	-11.5257
▁이종석	-11.5257
▁부성애	-11.5257
\	-11.5257
▁역겨워	-11.5257
▁유익한	-11.5257
▁당췌	-11.5257
▁차가운	-11.5257
▁쓰나미	-11.5257
▁2002	-11.5258
▁덕후	-11.5258
질않나	-11.5258
▁퍼펙트	-11.5258
▁여진구	-11.5258
▁풋풋하고	-11.5258
▁김수로	-11.5258
▁베리굿	-11.5258
▁음모론	-11.5259
▁AV	-11.5259
▁말이필요없음	-11.5259
▁크로우	-11.526
▁관찰	-11.526
▁흥미롭다	-11.526
▁알겠으나	-11.526
▁놀람	-11.526
▁펼치	-11.526
▁극장개봉	-11.526
▁속도감	-11.5261
▁찰리	-11.5261
▁맘에든다	-11.5262
▁파멸	-11.5262
▁볼만하던데	-11.5262
▁신뢰	-11.5262
▁위안부	-11.5262
▁감동적이예요	-11.5262
▁전형적	-11.5262
▁돋는다	-11.5262
▁다르겠지만	-11.5263
..-_-;;	-11.5263
▁놀라움	-11.5263
▁가족끼리	-11.5263
▁일어났	-11.5263
▁측면	-11.5264
▁담겨있는	-11.5264
▁종결	-11.5264
▁희극	-11.5265
▁모든면에서	-11.5266
▁잔잔히	-11.5266
▁여운이남는	-11.5266
우월주의	-11.5267
▁창문	-11.5267
▁필요할까	-11.5267
▁작업	-11.5269
▁팬이라서	-11.5269
▁만들어내는	-11.5269
▁걷는	-11.5271
▁스카이	-11.5272
▁사례	-11.5272
▁연락	-11.5272
▁모르겠어요	-11.5272
▁끌리는	-11.5272
▁섬세하고	-11.5273
▁웃기려고	-11.5273
▁친구들이랑	-11.5273
▁고쳐	-11.5273
>_	-11.5275
넣어	-11.5275
▁연계	-11.5276
▁실체	-11.5276
▁버티	-11.5277
▁재미없던데	-11.5277
▁살아갈	-11.5278
너무높다	-11.5278
▁쿠바	-11.5278
▁근본	-11.5279
유치한	-11.528
센트	-11.528
▁바라며	-11.528
▁오줌	-11.5281
아닌가요	-11.5282
ᅲᅲᅲᅲᅲᅲ	-11.5285
▁이유없이	-11.5286
▁눈물난다	-11.5287
▁알았습니다	-11.5288
▁보여주기	-11.5288
▁대하여	-11.5288
▁당할순	-11.5288
▁몰랐던	-11.5289
▁자료	-11.5289
▁로긴	-11.5289
▁각성	-11.5289
질질끄	-11.529
▁찾아가는	-11.529
▁지능	-11.529
▁예상되는	-11.5291
▁기발	-11.5292
▁초점을	-11.5293
블루레이	-11.5294
▁낚임	-11.5295
▁제법	-11.5296
▁남김	-11.5296
▁끝장	-11.5297
▁불쌍함	-11.5299
▁조잡하고	-11.53
▁지존	-11.53
▁지루합니다	-11.5301
박현지	-11.5302
▁처절한	-11.5302
▁기절	-11.5305
▁개념없	-11.5305
▁돌아온	-11.5306
1990	-11.5308
▁핵심	-11.5308
▁이상형	-11.531
▁달달하고	-11.5311
이라곤	-11.5311
▁분석	-11.5312
마지막장면	-11.5313
▁분들에게	-11.5313
▁어정쩡한	-11.5314
▁비슷하게	-11.5314
▁그리스	-11.5317
▁팬인데	-11.5319
▁과하게	-11.5323
▁자매	-11.5328
▁있다는걸	-11.5328
리즘	-11.5329
▁추천해주고	-11.5333
귀엽	-11.5333
▁허비	-11.5339
▁좋아합니다	-11.534
▁없을듯	-11.534
▁평타	-11.534
▁밝은	-11.5342
▁허무하고	-11.5343
▁제공	-11.5344
▁선교	-11.5346
▁화제	-11.5346
▁한국형	-11.5351
▁않겠다	-11.5354
▁순정	-11.5355
▁말대로	-11.5356
자기자신	-11.5357
▁식상함	-11.5357
▁곳곳에	-11.536
▁재밌게봄	-11.5363
많네	-11.5365
▁거시기	-11.5371
올드보이	-11.5371
▁숨어	-11.5379
▁멜로물	-11.538
▁시간가는	-11.5382
▁없잖아	-11.5387
▁지속	-11.5391
▁받으	-11.5391
▁실망입니다	-11.5391
▁허술함	-11.5393
하지말라	-11.5394
보세여	-11.5396
▁하나경	-11.5401
▁깎아	-11.5404
▁예상가능	-11.5406
흔적	-11.5409
무색	-11.541
▁즐거웠다	-11.5411
▁보기전에	-11.5417
▁화장	-11.5418
▁안되네요	-11.5419
▁강하다	-11.542
▁비트	-11.5422
펑펑울었	-11.5431
▁독특함	-11.5436
▁전하고자	-11.544
겠습니까	-11.5442
▁돌아보	-11.5448
학교에서	-11.5449
느낀	-11.5455
▁재미없는데	-11.5455
왠만하면	-11.5457
무조건	-11.5458
글쎄	-11.5459
▁악당들	-11.546
꼭보세요	-11.5461
눈빛	-11.5461
검색	-11.5462
탈출	-11.5463
▁형편없다	-11.5466
표절	-11.547
잘봤어요	-11.5471
생각나서	-11.5477
또봐도	-11.548
환경	-11.5481
발견	-11.5481
리뷰	-11.5483
함께	-11.5483
▁한국인들	-11.5486
것두	-11.5488
▁먹먹함	-11.5489
본적이	-11.5494
응원	-11.5494
▁미친놈	-11.5498
ge	-11.5499
▁패스	-11.55
▁너희	-11.5501
본건데	-11.5501
재밌습니다	-11.5502
틀리	-11.5504
레알	-11.5504
좋았는데	-11.5509
재미없어요	-11.5513
▁가위	-11.5514
마루	-11.5517
사랑해요	-11.5522
▁뛰어났	-11.5522
▁비슷하다	-11.5524
▁낚였어	-11.5526
평론가들	-11.5535
귀엽다	-11.5536
▁강남	-11.5545
갔음	-11.5554
해야겠다	-11.5558
좋았던	-11.5566
▁자랑스럽	-11.557
다운받아	-11.5582
▁인간미	-11.5582
▁국민들	-11.5585
▁시망	-11.5596
여러분	-11.5596
보는줄	-11.5606
셨는데	-11.5607
▁관객수	-11.5613
▁찍었다	-11.5617
볼것	-11.5618
맞아서	-11.5623
교사	-11.5632
▁이용해	-11.5632
▁기부	-11.5633
▁궁금하지	-11.5643
성격	-11.5644
뿌리	-11.5646
▁애기들	-11.5657
▁엉뚱	-11.5661
되었지만	-11.5665
거같아서	-11.567
▁출연진들	-11.5672
▁코믹연기	-11.5672
ly	-11.5673
▁그런걸	-11.5675
▁데뷔	-11.5683
▁한국말	-11.5692
▁정상인	-11.5697
룬	-11.57
▁해주었	-11.5701
▁좋으면	-11.5702
폭소	-11.5705
▁돋보인	-11.5712
▁되려	-11.5713
▁차리	-11.5728
▁감독판	-11.574
▁쓰레기같은영화	-11.5743
▁고마워	-11.5743
펙	-11.5745
움직이	-11.5751
밌	-11.5752
얀	-11.5752
콧	-11.5754
소름끼치	-11.5755
깁니다	-11.5755
띵	-11.5757
윙	-11.5757
뎈	-11.5757
ᅧ	-11.5757
▁인피니트	-11.5757
공각기동대	-11.5757
뤽	-11.5757
붐	-11.5757
엥	-11.5757
^0^	-11.5757
’	-11.5757
▁로버츠	-11.5757
▁불러일으키	-11.5757
▁샤를리즈	-11.5757
▁스칼렛	-11.5757
▁아담샌들러	-11.5757
▁엠비씨	-11.5757
▁움직임	-11.5757
▁이스라엘	-11.5757
▁쫄깃	-11.5757
▁카타르시스	-11.5757
▁콜린퍼스	-11.5757
▁터무니없	-11.5757
▁히치콕	-11.5757
늠	-11.5757
쑈	-11.5757
웁	-11.5757
윗	-11.5757
융	-11.5757
피노키오	-11.5757
▁몸부림	-11.5757
▁뽀로로	-11.5757
▁월드컵	-11.5757
▁손오공	-11.5757
▁어울릴	-11.5757
▁여실히	-11.5757
▁김민준	-11.5757
▁초호화	-11.5757
ᆞ	-11.5757
▁보기드문	-11.5757
▁합리화	-11.5757
▁별론데	-11.5757
▁조금이나마	-11.5757
▁짜여진	-11.5757
▁장선우	-11.5757
▁정유미	-11.5757
▁정확한	-11.5757
▁핑계	-11.5757
▁멸망	-11.5757
▁9~10	-11.5757
|	-11.5757
▁무슨생각으로	-11.5757
▁깨끗하	-11.5757
▁오유에서	-11.5757
▁역겨웠	-11.5757
▁일관성	-11.5757
▁쪽바리	-11.5757
▁두려워	-11.5757
▁다케시	-11.5757
▁정사씬	-11.5757
▁추격씬	-11.5758
,.,.,.,.	-11.5758
▁추구하는	-11.5758
▁왔다갔다	-11.5758
▁크리스틴	-11.5758
▁하루하루	-11.5758
▁흠뻑	-11.5758
▁푹빠져	-11.5758
▁이리저리	-11.5759
이해안감	-11.5759
▁감사드립니다	-11.5759
읍니다	-11.5759
▁ᄉᄉ	-11.5759
▁익숙한	-11.5759
뜨거워	-11.576
▁사라지고	-11.576
▁사랑과전쟁	-11.576
▁담겨져	-11.576
▁바꿀	-11.5761
▁질질끌고	-11.5761
▁놀랄	-11.5762
▁새롭다	-11.5762
▁이겨내	-11.5762
▁영화관가서	-11.5762
▁볼까말까	-11.5762
▁제외하면	-11.5763
▁무뇌	-11.5763
▁코믹요소	-11.5763
▁놓칠	-11.5763
▁브금	-11.5764
▁고딩때	-11.5765
▁새로울	-11.5765
▁나았을	-11.5765
▁있었을텐데	-11.5765
▁멋졌다	-11.5765
▁목표	-11.5766
피어스	-11.5766
▁최강희	-11.5767
▁감싸	-11.5767
▁치명적	-11.5768
버렷	-11.5768
▁앞서간	-11.5768
▁똥칠	-11.5769
▁폭파	-11.577
▁모를까	-11.5771
///	-11.5771
▁망했는지	-11.5771
봐야되	-11.5771
▁반복되는	-11.5772
▁행운	-11.5773
▁에혀	-11.5774
▁조롱	-11.5774
▁안타깝지만	-11.5774
▁안무서움	-11.5775
▁뭐하러	-11.5775
▁남자친구	-11.5776
▁그런것	-11.5776
▁않았어요	-11.5777
▁형태	-11.5777
▁어필	-11.5777
▁들으면	-11.5779
▁의미하는	-11.578
▁생각해보면	-11.578
▁양키	-11.5781
▁케이스	-11.5781
▁그립네요	-11.5781
▁철없는	-11.5782
▁보석같은	-11.5783
▁공격	-11.5783
하구요	-11.5783
▁왕따	-11.5783
▁짧지만	-11.5783
▁계단	-11.5784
▁편안하게	-11.5785
▁산타	-11.5786
싶어진다	-11.5787
▁조악한	-11.5787
▁있기에	-11.5788
▁이게뭐야	-11.5788
▁작살	-11.5789
▁초등	-11.579
▁환영	-11.5792
▁그러니까	-11.5794
할께요	-11.5799
▁안됩니다	-11.58
▁지루했던	-11.5801
▁유행어	-11.5802
▁로그인하게	-11.5804
▁비참한	-11.5805
▁되겠다	-11.5805
▁이러냐	-11.5805
▁중심으로	-11.5806
▁떨어지지만	-11.5806
▁오덕	-11.5806
▁괜찮지만	-11.5807
▁신선했다	-11.5809
▁개연성없는	-11.5809
덕화	-11.5809
▁건달	-11.5809
▁감성적인	-11.5809
위주로	-11.581
어색한	-11.5811
▁관대	-11.5812
ell	-11.5813
▁갈릴	-11.5813
▁취미	-11.5814
▁잼남	-11.5814
ᄒᄃᄃ	-11.5815
▁들었는데	-11.5817
▁갑이다	-11.5817
▁퀴어영화	-11.5818
▁에바	-11.5818
▁있죠	-11.5819
▁스크린으로	-11.582
▁방황하는	-11.582
▁전달하고자	-11.5823
▁내취향은	-11.5824
▁책임감	-11.5825
▁처음봄	-11.5827
▁식상하고	-11.5832
▁잼있는데	-11.5832
▁고집	-11.5833
▁위안	-11.5838
▁있었네요	-11.5839
MB	-11.584
뿌려	-11.5841
▁쫓아	-11.5841
▁기념	-11.5842
▁무시하고	-11.5843
▁종말	-11.5843
▁애들용	-11.5846
▁집중하게	-11.5847
▁개짜증	-11.5847
르르	-11.5848
▁최고였음	-11.5853
필드	-11.5856
▁어렵게	-11.5858
▁진정으로	-11.5859
▁꽃보다	-11.5859
▁만들었다면	-11.5861
▁무방	-11.5861
▁놀라게	-11.5862
챙겨보	-11.5864
▁고생한	-11.5867
▁동원	-11.5868
▁신기하고	-11.5868
시각	-11.5869
▁모처럼	-11.587
▁대학교	-11.5872
▁엔딩까지	-11.5876
▁과제	-11.5881
거같고	-11.5885
▁쩔고	-11.5889
▁보시고	-11.5895
먹으면	-11.5896
▁심심할때	-11.5896
속편	-11.5897
▁된장	-11.5897
나올때마다	-11.5898
당시엔	-11.5902
▁고루	-11.5902
모드	-11.5911
▁그려내	-11.5912
났습니다	-11.5918
했구나	-11.5921
▁국내에서	-11.5923
▁높여	-11.5934
세월호	-11.5935
해본다	-11.5935
그렇다	-11.5938
답이없다	-11.5939
▁중간까지	-11.5941
▁소비	-11.5948
봣네요	-11.5951
▁댓글알바	-11.5953
했을듯	-11.5953
처녀	-11.5958
영환가	-11.5973
▁애쓴	-11.5979
헉	-11.598
▁변한	-11.5981
▁만들까	-11.5981
어릴적	-11.5982
펑펑	-11.5982
싸이코	-11.5983
견자단	-11.5983
아쉬움	-11.5983
2014	-11.5983
핵노잼	-11.5984
푹	-11.5984
충분히	-11.5984
귀여운	-11.5986
유덕화	-11.5986
아무것도	-11.5988
▁헬기	-11.599
특별	-11.5991
재밌었어요	-11.5992
▁바비	-11.5993
재밌었음	-11.5994
영혼	-11.5996
거기다	-11.5997
등장인물	-11.5997
흘러	-11.5998
첨엔	-11.6001
▁불쾌함	-11.6002
▁질주	-11.6002
어쩔	-11.6004
할아버지	-11.6005
흥미	-11.6007
▁좋아하던	-11.6012
비밀	-11.6017
어쩜	-11.6023
하지못한	-11.6027
▁생각하니	-11.6031
▁그것뿐	-11.6031
난뒤	-11.6036
안본다	-11.6045
89	-11.6046
▁안믿	-11.6058
최악이다	-11.6066
데리고	-11.6067
으므로	-11.6068
▁그러면서	-11.608
▁망했다	-11.6082
햇으면	-11.6088
▁벗어나지	-11.609
▁재밋네	-11.6091
▁한쪽	-11.6096
크리스	-11.6099
지루해서	-11.6101
▁무명	-11.6103
시키려	-11.6106
ba	-11.6107
하신분들	-11.6109
종류	-11.6115
▁동물들	-11.6118
출생	-11.6133
ᅲᅲᅲᅲᅲᅲᅲ	-11.6134
시청자	-11.6136
??????	-11.614
터지는	-11.6144
om	-11.6148
▁오그라	-11.6172
▁쓴거	-11.6176
▁영화사에	-11.6177
▁유치하지	-11.6185
버리면	-11.6188
▁망쳤	-11.6199
하고자하는	-11.6204
▁안되겠	-11.6206
▁찍으면	-11.6214
풀어	-11.6225
▁오랫만	-11.6226
▁그곳	-11.6227
▁근대	-11.6241
▁조카들	-11.6256
사회에서	-11.6262
펀	-11.6266
▁과대평가	-11.6278
캔	-11.6283
첼	-11.6283
툭	-11.6283
겸	-11.6283
▁떠올랐	-11.6283
‘	-11.6283
“	-11.6283
▁데스노트	-11.6283
▁롱테이크	-11.6283
▁맙소사	-11.6283
▁버금가는	-11.6283
▁봤는대	-11.6283
▁쌈마이	-11.6283
▁애틋한	-11.6283
▁여고괴담	-11.6283
▁역겨움	-11.6283
▁윌스미스	-11.6283
겜	-11.6283
낰	-11.6283
슌	-11.6283
썅	-11.6283
툰	-11.6283
ᄋᄉᄋ	-11.6283
▁봉태규	-11.6283
▁죄책감	-11.6283
갤	-11.6283
깽	-11.6283
꿉	-11.6283
쌔	-11.6283
▁담백한	-11.6283
▁마모루	-11.6283
▁어울림	-11.6283
▁박정희	-11.6283
▁캐서린	-11.6283
▁킬빌	-11.6283
▁압축	-11.6283
▁미묘한	-11.6283
▁미션임파서블	-11.6283
▁수고하셨습니다	-11.6283
▁꼽히는	-11.6283
▁풍부한	-11.6283
▁그이하도	-11.6283
▁리부트	-11.6283
▁소소하게	-11.6283
▁김규리	-11.6283
▁서세원	-11.6283
▁빵터졌	-11.6283
▁지독한	-11.6283
▁여고생	-11.6284
▁밉상	-11.6284
▁짝사랑	-11.6284
▁통틀어	-11.6284
▁타이밍	-11.6284
▁하여금	-11.6284
▁테스트	-11.6284
패밀리	-11.6284
▁그럴듯한	-11.6284
▁키드먼	-11.6284
▁기가막히	-11.6284
▁견디	-11.6284
▁위대하다	-11.6284
▁잉여	-11.6285
▁ᄉᄀ	-11.6285
▁웃음코드	-11.6285
▁손꼽	-11.6286
▁올만에	-11.6286
▁역겹고	-11.6286
▁나올법한	-11.6286
▁은은한	-11.6286
▁누굴	-11.6286
주진모	-11.6287
▁나도모르게	-11.6287
▁기분나쁜	-11.6287
▁헛소리	-11.6287
▁대기업	-11.6288
▁토할뻔	-11.6288
▁초한지	-11.6288
▁안가네	-11.6288
▁순간순간	-11.6289
▁빠르고	-11.629
▁상당	-11.629
▁일일드라마	-11.629
▁잼있었음	-11.6291
▁두뇌	-11.6291
▁미화시킨	-11.6291
▁구석이	-11.6291
▁홀로	-11.6292
▁우울증	-11.6292
▁찍었을까	-11.6292
▁흠잡을데	-11.6292
▁녹아있는	-11.6292
▁몇안되는	-11.6293
▁궁금증	-11.6295
▁애쓰는	-11.6295
▁마스터	-11.6296
▁살아간다	-11.6296
▁개망작	-11.6299
범벅	-11.6299
▁종종	-11.6299
▁따듯한	-11.63
▁세번째	-11.63
▁아니더라도	-11.63
▁재벌	-11.63
▁있도록	-11.6301
▁아쉽습니다	-11.6302
▁사람들에겐	-11.6303
▁이기적	-11.6303
▁명예	-11.6304
▁축하	-11.6304
▁모르겠습니다	-11.6304
▁못알아	-11.6305
▁궁금하네요	-11.6305
▁타입	-11.6305
▁연기실력	-11.6306
깔깔	-11.6306
▁영구와	-11.6307
▁국제	-11.6307
아프네요	-11.6309
▁기술력	-11.631
▁마련	-11.6311
▁들었어요	-11.6312
▁생생하다	-11.6314
▁비슷해서	-11.6314
놓았다	-11.6314
▁미련	-11.6316
▁한마리	-11.6316
▁느껴지네요	-11.632
▁짜증날	-11.6321
▁건질게	-11.6322
▁결혼식	-11.6322
인줄알고	-11.6324
▁이건아니다	-11.6326
▁숨어있는	-11.6326
▁싶었음	-11.6326
▁조금이라도	-11.6327
▁평작	-11.6327
돌릴	-11.6328
▁나아가	-11.6328
케이온	-11.6331
▁두가지	-11.6335
▁위선	-11.6338
▁하나만으로도	-11.6338
▁나오길	-11.6338
▁들었음	-11.6339
▁잼있네	-11.6341
▁그런대로	-11.6342
해주면	-11.6343
▁전투신	-11.6344
▁좋았네요	-11.6344
▁충실하	-11.6346
▁귀엽네요	-11.6347
▁기대됨	-11.6347
▁하고싶	-11.6347
67	-11.6348
▁힘들듯	-11.6351
▁호화	-11.6352
▁여전사	-11.6353
울때	-11.6355
▁강력한	-11.6356
▁생각된다	-11.6357
하나도없	-11.6357
▁후회한다	-11.6359
▁배제	-11.6361
▁맞는듯	-11.6361
▁그러니	-11.6361
▁위치	-11.6361
▁흥미진진하게	-11.6362
해야할듯	-11.6363
▁어이없게	-11.6364
▁섬세함	-11.6366
▁어이없어	-11.6367
▁홍수	-11.6368
▁여성들	-11.6368
▁또다시	-11.6368
▁그려진	-11.6369
▁아픔과	-11.6369
▁챙겨보는	-11.637
▁개명작	-11.6371
▁느려	-11.6371
▁비디오용	-11.6371
▁누구냐	-11.6371
▁붙잡	-11.6374
▁급하게	-11.6376
▁알차	-11.6376
▁라스트씬	-11.6376
▁연예인들	-11.6379
▁수십번	-11.638
1980	-11.6381
▁오랜만이네	-11.6382
▁기반	-11.6385
▁자식들	-11.6389
싶었는데	-11.6396
▁알았네요	-11.6396
▁남습니다	-11.6398
▁침대	-11.6399
▁바뀌었	-11.64
▁찍어서	-11.64
▁에스	-11.6409
▁보여줘야	-11.6414
▁문명	-11.6416
▁영화한편	-11.6425
잘만든	-11.6425
▁기계	-11.6437
▁인내	-11.6438
▁궁금함	-11.6448
▁올려주	-11.6455
되었는지	-11.647
울었다	-11.6472
▁되어버렸	-11.649
▁보아야	-11.6514
ive	-11.6515
옆	-11.6523
▁낮은듯	-11.6531
장진영	-11.6532
였을까	-11.6533
맡	-11.6535
흥미진진	-11.6536
및	-11.6537
초등학교	-11.6538
새벽	-11.6538
바꿔	-11.6539
뭥미	-11.6539
어렸을때	-11.6539
전형적인	-11.6539
본방사수	-11.654
상당히	-11.654
good	-11.654
도저히	-11.654
보지마셈	-11.6542
나머지	-11.6545
모험	-11.6549
하지말자	-11.6552
킬링타임용으로	-11.6556
▁루즈하	-11.6559
역사상	-11.6559
부모님	-11.6562
남긴다	-11.6565
부탁	-11.6565
돈아까워	-11.6566
반복	-11.6567
않을까	-11.6571
연습	-11.6571
ay	-11.6586
지말아야	-11.6586
재밋어	-11.659
▁즐길수	-11.6592
방금	-11.6596
007	-11.6598
맘에들	-11.6601
남자주인공	-11.6603
▁짱짱짱	-11.6618
리들리	-11.6619
▁빛났	-11.662
이래서	-11.6628
▁교육용	-11.663
하도록	-11.6642
▁되고싶	-11.6649
▁죽어야	-11.665
이미지	-11.6659
짝짝	-11.6668
와함께	-11.6671
투자자	-11.6689
겠구나	-11.6691
▁치밀어	-11.6691
타카	-11.6696
잼씀	-11.6705
▁싸워	-11.6705
▁아까울정도	-11.6705
▁sm	-11.6709
▁끝부분	-11.6709
to	-11.6715
▁엔딩장면	-11.6718
▁바랄	-11.6721
▁추적	-11.6721
est	-11.6723
잼있음	-11.6731
없을정도로	-11.6733
못보겠	-11.6759
▁공감하기	-11.6766
ia	-11.6767
지도않은	-11.6778
웃었네	-11.6778
뛰어	-11.6778
졸려	-11.6793
템	-11.6796
해놓	-11.6798
쓰는거	-11.6801
라는것을	-11.6807
▁떠올리	-11.6808
복제	-11.6816
▁유치할	-11.6819
떤	-11.682
연속	-11.6822
▁소방관	-11.6831
칫	-11.6835
꿨	-11.6837
옵	-11.6838
뎀	-11.6838
늑	-11.6838
솟	-11.6839
찜	-11.6839
떳	-11.6839
뎌	-11.6839
▁유튜브	-11.6839
▁류승룡	-11.6839
▁막무가내	-11.6839
▁머리카락	-11.6839
▁멀쩡한	-11.6839
▁봤건만	-11.6839
▁봤으나	-11.6839
▁시퀀스	-11.6839
꾀	-11.6839
돕	-11.6839
빔	-11.6839
쁠	-11.6839
웹	-11.6839
짚	-11.6839
짭	-11.6839
▁그로테스크	-11.6839
▁밍밍	-11.6839
넨	-11.6839
햄	-11.6839
▁this	-11.6839
▁경쾌한	-11.6839
▁스포일러	-11.6839
▁케서방	-11.6839
얔	-11.6839
쿵푸팬더	-11.6839
▁썰렁	-11.6839
▁이슬람	-11.6839
▁브로디	-11.6839
▁안남기는데	-11.6839
▁어우러져	-11.6839
▁철저한	-11.6839
▁불멸의	-11.6839
▁기대했건만	-11.6839
▁무관심	-11.6839
▁유준상	-11.6839
▁무작정	-11.6839
▁하이라이트	-11.6839
▁돈아깝고	-11.6839
▁뜬금포	-11.6839
▁울트라	-11.6839
▁저지른	-11.6839
▁싼티	-11.6839
▁무한도전	-11.6839
▁비둘기	-11.6839
>_<	-11.6839
▁하야오	-11.6839
▁고릴라	-11.6839
▁안무섭고	-11.6839
▁하모니	-11.6839
캡틴	-11.6839
▁김보성	-11.6839
▁이수근	-11.6839
▁미개한	-11.684
▁좌좀	-11.684
▁밀려온다	-11.684
▁끼워넣	-11.684
▁하여간	-11.684
▁주옥같은	-11.684
▁촌스러움	-11.684
▁며칠	-11.684
▁침략	-11.684
▁수식어	-11.684
▁감명깊은	-11.6841
▁충족	-11.6841
▁6.5	-11.6841
log	-11.6841
▁Best	-11.6841
▁완존	-11.6841
▁쇼킹	-11.6842
▁괜찬은	-11.6842
▁흘릴	-11.6842
▁자전거	-11.6842
▁우주전쟁	-11.6842
▁눈물샘	-11.6842
보는편인데	-11.6842
같으면서도	-11.6842
▁아쉬울뿐	-11.6842
▁볼가치	-11.6842
▁필립	-11.6843
▁솔로	-11.6843
소린지	-11.6843
▁종북	-11.6843
▁무개념	-11.6844
▁4000	-11.6844
▁풋풋함	-11.6844
사토시	-11.6844
▁흑형	-11.6844
▁물고기	-11.6844
춘향	-11.6844
▁원초적	-11.6844
▁기다린	-11.6845
▁한몫	-11.6845
▁변함없	-11.6845
▁동화책	-11.6846
▁결투	-11.6846
▁탈락	-11.6846
▁판치는	-11.6847
▁빠져들었다	-11.6847
▁중학생때	-11.6847
▁그렇다치고	-11.6847
▁청순	-11.6847
▁닿지	-11.6848
▁죄악	-11.6848
▁2007	-11.6849
▁...............	-11.685
▁때로는	-11.685
▁이제그만	-11.6851
▁생각됩니다	-11.6852
탐험	-11.6852
▁건축	-11.6852
살짜리	-11.6852
▁기대되네요	-11.6854
▁명절	-11.6854
▁인상적이었다	-11.6854
해주셔서	-11.6854
▁물결	-11.6855
▁어쩔수없이	-11.6855
▁이제껏	-11.6856
▁개성있는	-11.6856
▁몇년전에	-11.6856
▁박힌	-11.6856
▁담백하게	-11.6858
▁사랑스러움	-11.6858
으니깐	-11.6858
▁지닌	-11.686
▁나오길래	-11.686
▁유치하긴	-11.6861
됬으면	-11.6861
▁마술	-11.6861
세력	-11.6862
▁욕설	-11.6863
▁시민들	-11.6863
▁기발하고	-11.6863
▁7~8	-11.6864
▁동생이랑	-11.6864
▁개졸작	-11.6864
▁확실하게	-11.6865
▁무서웠음	-11.6865
▁로즈	-11.6865
▁무튼	-11.6866
▁키스신	-11.6866
▁독재	-11.6866
▁만점짜리	-11.6866
▁안나왔으면	-11.6867
▁매력적임	-11.6867
▁미숙	-11.6868
▁명작중의	-11.6868
▁연령	-11.6868
▁어마어마한	-11.6869
▁모범	-11.6869
▁조악	-11.687
햇어요	-11.687
▁갈리는	-11.6871
▁기대하고봤는데	-11.6872
▁알고싶다	-11.6872
▁티비판	-11.6872
▁잠재	-11.6874
▁다있냐	-11.6877
▁왜이러지	-11.6877
▁말하려고	-11.688
▁시작된다	-11.688
▁헷갈리	-11.6883
▁알려지지	-11.6885
인칭	-11.6886
▁거친	-11.6888
▁생길	-11.6888
▁안보길	-11.6888
▁넣어서	-11.689
▁시계	-11.6891
관념	-11.6893
CF	-11.6895
▁높음	-11.6895
▁무섭기	-11.6895
▁지루하진	-11.6896
스릴있	-11.6897
폴리스	-11.6899
▁별로였던	-11.6902
▁공간에서	-11.6902
쓸때	-11.6904
▁후회합니다	-11.6905
▁어색해서	-11.6906
▁두번이나	-11.6906
▁제목처럼	-11.691
▁감동이에요	-11.691
▁관우	-11.6912
▁니미	-11.6912
일만에	-11.6912
▁구림	-11.6912
▁서른	-11.6913
됐네요	-11.6913
▁재밋던데	-11.6915
▁마니아	-11.6923
▁저격	-11.6925
를위해	-11.693
▁입가에	-11.6931
▁안되냐	-11.6934
▁시대상	-11.6936
▁무시하는	-11.6939
손가락안에	-11.6944
궁금하	-11.6944
▁파격적인	-11.6945
듣기싫	-11.6946
가슴찡	-11.6948
▁덮어	-11.6949
▁짜릿함	-11.695
▁196	-11.6965
돋네	-11.6967
좋겠어요	-11.6972
됐으면	-11.6976
▁뒷부분	-11.6976
▁모양이	-11.6981
받을만한	-11.6985
일텐데	-11.6987
해달라	-11.6989
앗습니다	-11.699
▁시간때우기용	-11.6991
릇	-11.6991
▁요원	-11.7005
▁높았	-11.7005
▁보시라	-11.7009
▁똑같아	-11.7012
▁강요하는	-11.7017
▁되돌아보게	-11.7018
보게된	-11.702
마법사	-11.7023
▁징그럽	-11.7033
▁나왔었	-11.7034
환희	-11.7037
▁지켜보	-11.705
▁대표적	-11.7069
▁웃긴데	-11.7077
▁만들지마	-11.7078
▁어의없	-11.7083
▁즐기기	-11.7087
▁지나치	-11.709
▁행복했다	-11.7106
▁긴장되	-11.7106
▁엮어	-11.7108
줄려고	-11.7108
▁부족했다	-11.7111
번이상	-11.7113
▁자신감	-11.7115
▁스펙타클	-11.7116
▁푸하하	-11.712
아카데미	-11.7123
▁웃기면서	-11.7125
떨어져	-11.7126
기독교	-11.7126
김기덕	-11.7127
아쉬운	-11.7127
섹시	-11.7127
사투리	-11.7127
--;;	-11.7127
독특한	-11.7127
아닐까	-11.7128
▁힘드네	-11.7128
스크린	-11.7128
청소년	-11.7129
볼수록	-11.7129
재밌게봤어요	-11.7129
잔인한	-11.713
쵝오	-11.713
정신병	-11.7134
벌써	-11.7134
허술	-11.7135
태어나서	-11.7135
궁금해	-11.714
민족	-11.7142
넘넘	-11.7151
동영상	-11.7155
▁가슴속에	-11.716
여기서	-11.7164
배경음악	-11.7165
라이언	-11.7167
조합	-11.7167
2000	-11.7167
볼만함	-11.7168
취급	-11.7168
딱히	-11.7169
외모	-11.7169
분량	-11.717
낚시	-11.7176
▁안타까울	-11.7235
공포물	-11.7239
mi	-11.7244
48	-11.7246
어쩔수없	-11.726
▁마지막부분	-11.7264
▁긴박	-11.7266
▁첨보네	-11.727
할것이다	-11.7271
잇어서	-11.7294
줄아나	-11.7299
않았지만	-11.7302
▁스님	-11.7303
▁감정연기	-11.7309
▁여명	-11.7323
너무좋아요	-11.7324
재희	-11.7338
▁똥망	-11.7341
▁출연자들	-11.7349
경험	-11.7352
▁중요하지	-11.7353
▁여러분들	-11.7358
▁소중함	-11.7365
▁글쓰	-11.7371
팝	-11.7386
쟁이들	-11.739
▁징징	-11.7399
볼려	-11.74
Go	-11.7408
▁진행되	-11.7412
▁답습	-11.7414
▁외계	-11.7415
죽이고싶	-11.7421
맴	-11.7425
어지럽	-11.7427
뿐만아니라	-11.7427
권선징악	-11.7427
젬	-11.7427
캣	-11.7427
Q	-11.7427
▁GOOD	-11.7427
▁ᄊᄅᄀ	-11.7427
▁결승전	-11.7427
▁기막힌	-11.7427
▁김옥빈	-11.7427
▁꼽으라면	-11.7427
▁떨어뜨리	-11.7427
▁마스터피스	-11.7427
▁사이코패스	-11.7427
▁싱크로율	-11.7427
▁쒸레기	-11.7427
▁어울렸	-11.7427
▁어쨋든	-11.7427
▁에반게리온	-11.7427
▁울부짖	-11.7427
乃	-11.7427
甲	-11.7427
꺅	-11.7427
무미건조	-11.7427
빽	-11.7427
샬	-11.7427
읎	-11.7427
쟤	-11.7427
캅	-11.7427
퉷	-11.7427
→	-11.7427
▁김창완	-11.7427
▁대리만족	-11.7427
▁매혹적인	-11.7427
▁발버둥	-11.7427
▁훌쩍	-11.7427
꺽	-11.7427
뇬	-11.7427
박스오피스	-11.7427
숴	-11.7427
욘	-11.7427
웡	-11.7427
▁견뎌	-11.7427
▁밑도끝도	-11.7427
댜	-11.7427
멕	-11.7427
▁박유천	-11.7427
▁강우석	-11.7427
▁차인표	-11.7427
▁성시경	-11.7427
▁모니카	-11.7427
▁민간인	-11.7427
무삭제판	-11.7427
▁김소연	-11.7427
봉준호	-11.7427
블러드	-11.7427
▁극대화	-11.7427
▁눈부신	-11.7427
▁팬심으로	-11.7427
입니당	-11.7427
오글거린다	-11.7427
▁지못미	-11.7427
▁삼국지	-11.7427
▁하여튼	-11.7427
▁이자벨	-11.7427
▁추격전	-11.7427
▁숀펜	-11.7427
▁주제의식	-11.7427
what	-11.7427
▁모호한	-11.7427
▁특색	-11.7427
▁브라이언	-11.7428
▁프리퀄	-11.7428
▁스무살	-11.7428
박시환	-11.7428
라운드	-11.7428
▁롯데	-11.7428
~~~~~~~~~~~~~~~~	-11.7428
▁발차기	-11.7428
드럽다	-11.7428
▁곤란	-11.7428
릅니다	-11.7428
경각심	-11.7428
▁가문의	-11.7428
▁어쩌구	-11.7428
▁짙은	-11.7428
▁쿡티비	-11.7429
▁올바른	-11.7429
▁무성영화	-11.7429
▁마디로	-11.7429
▁된장녀	-11.7429
▁도가니	-11.7429
▁인디언	-11.7429
▁낯설	-11.7429
▁not	-11.7429
▁침몰	-11.743
중고딩	-11.743
▁부끄럽다	-11.743
▁국뽕	-11.743
,,,,,,,,,,,	-11.743
▁축복	-11.743
▁빠르기	-11.743
용감한	-11.743
▁시어머니	-11.7431
▁늘어지고	-11.7431
▁1~2	-11.7431
▁슬플	-11.7432
▁메이저	-11.7432
▁찐한	-11.7432
▁정확하	-11.7432
▁구지성	-11.7433
▁감정표현	-11.7433
▁봐야겠어요	-11.7433
도서관	-11.7434
▁나이먹고	-11.7434
▁휴먼	-11.7435
▁표출	-11.7435
▁중간쯤	-11.7435
▁버튼	-11.7435
▁늑대인간	-11.7436
▁명량	-11.7436
▁수준낮은	-11.7436
▁맞먹는	-11.7436
▁밀려오는	-11.7436
당위성	-11.7436
▁5~6	-11.7436
▁비현실적이고	-11.7437
▁It	-11.7437
▁똥싸	-11.7437
▁정신병원	-11.7438
▁범작	-11.7438
목숨	-11.7438
▁재밌긴한데	-11.7438
핑크	-11.7439
▁전반부	-11.7439
▁이질감	-11.7439
▁원한다면	-11.7439
▁풍기는	-11.744
▁오래도록	-11.744
멘토	-11.744
▁마이크	-11.744
▁생각해본다	-11.744
▁발암	-11.7441
유태인	-11.7441
▁실화라서	-11.7441
▁교양	-11.7441
▁볼수있어서	-11.7442
▁인위적	-11.7442
????????????????	-11.7443
▁주셔서	-11.7443
▁기대안하고봤는데	-11.7443
▁개쩔	-11.7443
▁재미없었어요	-11.7444
▁끔찍하다	-11.7445
▁슬펐던	-11.7445
▁저럴	-11.7445
▁보여줬는데	-11.7445
▁망침	-11.7446
▁간단하	-11.7446
▁돈들여	-11.7446
▁추석	-11.7446
▁억지웃음	-11.7446
▁본것중	-11.7447
▁기본적으로	-11.7447
▁저딴	-11.7448
▁그리움	-11.7448
▁은행	-11.7448
////	-11.7448
▁괜히봤다	-11.7449
▁허각	-11.7451
▁싱크	-11.7452
▁산만하다	-11.7452
▁생각났다	-11.7452
티켓	-11.7453
▁아름답네요	-11.7455
작년에	-11.7455
▁자리를	-11.7456
▁무엇일까	-11.7457
▁소련	-11.7457
▁안좋아하는데	-11.7457
▁사라지는	-11.7457
▁애환	-11.7458
▁반가웠	-11.7459
▁말장난	-11.7459
▁조쉬	-11.746
▁사골	-11.746
▁대립	-11.7461
▁시시하다	-11.7461
▁들었습니다	-11.7462
▁깊이있는	-11.7462
메이드	-11.7464
▁이기심	-11.7464
▁괜찮아요	-11.7465
▁만들어놓고	-11.7465
▁떨어져서	-11.7465
▁기본적인	-11.7466
▁비오는	-11.7466
▁재밌구만	-11.7467
▁좋겠음	-11.7468
▁(10	-11.7469
▁발악	-11.747
▁못만드는	-11.747
▁일깨워준	-11.747
▁걸릴	-11.747
▁해주네요	-11.7473
▁죽어가는	-11.7474
갑시다	-11.7474
▁말던가	-11.7475
▁교훈적인	-11.7476
▁모아서	-11.7477
▁월화	-11.748
▁천재적인	-11.748
▁섹시하다	-11.7482
▁찾아봤는데	-11.7483
▁들었던	-11.7486
▁없군요	-11.7489
▁편히	-11.749
▁들어온	-11.7494
▁도배	-11.7496
▁설치	-11.7497
▁보기싫어	-11.7498
보여줘서	-11.75
끝난	-11.7501
▁볼수없는	-11.7508
▁선사하는	-11.7511
▁되어버린	-11.7522
소녀시대	-11.7523
관심없	-11.7527
달려	-11.753
▁우롱하는	-11.7538
▁루시	-11.756
▁직전	-11.7567
인물들	-11.7574
▁눈빛연기	-11.7577
님께서	-11.7579
하기위해	-11.758
▁늘어놓	-11.7583
그랬어요	-11.7586
▁내마음	-11.759
▁오버연기	-11.7594
▁바라본	-11.7608
▁열번	-11.7609
무섭지도	-11.7617
▁평범하지	-11.7642
▁키드	-11.7659
▁극장판중	-11.766
▁있으신	-11.7666
▁담으려	-11.7682
부르고	-11.7682
잼있었	-11.7691
▁붙어	-11.7697
▁담았	-11.7698
▁끌어내	-11.7704
싶었던	-11.7704
킬링타임용	-11.7736
말아야할	-11.7738
▁엿볼	-11.7741
낯	-11.7746
손가락	-11.7749
헬	-11.775
훨	-11.7751
클레멘타인	-11.7751
컨셉	-11.7752
포르노	-11.7752
재미있었어요	-11.7752
느낄수	-11.7752
디즈니	-11.7752
마이클	-11.7753
맞춰	-11.7753
메시지	-11.7754
모르겠음	-11.7754
좋겠네요	-11.7757
첫사랑	-11.7757
공룡	-11.7758
아픔	-11.7759
폭발	-11.7763
재밌게봤다	-11.7765
다시한번	-11.7766
많아서	-11.7775
▁빠순이	-11.7781
욕망	-11.7784
무술	-11.7787
;;;;;;;;;	-11.7812
을꺼같	-11.7839
욬	-11.784
무서웠던	-11.7841
돈내고	-11.7844
봐야겠다	-11.7844
▁원작만화	-11.7853
보신분	-11.7858
할거면	-11.787
살다살다	-11.7903
▁주제곡	-11.7908
-_-;;;	-11.7909
지말길	-11.7912
▁섬세	-11.7912
하진않	-11.7915
▁싸울	-11.7924
보시면	-11.7933
▁웃을수	-11.7935
생기면	-11.7941
올릴	-11.796
▁어색해	-11.7967
좋아하는사람	-11.7968
▁해피엔딩이라	-11.7975
▁나이들어	-11.7978
싶었지만	-11.7983
▁별반개	-11.7989
보고싶네요	-11.7993
점준것중	-11.7994
▁헷갈	-11.8003
않아요	-11.8007
▁어마어마	-11.8018
가족이랑	-11.802
▁느껴진	-11.8024
어울리는	-11.8029
ast	-11.8035
뿔	-11.8039
▁설득	-11.8048
륙	-11.8048
둠	-11.8049
웩	-11.805
짙	-11.805
까말까	-11.805
씁	-11.805
덥	-11.8051
뻘	-11.8052
뺐	-11.8052
▁sbs	-11.8052
귄	-11.8052
쾅	-11.8052
”	-11.8052
▁bgm	-11.8052
▁곽지민	-11.8052
▁드라큐라	-11.8052
▁드릅게	-11.8052
▁모자이크	-11.8052
▁샌들러	-11.8052
▁스나입스	-11.8052
▁아니올시다	-11.8052
▁업그레이드	-11.8052
▁윌리엄스	-11.8052
▁존쿠삭	-11.8052
▁킹왕짱	-11.8052
걔	-11.8052
게리올드만	-11.8052
댁	-11.8052
밀라요보비치	-11.8052
뵈	-11.8052
좃	-11.8052
킷	-11.8052
▁꾸준히	-11.8052
▁끝냈어야	-11.8052
▁로멘스	-11.8052
▁보게됐는데	-11.8052
▁어쩐지	-11.8052
▁에니메이션	-11.8052
▁지날수록	-11.8052
▁클로즈업	-11.8052
▁톰하디	-11.8052
♬	-11.8052
돠	-11.8052
챔피언	-11.8052
▁열린결말	-11.8052
성폭행	-11.8052
▁김민희	-11.8052
▁베드씬	-11.8052
▁서커스	-11.8052
▁초월하는	-11.8052
▁총격전	-11.8052
▁강예원	-11.8052
▁유부녀	-11.8052
▁포커스	-11.8052
쉘	-11.8052
▁티라노	-11.8052
▁파치노	-11.8052
▁잊혀지질	-11.8052
▁ᄆᄎ	-11.8052
▁나쁘게	-11.8052
썸띵	-11.8052
▁야쿠자	-11.8052
으으으	-11.8052
▁억압	-11.8052
▁왠만해서	-11.8052
▁평점조절위원회	-11.8052
▁간단한	-11.8052
▁스마트폰	-11.8052
▁나뿐인가	-11.8052
▁심금을	-11.8052
▁송중기	-11.8052
김주혁	-11.8052
▁초월한	-11.8052
▁민주화	-11.8052
▁갇혀	-11.8052
▁한니발	-11.8053
▁김아중	-11.8053
▁케로로	-11.8053
▁서유기	-11.8053
▁김수미	-11.8053
▁인디아나	-11.8053
▁좁은	-11.8053
▁따스한	-11.8053
▁브라질	-11.8053
▁부조리	-11.8053
▁이정현	-11.8053
▁훔쳐	-11.8053
▁시간가는줄모르고	-11.8053
:-)	-11.8053
홍경인	-11.8053
▁아까웠음	-11.8053
오션스	-11.8053
▁올라갈때	-11.8053
▁안주는데	-11.8054
▁이럴거면	-11.8054
▁패륜	-11.8054
▁명확하	-11.8054
▁유머코드	-11.8054
의극치	-11.8054
▁직쏘	-11.8054
▁가르침	-11.8054
▁얘네	-11.8054
▁우웩	-11.8054
▁헌신	-11.8054
혈압	-11.8055
▁겹쳐	-11.8055
▁뮤비	-11.8055
▁제주도	-11.8055
▁모아놓고	-11.8055
▁위협	-11.8055
▁같았어요	-11.8055
▁빡침	-11.8055
▁눈물흘리	-11.8055
▁완결	-11.8056
▁종류의	-11.8056
▁테마	-11.8056
▁내생의	-11.8056
▁옳은	-11.8056
▁폐지해라	-11.8057
▁바둑	-11.8057
장백지	-11.8057
▁혼합	-11.8057
▁정신상태	-11.8057
▁속시원	-11.8057
▁휴먼드라마	-11.8057
바퀴	-11.8058
코리아	-11.8058
▁총싸움	-11.8058
▁감안해도	-11.8058
▁워스트	-11.8058
▁제이미	-11.8058
▁실상을	-11.8058
▁전달하려는	-11.8058
▁자신만의	-11.8058
▁꺼버린	-11.8059
▁복귀	-11.8059
▁공포스럽지	-11.806
▁으휴	-11.806
▁뭐하자는건지	-11.806
마돈나	-11.806
▁안타깝습니다	-11.8061
▁비춰	-11.8061
▁섬세하게	-11.8062
▁홀리	-11.8062
플러스	-11.8062
▁기대되요	-11.8063
▁교훈적이	-11.8063
▁말해준다	-11.8064
▁끊기는	-11.8064
능청	-11.8064
▁인내력	-11.8064
▁재구성	-11.8064
▁무능력	-11.8065
▁넘쳐나는	-11.8065
▁이해안됨	-11.8065
▁대다수	-11.8066
▁질린다	-11.8066
▁니슨	-11.8066
▁권투	-11.8067
▁몸짓	-11.8067
▁명언	-11.8067
▁느껴져서	-11.8067
▁우월	-11.8068
▁소유진	-11.8069
▁처절하게	-11.8069
▁주조연	-11.8069
▁감상평	-11.807
▁르네	-11.807
▁매료	-11.807
▁루크	-11.807
▁노골적으로	-11.8071
▁막힌	-11.8071
▁한두번	-11.8071
속터져	-11.8072
펀치	-11.8072
▁비교된다	-11.8073
▁질리지않는	-11.8073
▁현대판	-11.8073
▁실천	-11.8074
▁나았습니다	-11.8074
▁순수했던	-11.8075
▁봐야될	-11.8076
▁여느	-11.8076
▁쓰세요	-11.8078
▁죄없는	-11.8078
▁아니자나	-11.8078
▁웨스	-11.8079
▁좋았을걸	-11.8082
▁갈망	-11.8082
▁봤던건데	-11.8083
▁처음이자	-11.8084
▁알려진	-11.8084
▁징징대	-11.8084
▁사랑얘기	-11.8085
▁상승	-11.8086
▁레즈	-11.8086
▁식당	-11.8087
▁만들어버린	-11.8087
어딜봐서	-11.8087
▁보여지는	-11.8087
▁느낄수있는	-11.8087
▁괴상	-11.8087
▁만행	-11.8087
▁안가네요	-11.8088
▁막막	-11.8088
였죠	-11.8088
▁심심하다	-11.8089
▁불교	-11.8089
▁바치는	-11.8089
▁다섯개	-11.8092
▁파격	-11.8092
▁이해되지	-11.8093
▁싫어하는데	-11.8093
▁아련하다	-11.8095
▁돌아갈	-11.8097
▁다음엔	-11.8098
▁지킬	-11.8098
영애씨	-11.81
일줄은	-11.8104
▁동성애자	-11.8118
▁봣던	-11.8119
떡칠	-11.8122
▁재밌으면	-11.8122
▁봤어야	-11.8127
▁몰입할수	-11.8132
지마셈	-11.8135
있는척	-11.8135
▁전투장면	-11.814
▁전문가평점	-11.8148
잘만들었	-11.8149
▁꼬집	-11.8154
▁풀어나가	-11.8162
마스크	-11.8169
▁9.5	-11.8179
▁주어진	-11.8179
안되나요	-11.8184
밥맛	-11.8186
▁자체만으로	-11.8187
▁백번	-11.8189
▁왜이러	-11.8189
▁괜찮을듯	-11.8198
싫은데	-11.8226
▁경력	-11.823
♡♡♡	-11.8235
봣으면	-11.8238
▁따라하기	-11.8242
▁애써	-11.8247
아프다	-11.8254
하셧	-11.8267
욬ᄏᄏᄏ	-11.8268
▁자아내	-11.8272
봐야하나	-11.8284
▁나오겠지	-11.8314
if	-11.8335
나쁘지않	-11.8343
▁가고싶	-11.8357
▁과하지	-11.8373
보고나니	-11.8378
밝혀지	-11.8392
▁빠져있	-11.8404
▁프레	-11.8405
해피엔딩	-11.8414
즉	-11.8416
성유리	-11.8416
뺏	-11.8416
미스테리	-11.8417
원숭이	-11.8417
스타뎀	-11.8417
곧	-11.8418
이뻐서	-11.8418
패러디	-11.8418
시트콤	-11.8419
클라라	-11.8419
만드냐	-11.842
일주일	-11.842
예뻐	-11.8422
쓰렉	-11.8422
어린시절	-11.8423
스트레스	-11.8423
상영관	-11.8423
볼거리	-11.8426
재미있네요	-11.8426
밴드	-11.8428
재미있습니다	-11.8428
젠장	-11.8428
▁고등학교때	-11.8428
옵니다	-11.8428
그다지	-11.8434
구멍	-11.8434
조폭	-11.8436
100%	-11.8436
따름	-11.8441
유럽	-11.8449
혁명	-11.846
겟어요	-11.8472
다큐멘터리	-11.8473
▁몰입하기	-11.8496
볼게없	-11.856
▁몽환적	-11.8577
▁좋아졌	-11.8584
▁남겼	-11.8598
됐던	-11.8604
▁잠들어	-11.8629
ks	-11.8651
▁느껴보	-11.8663
쩐	-11.8664
▁sa	-11.8665
픔	-11.8686
▁묵직	-11.8688
덧	-11.869
▁해야되	-11.8694
▁따져	-11.8696
▁노골적	-11.8702
▁지루하긴	-11.8703
▁라디오	-11.8707
▁살아가고	-11.8709
죽는줄알았다	-11.8709
꿔	-11.8713
펼	-11.8714
▁영화볼줄	-11.8716
쥐어짜	-11.8717
튜	-11.8717
ight	-11.8719
힙	-11.8719
▁긴급조치	-11.8719
=_=	-11.8719
zzz	-11.8719
▁가물가물	-11.8719
▁교통사고	-11.8719
▁꼬박꼬박	-11.8719
▁꾸역꾸역	-11.8719
▁멤버들	-11.8719
▁베토벤	-11.8719
▁성지순례	-11.8719
▁스펙터클	-11.8719
▁액티비티	-11.8719
▁얄팍한	-11.8719
▁어줍잖은	-11.8719
▁워싱턴	-11.8719
▁제멋대로	-11.8719
▁짜맞춘	-11.8719
▁코스트너	-11.8719
▁트라우마	-11.8719
▁흔해빠진	-11.8719
뤠	-11.8719
뭍	-11.8719
퀘	-11.8719
히스레저	-11.8719
boring	-11.8719
▁1998	-11.8719
▁국가대표	-11.8719
▁스머프	-11.8719
▁안어울려	-11.8719
▁요근래	-11.8719
▁천천히	-11.8719
▁타임머신	-11.8719
▁힐러리	-11.8719
갚	-11.8719
겅	-11.8719
국회의원	-11.8719
아이덴티티	-11.8719
인시디어스	-11.8719
자이언트	-11.8719
챔	-11.8719
훤	-11.8719
▁격투씬	-11.8719
▁구로사와	-11.8719
▁꽃미남	-11.8719
▁나홀로집에	-11.8719
▁남녀노소	-11.8719
▁에밀리	-11.8719
▁재활용	-11.8719
밸	-11.8719
페넬로페	-11.8719
▁디비디	-11.8719
▁자연스레	-11.8719
無	-11.8719
▁기승전결	-11.8719
▁리브스	-11.8719
▁의학드라마	-11.8719
꿰	-11.8719
▁디아즈	-11.8719
▁불끄고	-11.8719
▁움직이거나	-11.8719
노잼노잼노잼	-11.8719
케스팅	-11.8719
▁윤은혜	-11.8719
▁정준호	-11.8719
▁최수종	-11.8719
▁저렴한	-11.8719
▁맴버	-11.8719
▁멈출	-11.8719
▁쥬라기	-11.8719
▁파고드는	-11.8719
합니당	-11.8719
▁과언이	-11.8719
▁보너스	-11.8719
▁톱스타	-11.8719
▁성동일	-11.8719
▁파트너	-11.8719
▁박한별	-11.8719
▁스크림	-11.8719
>.<	-11.8719
▁브란도	-11.8719
▁연기변신	-11.8719
▁강소라	-11.8719
1997	-11.8719
▁마녀사냥	-11.8719
▁태어났	-11.8719
차대전	-11.8719
▁남상미	-11.8719
▁물체가	-11.8719
▁드라마틱한	-11.8719
▁부러워	-11.8719
▁오정세	-11.8719
▁별두개	-11.8719
▁웨스턴	-11.8719
▁콧물	-11.8719
▁믹스	-11.8719
▁눌러	-11.8719
▁아쉬웠던	-11.8719
▁이경영	-11.8719
▁이집트	-11.8719
▁기다림	-11.8719
히히히	-11.8719
▁컬러	-11.8719
▁시한부	-11.8719
▁김지운	-11.8719
▁리얼리즘	-11.872
쪽팔린	-11.872
▁소름끼치게	-11.872
정무문	-11.872
▁꼬꼬마	-11.872
▁멘트	-11.872
▁연대기	-11.872
▁귀찮아서	-11.872
▁어지럽고	-11.872
▁미스터빈	-11.872
▁암유발	-11.8721
▁어두워	-11.8721
▁유대인	-11.8721
▁그려냈다	-11.8721
▁흐른다	-11.8721
ade	-11.8721
정준영	-11.8721
▁또하나의	-11.8721
대박나세요	-11.8721
▁워킹	-11.8721
람쥐	-11.8721
▁여럿	-11.8722
▁이정진	-11.8722
▁교도소	-11.8722
▁남깁니다	-11.8722
ER	-11.8722
▁호랑이	-11.8722
▁박진영	-11.8723
▁돋았다	-11.8723
퍼센트	-11.8723
▁베껴	-11.8724
▁디젤	-11.8724
▁흘러나오는	-11.8724
▁함축	-11.8725
▁부끄럽지	-11.8725
▁증오	-11.8725
▁웃지요	-11.8725
십쇼	-11.8725
▁절친	-11.8725
▁줄려다	-11.8726
ass	-11.8726
▁무고한	-11.8726
▁억지스러워	-11.8726
▁어느순간	-11.8727
▁굿바이	-11.8727
▁현실적이어서	-11.8727
▁0.1	-11.8727
▁협박	-11.8727
▁절실	-11.8727
▁대만족	-11.8728
밨는데	-11.8729
▁보자마자	-11.8729
부탁드립니다	-11.873
▁한시도	-11.873
▁길거리	-11.8731
좋겟네요	-11.8731
▁생각이든다	-11.8731
▁두마리	-11.8732
▁추상적	-11.8732
▁빠른전개	-11.8732
▁몇번을봐도	-11.8733
▁충동	-11.8734
▁이것밖에	-11.8734
▁하찮	-11.8735
▁달린다	-11.8735
밧는데	-11.8735
▁적절하게	-11.8736
▁빌린	-11.8736
▁받쳐	-11.8736
▁설계	-11.8736
▁맞출	-11.8737
점도아까움	-11.8737
▁만들던가	-11.8737
▁온통	-11.8738
▁불과하다	-11.8739
▁아깝더라	-11.874
▁반짝	-11.8741
▁숨겨	-11.8742
▁커트	-11.8742
▁예상대로	-11.8742
▁금발	-11.8743
▁짜장면	-11.8743
▁조잡하다	-11.8744
▁울버린	-11.8744
▁세기의	-11.8745
▁릴리	-11.8745
▁나왔는지	-11.8746
▁진출	-11.8746
▁사건들	-11.8747
▁기대했었는데	-11.8749
▁되버린	-11.8751
노릇	-11.8756
▁보았어요	-11.8757
▁되었어요	-11.8767
▁상황들	-11.8779
▁말아먹었	-11.878
독창적	-11.8794
▁신선하지	-11.8795
▁까먹	-11.8803
버리고싶	-11.8804
짜맞추	-11.8805
▁끝난후	-11.8807
▁벗어난	-11.8832
명품드라마	-11.8841
▁훈훈함	-11.8842
▁느껴져	-11.8859
▁싸울때	-11.8887
bi	-11.8894
때문인가	-11.8898
▁풀어냈	-11.8898
▁안들었	-11.8907
▁딸아이	-11.8916
들어와서	-11.8921
▁노출씬	-11.8925
카페	-11.8928
▁감안하면	-11.8934
▁2~3	-11.8939
하겠음	-11.8947
▁과학적	-11.8963
안됌	-11.8974
아까울뿐	-11.8983
▁우울할때	-11.8983
ear	-11.8994
nce	-11.9014
▁이어져	-11.9059
▁들어갈	-11.9069
▁돌아왔	-11.9102
ang	-11.9114
싹	-11.9124
킬링타임	-11.9125
옛	-11.9128
뻥	-11.9129
뚫	-11.913
케릭터	-11.913
제시카	-11.913
밝	-11.9131
차승원	-11.9131
연예인	-11.9131
귀여움	-11.9132
자동차	-11.9132
▁올려놓	-11.9132
초등학생	-11.9132
브루스	-11.9133
도데체	-11.9133
에피소드	-11.9133
솔직	-11.9134
픽션	-11.9134
짱짱맨	-11.9135
평균	-11.9136
걱정	-11.9137
뛰어난	-11.9138
첨봄	-11.9141
멋짐	-11.9141
모르겠지만	-11.9141
호흡	-11.9142
재미있었다	-11.9144
▁들어갔	-11.9145
정서에	-11.9148
앉았	-11.9158
됌	-11.9166
▁어이없었	-11.9194
적이면서도	-11.9207
빠졌다	-11.9208
ᄍᄍᄍᄍ	-11.9212
▁있을뿐	-11.9215
▁있을거라	-11.9219
man	-11.9258
▁채널돌리	-11.9259
년뒤	-11.9267
주기도아깝다	-11.929
별로였	-11.9297
▁미치는줄	-11.9319
▁네티즌들	-11.9319
▁재미있겠	-11.932
▁퀴어	-11.9347
빌려	-11.9358
▁늘었	-11.9387
▁틀림없	-11.9388
만화책	-11.9392
▁담백하	-11.9413
기승전	-11.9427
녁	-11.9428
숫	-11.9431
깁	-11.9432
훌	-11.9433
횡	-11.9433
첸	-11.9433
헷	-11.9433
넥	-11.9433
▁하지마루요	-11.9433
▁러블리	-11.9433
▁매드맥스	-11.9433
▁솔찍히	-11.9433
▁에바그린	-11.9433
▁인디아나존스	-11.9433
▁조마조마	-11.9433
▁키아누리브스	-11.9433
▁투모로우	-11.9433
▁퍼포먼스	-11.9433
▁후레쉬맨	-11.9433
겔	-11.9433
넉	-11.9433
됏	-11.9433
뮬	-11.9433
뺑	-11.9433
줄리아로버츠	-11.9433
텨	-11.9433
BGM	-11.9433
OUT	-11.9433
▁that	-11.9433
▁꾸밈없	-11.9433
▁나비효과	-11.9433
▁덴젤워싱턴	-11.9433
▁말코비치	-11.9433
▁멕시코	-11.9433
▁부자연스러운	-11.9433
▁삽입곡	-11.9433
▁시궁창	-11.9433
▁애슐리	-11.9433
▁야마카시	-11.9433
▁오컬트	-11.9433
▁우디앨런	-11.9433
▁주구장창	-11.9433
▁카메오	-11.9433
、	-11.9433
굽	-11.9433
떴	-11.9433
맬	-11.9433
배틀로얄	-11.9433
비긴어게인	-11.9433
뿅	-11.9433
앳	-11.9433
얍	-11.9433
욯	-11.9433
킁	-11.9433
▁맴도는	-11.9433
▁문채원	-11.9433
▁보셨으면	-11.9433
▁스티븐시걸	-11.9433
▁오마쥬	-11.9433
▁잘나가다가	-11.9433
▁지지부진	-11.9433
▁폰부스	-11.9433
+_+	-11.9433
▁거침없이	-11.9433
▁뽀뽀	-11.9433
▁소오름	-11.9433
▁아청법	-11.9433
▁코폴라	-11.9433
홍석천	-11.9433
▁김준호	-11.9433
▁서영희	-11.9433
앤더슨	-11.9433
윌리암	-11.9433
▁김우빈	-11.9433
▁목숨걸고	-11.9433
▁비롯한	-11.9433
▁소름끼치도록	-11.9433
▁앨리스	-11.9433
▁알렉스	-11.9433
▁정경호	-11.9433
▁그토록	-11.9433
▁김동완	-11.9433
▁요한슨	-11.9433
▁힛걸	-11.9433
주걸륜	-11.9433
www	-11.9433
▁벅찬	-11.9433
▁서정적인	-11.9433
▁핀처	-11.9433
툭툭	-11.9433
▁박용우	-11.9433
▁배워라	-11.9433
▁차기작	-11.9433
▁길들여	-11.9433
▁빠짐없이	-11.9433
유투브	-11.9433
▁미지근	-11.9433
▁탱크	-11.9433
비틀즈	-11.9433
▁감회가	-11.9433
▁소소하고	-11.9433
▁이문식	-11.9433
▁퓨전	-11.9434
▁정신차리	-11.9434
▁추격신	-11.9434
▁외노자	-11.9434
▁송새벽	-11.9434
강용석	-11.9434
유동근	-11.9434
▁서태지	-11.9434
다닐때	-11.9434
▁안볼란다	-11.9434
▁이태임	-11.9434
▁두말할	-11.9434
▁강원도	-11.9434
▁링컨	-11.9434
▁블랙코메디	-11.9434
▁흔치	-11.9434
▁반가운	-11.9434
▁지금에서야	-11.9434
▁나약한	-11.9434
▁망설이	-11.9434
▁개고생	-11.9434
▁제시카알바	-11.9435
▁자비에	-11.9435
▁화이트	-11.9435
▁비운의	-11.9435
▁숫자	-11.9435
▁베댓	-11.9435
▁흥행실패	-11.9435
▁상태에서	-11.9435
▁바람둥이	-11.9435
▁쥐어짜는	-11.9435
▁앤딩	-11.9436
▁휘둘	-11.9436
▁미루다	-11.9436
결핍	-11.9436
▁연결고리	-11.9436
▁top	-11.9437
▁다를바	-11.9437
▁망가진	-11.9437
▁개떡같	-11.9437
les	-11.9437
▁탱고	-11.9437
▁닌자	-11.9437
▁흘러간다	-11.9438
▁어릴땐	-11.9438
▁스페이스	-11.9439
▁이요원	-11.9439
▁직설	-11.9439
▁샤론	-11.9439
▁뒷맛	-11.9439
▁어렸을땐	-11.9439
▁서정적이	-11.9439
▁이서진	-11.944
▁늘어진다	-11.944
▁과대평가된	-11.944
▁잼있었어요	-11.944
▁가필드	-11.9441
▁클레이	-11.9441
▁배낀	-11.9441
▁기대할게요	-11.9441
▁이수정	-11.9442
day	-11.9442
▁합격	-11.9442
▁화면구성	-11.9442
▁당첨	-11.9443
▁재치있는	-11.9444
▁기타노	-11.9444
▁샤워	-11.9444
▁뻔하디	-11.9444
▁똥꼬	-11.9444
▁이미숙	-11.9445
▁죄송합니다	-11.9445
▁제미있	-11.9445
두근거리	-11.9445
▁아름답습니다	-11.9446
▁백프로	-11.9446
▁타잔	-11.9446
▁만들려면	-11.9447
▁다녀왔	-11.9448
▁특별히	-11.9448
▁문소리	-11.9448
▁활력	-11.9448
▁잠오는	-11.9448
시간짜리	-11.9448
▁출연했다는	-11.9449
▁졸귀	-11.9449
▁애로영화	-11.9449
▁웃었음	-11.945
▁따라올	-11.9451
얘긴	-11.9451
▁지루했고	-11.9453
꺼에요	-11.9455
▁주려다가	-11.9458
빠돌이	-11.9459
거슬려	-11.9459
▁닿는	-11.9459
▁공익	-11.9459
▁지워지지	-11.946
▁억지스럽지	-11.9467
▁즐거웠던	-11.9467
▁조선시대	-11.9475
▁면상	-11.9487
▁외면하	-11.9489
▁넘치지	-11.949
▁오버액션	-11.9491
▁중반이후	-11.9526
▁남녀주인공	-11.9529
이었군	-11.9531
옷입	-11.9553
▁건드리	-11.9554
▁부모님께	-11.9571
고싶게	-11.9585
차례	-11.9597
볼께요	-11.9609
아프고	-11.9663
♡♡♡♡	-11.9707
보고싶네	-11.9725
이쁜데	-11.9728
▁안어울리	-11.9728
아역들	-11.9754
▁창피하	-11.9757
하나도안	-11.9783
목적으로	-11.9821
오랜만	-11.9837
알겟	-11.9848
▁살고있	-11.9851
줄수있	-11.9851
▁보냈	-11.9857
▁인정받	-11.9888
앞뒤	-11.9899
스파이더맨	-11.99
하십니다	-11.99
상상력	-11.99
아쉬워요	-11.99
겉	-11.99
누군지	-11.9901
더러워	-11.9901
홍상수	-11.9901
헛	-11.9901
배급사	-11.9901
깔끔	-11.9902
하정우	-11.9902
스포츠	-11.9902
참신한	-11.9903
심지어	-11.9905
예쁜	-11.9906
전체적으로	-11.991
빠른	-11.9917
일어나	-11.9975
보편적	-11.9979
연기도잘하	-12.0002
나보군	-12.0054
온가족이	-12.0059
han	-12.0078
▁다섯손가락	-12.0081
싶지않다	-12.0093
▁설명할수	-12.01
쉽지않	-12.0104
▁토요명화	-12.0118
깜짝	-12.015
했으면좋겠	-12.0172
보는건데	-12.0178
▁열받아	-12.0196
앵	-12.0201
릅	-12.0201
ᅣ	-12.0202
깜짝놀랐	-12.0202
레미제라블	-12.0202
껌	-12.0202
디자이너	-12.0202
뚤	-12.0202
섀	-12.0202
스턴트맨	-12.0202
슥	-12.0202
쟝	-12.0202
▁가슴뭉클	-12.0202
▁경이로운	-12.0202
▁껍데기	-12.0202
▁꽥꽥	-12.0202
▁다큐멘타리	-12.0202
▁단언컨데	-12.0202
▁러브레터	-12.0202
▁로드리게즈	-12.0202
▁류승완	-12.0202
▁맴돈다	-12.0202
▁밸런스	-12.0202
▁부드러운	-12.0202
▁분신사바	-12.0202
▁불친절한	-12.0202
▁스콜세지	-12.0202
▁시덥잖은	-12.0202
▁아름다울	-12.0202
▁아메리카	-12.0202
▁웬만해선	-12.0202
▁조지클루니	-12.0202
▁투니버스	-12.0202
글래디에이터	-12.0202
꼼	-12.0202
뷁	-12.0202
인크레더블	-12.0202
잌	-12.0202
젝	-12.0202
죵	-12.0202
찼	-12.0202
파워레인져	-12.0202
퐁	-12.0202
풉	-12.0202
휙	-12.0202
▁곱씹어	-12.0202
▁김윤석	-12.0202
▁류덕환	-12.0202
▁안녕하세요	-12.0202
▁쯔쯔	-12.0202
▁최곤데	-12.0202
꼐	-12.0202
섰	-12.0202
스크린쿼터	-12.0202
어지간하면	-12.0202
쟁쟁한	-12.0202
툴	-12.0202
▁과감히	-12.0202
▁비노쉬	-12.0202
▁슈퍼액션에서	-12.0202
▁알게해줬다	-12.0202
▁앤드류	-12.0202
▁일으킨	-12.0202
▁코넬리	-12.0202
▁당당히	-12.0202
▁싱거운	-12.0202
▁김윤진	-12.0202
▁장학우	-12.0202
▁지겨움	-12.0202
특공대	-12.0202
▁간신히	-12.0202
▁갱스터	-12.0202
나래이션	-12.0202
떨어트리	-12.0202
▁명백한	-12.0202
▁바이올린	-12.0202
▁박진희	-12.0202
▁황정음	-12.0202
오오오오	-12.0202
▁여지껏	-12.0202
▁마이클베이	-12.0202
▁올리비아	-12.0202
▁기묘한	-12.0202
▁땡칠이	-12.0202
▁에리카	-12.0202
▁손색없는	-12.0202
▁강수연	-12.0202
▁찌꺼기	-12.0202
▁정준하	-12.0202
▁과감한	-12.0202
▁스토커	-12.0202
고정관념	-12.0202
▁해병대	-12.0202
▁발가락	-12.0203
강박증	-12.0203
▁괴리감	-12.0203
반데라스	-12.0203
▁미사일	-12.0203
▁차분한	-12.0203
▁무색하게	-12.0203
▁닥쳐	-12.0203
▁우에노	-12.0203
▁황진이	-12.0203
▁닭살	-12.0203
▁싸대기	-12.0203
▁깔려있	-12.0203
▁경상도	-12.0203
▁유전자	-12.0203
▁얕은	-12.0203
▁쉴드	-12.0203
▁이하늬	-12.0203
▁다이빙	-12.0203
▁갖춰	-12.0203
▁그와중에	-12.0203
▁제국주의	-12.0203
▁촌스러워	-12.0203
▁옷벗	-12.0204
▁어느덧	-12.0204
보셔요	-12.0204
고창석	-12.0204
▁잤음	-12.0204
▁둔갑	-12.0204
정신세계가	-12.0204
▁여태껏	-12.0204
▁괴로웠	-12.0204
▁모자르	-12.0204
▁영원하라	-12.0204
▁메마른	-12.0204
▁You	-12.0204
▁장난치나	-12.0204
봐서그런가	-12.0204
▁데려가	-12.0205
▁가슴찡한	-12.0205
▁칼싸움	-12.0205
▁느슨하	-12.0205
▁특정	-12.0205
▁1970	-12.0205
▁망가지는	-12.0205
▁변해가는	-12.0205
▁for	-12.0205
▁삼촌	-12.0205
컴백	-12.0205
▁다양성	-12.0206
▁한반도	-12.0206
▁SM	-12.0206
단조롭	-12.0206
▁1~3	-12.0206
▁옆집	-12.0206
▁바쁜	-12.0206
유재석	-12.0206
▁별점테러	-12.0206
▁are	-12.0206
▁보게됬는데	-12.0206
▁남아돌아	-12.0207
애청자	-12.0207
▁절실히	-12.0207
교수님	-12.0207
▁대륙	-12.0207
▁속았네	-12.0207
▁쪼금	-12.0207
▁세븐	-12.0207
▁몸개그	-12.0208
▁잘생겨	-12.0208
다닌다	-12.0208
▁손잡고	-12.0208
▁멍하니	-12.0208
▁남매의	-12.0209
▁김지수	-12.0209
▁조셉	-12.0209
▁쏟아져	-12.021
▁레벨	-12.021
▁산뜻	-12.021
머싯	-12.021
심은경	-12.021
▁크리스티	-12.021
▁언제끝나	-12.0211
▁궁극	-12.0211
▁터진다	-12.0212
▁취권	-12.0212
▁신선했고	-12.0212
ood	-12.0215
▁맥락	-12.0215
▁싶으나	-12.0215
▁베플	-12.0216
▁드러운	-12.0216
라디오스타	-12.0216
▁잡탕	-12.0217
▁토나올	-12.0218
▁뭐이리	-12.0218
번넘게	-12.0219
번쯤은	-12.0219
▁비슷비슷	-12.0221
▁죠스	-12.0221
팬텀	-12.0221
▁영향력	-12.0224
▁파고들	-12.0226
▁안타까웠던	-12.0227
▁거창하	-12.0229
천원주고	-12.0245
▁스텝들	-12.0245
▁허전하	-12.0246
▁미국인들	-12.0249
나본데	-12.025
아이템	-12.0263
▁눈앞에	-12.0265
샤이니	-12.0269
▁느끼게해준	-12.0274
지않네요	-12.0275
▁쳐맞	-12.0278
▁아가씨	-12.0283
▁배꼽잡	-12.0283
뜨겁	-12.0284
슈퍼스타	-12.0295
▁심정이	-12.0327
연애시대	-12.0332
만들었는지	-12.0351
▁몇번씩	-12.0356
▁추천하고싶	-12.0381
▁끼친	-12.0409
▁~~~~~~~~	-12.0443
▁재밌겠	-12.0462
걸리면	-12.049
못느끼	-12.0502
기전까지	-12.0538
잘봣어요	-12.0567
▁스탠	-12.0652
지말아라	-12.0665
성애자	-12.0675
▁별볼일없	-12.0718
어처구니	-12.0731
끝날때까지	-12.0731
맺	-12.0732
어설프	-12.0732
소지섭	-12.0732
무서울	-12.0733
팍팍	-12.0733
어쨌든	-12.0733
권상우	-12.0733
섬세한	-12.0734
타란티노	-12.0734
고등학교	-12.0734
임창정	-12.0734
짐캐리	-12.0734
우뢰매	-12.0734
시간가는줄	-12.0735
심형래	-12.0735
대통령	-12.0735
수면제	-12.0735
크리스마스	-12.0735
흥미로운	-12.0735
로맨틱	-12.0735
제임스	-12.0735
잊혀지지	-12.0736
주성치	-12.0736
캐릭	-12.0736
아무런	-12.0737
몇몇	-12.0738
참고로	-12.0738
모르겠네요	-12.0739
스스로	-12.074
엘리트	-12.0751
오로라	-12.0753
올해본	-12.0823
안보신	-12.0827
다시봐야지	-12.0835
▁있었군	-12.0854
시간이아깝다	-12.0925
▁센스있	-12.0925
▁해결되	-12.0929
그저그런	-12.0935
▁주위에	-12.0945
땜	-12.0969
ᄏᄀᄏ	-12.0994
됀	-12.1034
펐	-12.1035
륭	-12.1036
▁여균동	-12.1036
ace	-12.1036
가슴아팠	-12.1036
★★★★★	-12.1036
뻗	-12.1036
헿	-12.1036
▁time	-12.1036
▁고리타분	-12.1036
▁대서사시	-12.1036
▁빚어낸	-12.1036
▁센세이션	-12.1036
▁어드벤처	-12.1036
▁프랭크	-12.1036
▁하비에르	-12.1036
우마서먼	-12.1036
잘어울린다	-12.1036
졷	-12.1036
▁great	-12.1036
▁거듭할수록	-12.1036
▁고군분투	-12.1036
▁공상과학	-12.1036
▁끼워맞추기	-12.1036
▁놀랐어요	-12.1036
▁놀랐음	-12.1036
▁눈물콧물	-12.1036
▁댄싱	-12.1036
▁레즈비언	-12.1036
▁맥아담스	-12.1036
▁브로스넌	-12.1036
▁사이프리드	-12.1036
▁산드라블록	-12.1036
▁스텔론	-12.1036
▁아름다우	-12.1036
▁안어울림	-12.1036
▁알콩달콩	-12.1036
▁우왕좌왕	-12.1036
▁잘짜여진	-12.1036
▁쪽팔리	-12.1036
▁찰리채플린	-12.1036
▁탐크루즈	-12.1036
▁판빙빙	-12.1036
』	-12.1036
깼	-12.1036
냔	-12.1036
륨	-12.1036
왁	-12.1036
쳇	-12.1036
힝	-12.1036
▁송윤아	-12.1036
▁임요환	-12.1036
▁참다참다	-12.1036
▁휴대폰	-12.1036
굶	-12.1036
넝	-12.1036
눅	-12.1036
쏜	-12.1036
잘어울림	-12.1036
지않았나	-12.1036
캄	-12.1036
▁같잖은	-12.1036
▁김원효	-12.1036
▁단체관람	-12.1036
▁레슬리	-12.1036
▁루카스	-12.1036
▁상투적인	-12.1036
▁숭고한	-12.1036
▁장예모	-12.1036
▁쬐금	-12.1036
▁철저하게	-12.1036
오마이갓	-12.1036
카펜터	-12.1036
▁금성무	-12.1036
▁다운받았는데	-12.1036
▁버무린	-12.1036
▁빨려들어	-12.1036
▁조미료	-12.1036
▁톡톡	-12.1036
▁어린나이에	-12.1036
▁정신차려	-12.1036
▁해냈어	-12.1036
▁흐믓	-12.1036
▁견딜	-12.1036
▁염정아	-12.1036
▁진솔한	-12.1036
▁현주소	-12.1036
▁주저없이	-12.1036
▁똘끼	-12.1036
▁개신교	-12.1036
▁재조명	-12.1036
▁한채영	-12.1036
▁브리짓	-12.1036
▁천정명	-12.1036
▁소중히	-12.1036
▁이해가안감	-12.1036
며느리	-12.1036
▁돌이켜	-12.1036
▁그렇다쳐도	-12.1036
▁남동생의	-12.1036
▁몹시	-12.1036
▁박하선	-12.1036
123456789	-12.1036
○	-12.1036
▁넘버원	-12.1036
▁돌고래	-12.1036
▁끝내주게	-12.1036
▁모조리	-12.1036
▁오묘한	-12.1036
뒷	-12.1643
봇	-12.1912
텀	-12.1922
탠	-12.1942
탭	-12.1942
뷔	-12.1944
끙	-12.1945
텍	-12.1945
땟	-12.1945
잰	-12.1945
괄	-12.1945
넛	-12.1945
넴	-12.1945
쒸	-12.1945
줏	-12.1945
춥	-12.1945
퀼	-12.1945
『	-12.1945
뎃	-12.1945
돔	-12.1945
뒹	-12.1945
밓	-12.1945
벡	-12.1945
욥	-12.1945
쪙	-12.1945
뒈	-12.1945
{	-12.1945
}	-12.1945
섹	-12.2621
몫	-12.2629
쉣	-12.264
쏴	-12.2642
쵝	-12.2939
봅	-12.2943
컥	-12.2943
깬	-12.2943
꼇	-12.2944
눔	-12.2944
롬	-12.2945
홉	-12.2945
死	-12.2945
뿡	-12.2945
궤	-12.2945
깟	-12.2945
벳	-12.2945
볶	-12.2945
쑥	-12.2945
짰	-12.2945
펭	-12.2945
혓	-12.2945
갯	-12.2945
꺠	-12.2945
쫘	-12.2945
컵	-12.2945
렜	-12.2945
앰	-12.2945
쒯	-12.2945
$	-12.2945
ᄡ	-12.3754
뛴	-12.4053
잎	-12.4054
얕	-12.4054
갇	-12.4055
힛	-12.4056
챈	-12.4056
잦	-12.4056
ᄈ	-12.4056
딛	-12.4056
컹	-12.4056
쿤	-12.4056
팜	-12.4056
괸	-12.4056
멱	-12.4056
뺄	-12.4056
쎈	-12.4056
쏭	-12.4056
헠	-12.4056
읭	-12.4056
팰	-12.4056
女	-12.4056
쫓	-12.5005
촬	-12.53
킵	-12.5303
숏	-12.5306
룻	-12.5306
뽐	-12.5306
칵	-12.5306
퀵	-12.5306
휼	-12.5306
꽈	-12.5306
놉	-12.5306
떙	-12.5306
떵	-12.5306
앱	-12.5306
쥰	-12.5306
쨰	-12.5306
팟	-12.5306
딥	-12.5306
샵	-12.5306
웜	-12.5306
♪	-12.5306
갘	-12.5306
팥	-12.5306
곸	-12.6266
덮	-12.643
뼈	-12.6431
묶	-12.6431
뗄	-12.6433
걱	-12.6724
핍	-12.6729
좁	-12.6733
끽	-12.6734
굼	-12.6734
몹	-12.6734
밈	-12.6734
쥴	-12.6734
찟	-12.6734
빰	-12.6734
촤	-12.6734
ᆪ	-12.6734
꿧	-12.6734
띨	-12.6734
랔	-12.6734
렙	-12.6734
뮈	-12.6734
벵	-12.6734
슐	-12.6734
슛	-12.6734
옇	-12.6734
쮸	-12.6734
챠	-12.6734
쳣	-12.6734
쿼	-12.6734
큭	-12.6734
팁	-12.6734
낑	-12.6734
녜	-12.6734
뙇	-12.6734
졉	-12.6734
쭝	-12.6734
룽	-12.6734
뭄	-12.6734
븅	-12.6734
읏	-12.6734
챦	-12.6734
콰	-12.6734
랠	-12.6734
×	-12.6735
》	-12.6735
꽥	-12.8401
먀	-12.8401
웍	-12.8401
뇽	-12.8401
옄	-12.8401
作	-12.8401
깸	-12.8401
됄	-12.8401
뽜	-12.8401
쓱	-12.8401
헹	-12.8401
귯	-12.8401
끅	-12.8401
믈	-12.8401
뽁	-12.8401
삿	-12.8401
숩	-12.8401
쌌	-12.8401
앟	-12.8401
젯	-12.8401
쨍	-12.8401
찿	-12.8401
캉	-12.8401
쿰	-12.8401
폈	-12.8401
핼	-12.8401
홬	-12.8401
냇	-12.8401
슝	-12.8401
쎼	-12.8401
옼	-12.8401
쨉	-12.8401
찹	-12.8401
츰	-12.8401
헀	-12.8401
쌕	-12.8401
냠	-12.8401
ン	-12.8402
■	-12.8402
괜	-13.0094
숀	-13.0097
쏙	-13.0098
엮	-13.0098
숲	-13.0099
췌	-13.04
굉	-13.0401
쬐	-13.0401
ᅪ	-13.0401
롸	-13.0401
뱌	-13.0401
高	-13.0401
갰	-13.0401
넙	-13.0401
멩	-13.0401
뽄	-13.0401
셍	-13.0401
盧	-13.0401
美	-13.0401
갬	-13.0401
띤	-13.0401
맵	-13.0401
몃	-13.0401
샨	-13.0401
셩	-13.0401
옌	-13.0401
첬	-13.0401
캇	-13.0401
ᄄ	-13.0401
깰	-13.0401
꿎	-13.0401
맄	-13.0401
켁	-13.0401
펫	-13.0401
☞	-13.0401
깄	-13.0401
뤼	-13.0401
쟎	-13.0401
짦	-13.0401
쳥	-13.0401
튈	-13.0401
쭐	-13.0401
곘	-13.0401
⊙	-13.0401
い	-13.0401
※	-13.0402
텝	-13.2861
싯	-13.2873
슷	-13.2892
뭥	-13.2894
곀	-13.29
쨔	-13.29
쥘	-13.2901
헣	-13.2901
멌	-13.2901
中	-13.2901
뎐	-13.2901
쫭	-13.2901
읔	-13.2901
▼	-13.2901
日	-13.2901
有	-13.2901
듸	-13.2901
땃	-13.2901
깅	-13.2901
꿍	-13.2901
밎	-13.2901
욷	-13.2901
짯	-13.2901
핰	-13.2901
훙	-13.2901
言	-13.2901
갉	-13.2901
겡	-13.2901
뀨	-13.2901
끕	-13.2901
녓	-13.2901
눼	-13.2901
뎠	-13.2901
뗀	-13.2901
맟	-13.2901
몀	-13.2901
뻬	-13.2901
슭	-13.2901
쓔	-13.2901
앎	-13.2901
얇	-13.2901
옿	-13.2901
잏	-13.2901
졍	-13.2901
좐	-13.2901
쯩	-13.2901
챌	-13.2901
컄	-13.2901
탬	-13.2901
↗	-13.2901
깠	-13.2901
둣	-13.2901
뵜	-13.2901
쌘	-13.2901
찻	-13.2901
칰	-13.2901
캘	-13.2901
も	-13.2901
好	-13.2901
山	-13.2901
▷	-13.2901
▽	-13.2901
か	-13.2901
し	-13.2901
的	-13.2901
で	-13.2901
《	-13.2902
됴	-13.6161
뿍	-13.6234
─	-13.6234
쟘	-13.6234
━	-13.6234
깻	-13.6234
뽈	-13.6234
얏	-13.6234
힣	-13.6234
겧	-13.6234
땄	-13.6234
붸	-13.6234
샥	-13.6234
쎔	-13.6234
웤	-13.6234
­	-13.6234
ᅯ	-13.6234
ᆭ	-13.6234
↑	-13.6234
▶	-13.6234
☜	-13.6234
づ	-13.6234
善	-13.6234
곪	-13.6234
귱	-13.6234
귿	-13.6234
긱	-13.6234
꼰	-13.6234
뀰	-13.6234
끆	-13.6234
뉨	-13.6234
땍	-13.6234
땨	-13.6234
떈	-13.6234
먄	-13.6234
몄	-13.6234
뮌	-13.6234
볕	-13.6234
봈	-13.6234
빢	-13.6234
뼛	-13.6234
셤	-13.6234
숍	-13.6234
숑	-13.6234
쉅	-13.6234
쉡	-13.6234
슉	-13.6234
쎠	-13.6234
얜	-13.6234
엨	-13.6234
젋	-13.6234
졈	-13.6234
좡	-13.6234
줠	-13.6234
쬬	-13.6234
탉	-13.6234
팸	-13.6234
폿	-13.6234
핛	-13.6234
흣	-13.6234
흨	-13.6234
넢	-13.6234
쎅	-13.6234
쏫	-13.6234
팻	-13.6234
햅	-13.6234
男	-13.6234
귝	-13.6234
딤	-13.6234
밷	-13.6234
엡	-13.6234
읃	-13.6234
돗	-13.6234
」	-13.6234
要	-13.6234
늣	-13.6234
뎄	-13.6234
릐	-13.6234
윔	-13.6234
읅	-13.6234
뵛	-13.6234
き	-13.6234
っ	-13.6234
겋	-13.6234
す	-13.6235
た	-13.6235
●	-13.6235
봊	-14.1234
돱	-14.1234
솢	-14.1234
햤	-14.1234
ら	-14.1234
れ	-14.1234
홱	-14.1234
튿	-14.1234
ᅴ	-14.1234
愛	-14.1234
者	-14.1234
놕	-14.1234
눙	-14.1234
딍	-14.1234
뜷	-14.1234
륄	-14.1234
[...]
